1111101001100010
0000000111001100
1110100011110101
0000111100011111
0110000000111100
0000111110000010
1110010100110010
1010000110101000
0100001011000010
1111010011111011
1110011010011100
1110001011100101
1100101010010011
1000000000000000
1111101010010100
1111100000001100
1111001001101000
1100001011100110
0000000000011001
1100010111010111
1111011101101001
0100100001111101
1111100001111100
1001110001001000
1111101000011101
1011001011011111
0001011000100100
0000111011110100
0001111100101110
1011101100110010
1111010001001101
1101101001101111
0100111000011101
1101111010101111
1110011100000010
0000000011100110
1111101101110001
1000000000000000
0000100110010101
1110100001011110
1010110011001010
0001111000001110
0001101100001011
0111111111111111
0000011000011010
0011010001001000
0011010000011011
1001011011011110
1111111111000101
0000010011010000
1011001011000110
1101100101000110
0000100101111110
0010010001101111
1110111011010110
0011011110001111
0010001111100101
0011011001110011
0000110111101101
0010100001100110
1110101000001111
1011100110111110
0000101100110011
0000111010001011
