0000100111010001
0000011101101010
1001111101010110
1110100011111100
0000100001000100
0000010010111010
1111111110111000
0000110010111101
1101111010000100
1111100001010001
0001001110110101
1111110011101010
1101110011001000
0010001110101010
1001001010111101
0001000010110010
1101001110101010
1101011110010100
0010111011000100
1111101101100100
0000001101001101
0011110111101111
1010110000001100
0100000010010111
1111001101001011
0000101001000110
0010100101110010
1000110010111110
1110011011011000
1111000100101111
0000110000011101
0100000010001001
1101001111111011
0010111100110010
0000100010010010
1110110110110111
0011110011000100
1011001100000110
1000000000000000
1111000100010111
1011010011010000
1000111010000010
0001010001110111
1111100110100100
1101001101010101
1001100101101011
1111010110010011
1111110110001100
1111110110001111
1111100110011011
1101011000100101
0000100101001000
1111011011101101
0001110001010101
1110100010010001
1101000101100010
1101001010100110
0010001110110001
1101011101011010
1001101100011010
0000101011010101
0001001010101011
1111010100111100
1011011010011010
