1111101000010110
0000001101001000
1111011001001001
1111111111111101
0000100111110011
1111011111110110
1111111110101101
1111100111110011
0000000111010101
0000010111101111
0000001011011100
0000001001010100
0000010010100011
1111011000011100
0000100000111011
1111010111000111
1111100010010110
1111110101000000
1111011010000111
0000100000100100
0000001100001000
1111111011010110
1111110110100111
1111011011000000
1111101100001100
0000010100001011
0000100010010011
1111101011011111
1111111101001101
0000010001001111
1111010100100010
1111100110101000
1111010000001001
1111111101011100
1111111100010110
1111101010100000
0000000001000001
1111011011110001
0000100001110001
1111111111000111
0000011110010010
0000010011101110
1111110001001101
1111001100110000
1111111110110111
0000001111111101
1111100000000100
1111111000011100
1111000101011011
1111011101110011
0000000111111000
1111100010100011
1111101100101001
0000000100000111
1111010010101011
1111010111110010
1111011110011010
0000000110111011
1111001101000101
1111000110100110
1111001110000010
1111000100000111
1111110101100010
1111001100001011
0000001010111010
0000001000111101
0000100101101000
1111111111010110
0000010011011001
1111001100110100
1111111100101000
1111110111011101
0000001010011110
1111101111011111
0000000001001000
1111110100000101
0000001111010110
0000001000100000
0000010001000101
0000001111101010
1111111111010011
1111101100111000
1111001011010100
1111110001111000
1111101100000111
1111001111000001
0000010010111111
0000001111011110
1111000111000010
1111100110111100
1111010111010011
0000001110110100
0000001000111000
0000001011011111
1111010101100011
1111110010010100
0000011000001110
0000001011100110
1111111010111011
1111010111110010
1111100001101011
0000010110110001
1111010010111101
1111101101101011
0000010010001010
1111011110011111
1111111011110001
0000000011000010
1111110011111111
1111110110111000
1111100010100011
1111010101100001
1111101001100001
1111011010011011
1111111010101001
0000001100011110
1111001010101101
1111011101100110
1111101110011010
1111110001101000
0000000110101100
1111110111010110
1111001111101000
0000000001100100
1111110010101010
1111100100111000
0000010100100001
1111001011011100
1111011101111110
0000001100000100
1111001011010011
1111011100101000
1111100000100101
1111101010010110
1111111110110111
1111100010111100
1111011111110110
1111000101000001
0000000101110011
0000010100111000
0000001000111111
1111010111001001
0000000101100101
1111011101111111
0000100101000011
0000110111000011
0000101111000111
1111110101001011
0000001111100001
0000001000000100
0000000100011010
1111111001000011
1111101001101101
1111111000000010
1111101010001111
0000100010010100
1111100010110100
0000011001100110
1111011111111011
1111111100100100
1111110001001110
1111101111001000
0000011101011111
0000010010010111
1111111110010010
0000000110011010
0000011001010000
1111011101100000
1111011010010110
