1111111000001110
1111110001100100
1111100100001001
0000011101001011
1111011011000011
0000000010100001
0000011101011101
0000000000101101
1111101100101010
0000000011111100
0000011010101101
1111111010111000
0000100000010100
0000100100010001
0000010000101001
1111111010010111
0000011101010100
1111111000101101
1111011101110011
1111110001001001
0000100100000011
1111110011010101
1111010100001011
0000010011111011
1111011011010100
0000011001010011
0000011001101110
0000100001001011
0000100000100111
0000011000111111
0000000001010111
1111100101000111
1111100111111011
1111111101001100
1111101111001000
0000001010010010
0000000111100010
0000000010000100
1111110100101001
0000010100111110
0000010001101010
1111100110001101
1111100000101111
0000100100001000
0000000111001110
1111101000101111
1111010000001100
1111001000000100
0000000011101000
1111100011101010
1111001001101110
1111010111110100
1111011001001011
0000010001110110
0000001100000101
1111111100101111
1111011110001111
1111010010110100
0000001101000000
0000001100010001
1111001001000010
1111111000100110
0000010011101010
1111011000000011
0000010100100000
1111101111111110
1111011111111001
1111010100100101
1111101010101111
0000000010101000
1111001111101001
1111110100000000
0000001001001010
1111101011011110
1111111101001101
1111101110101110
1111100010110101
0000000100100111
1111101011110110
0000100110111000
1111100100100001
1111011010101001
1111010000011111
1111011011010001
1111100000110001
1111011100010110
0000001010111000
1111101001101001
0000000110111010
0000000000101011
0000000011000001
1111111100100101
1111011100000011
1111100000011011
1111011101111111
1111100101110110
0000001101110100
0000010110100011
1111001100100101
1111101001100111
1111110001010111
1111111101111011
1111010111011010
1111111100110001
0000001000111010
1111110100100110
1111101001100111
1111100100001011
1111001010110101
1111010011001100
0000000111011010
1111011100101101
1111100011100110
1111111001101010
1111110111010111
1111100111011010
0000001111110110
1111101000011101
0000010110000100
0000001011010101
1111100100101111
1111111111011100
0000001111101110
1111101100101011
1111010111110010
0000010111001001
1111100111111101
0000000001100000
1111110100101011
0000000100111001
1111110000101011
0000010001100110
0000000100001000
1111101111001000
1111010011001110
1111101001011010
1111001011001001
0000000001111010
1111100101111111
0000000001110001
1111100000011011
0000001000101011
1111100100111100
0000001100100011
1111111101010101
1111110110110011
1111100000101100
0000001111011111
0000000100011000
0000010101111111
1111101111101010
1111010111111001
0000001011111110
0000000010001001
1111110100010000
1111100010001010
1111011100000000
1111110011110100
0000000110111111
1111101111001111
1111100010111000
1111111101001011
1111011010111110
0000010001000111
0000011100011011
1111011001000000
0000100111101000
0000100111010011
0000100111011101
