0000000110110011
1101001010010110
1100111001010100
1011110011010011
1000000000000000
1000000000000000
1000000000000000
1000000000000000
1100111100101000
0000010101111010
1000000000000000
0000010001011100
0000010100111110
0000110100001111
0001001000111011
1111010010010001
1000000000000000
1010001001111011
1111101011000111
1010101001010000
1000011111010101
1100100100100100
0011000000001100
0100110111010110
0000110100000000
0111111111111111
0000000011110001
0011101000000001
0010000101000110
0001110100110101
0000100111010010
1101101000010100
1111010111110001
1110101110111010
0010000101011110
1111110010111011
0100000011101011
0001011000001011
1110001000010111
0111111111111111
0011101111111000
0011001011000001
0000001110011110
1111000011111100
1101111011100001
1001110011010010
1111110101010100
0100010011000110
1101101111100111
1110110111010100
0100110111000011
1110010101110101
1111101101010010
0101111101110101
0010111010100010
0000101011111011
0010011011111111
0000110100011001
1001000001011011
1111000001111100
1111110000000000
1011000001010011
1111111001101011
0001011011000110
1000000000000000
0110110001100100
0001001101100000
0010000111101111
0010101010011010
0110010100011110
0000100110010101
1100101000000100
0001111000110101
0101100111101110
1111110001000101
1111011001000100
1000011010010000
1000000000000000
0101110110110111
0000001001000110
1101010011111011
0000100000100000
0100011011001111
1011001110010001
1000000000000000
0010111010001011
0101111000101011
1110010100100100
0000101011010110
1000000000000000
1001001111010100
0111111111111111
1111111001111011
1111100111001011
0000100100100110
0010000111001011
1001010100101011
1001111101010110
0011101001011000
0100111011011010
0000011001001100
1111111111101011
1110101111111001
1100001000001110
1111101111100110
0010000110000011
0000100101011100
0101101000100111
0101110110011101
1100000111101111
1100001011100000
0111111111111111
0100000000001000
1110110011100010
0010001110000011
0001110010101100
1000111110111001
0000011010111111
0000001101110001
1101101100010000
0000011101110100
1110101001110010
1000000000000000
1111011100111001
0111111111111111
0010000110001001
1110000100101011
1101101110010111
1000000000000000
1010010011101001
1100100101101100
0010011010101010
1001110001000011
1011110011101000
1011110001101000
1100000100100011
0010000010110011
0001111111100110
1101010110010100
1001101010001100
1000101110000000
1101000000001101
1111010000111110
1110110101010101
1000100011000101
1000000000000000
1110101001101001
1110000100101111
1110000100111000
0000110100111100
0001000011111111
0011100011001111
0011000100000100
0010010100100110
1100101100110010
1011000111100000
0000110101111011
0011101000000101
1001011010110100
1110010100011111
0001010001100000
0001000100001101
1111001100101110
0001100000001111
0011001100101110
1110101110111001
1000110011111101
0000101101010010
1101111010010000
