1111011110011111
1111011101011001
0000001101001011
1111000100010101
1101110001001101
1111111001001000
1110110001000110
0000111111111110
1111100110000100
0000111000010110
1101100100001011
0000001101010001
1011101000110100
1101110010000110
0010011001000101
1111010010000111
0000000110100111
1011111101001111
1110001001011000
1100110101111010
0000100101101001
0000110001111000
0000100100110001
1101111111111111
0000101000100001
0001110001101111
1010100101110000
1100100101100111
1010001011110100
1101110011111100
1111011110101111
1001010101111100
0001110111011001
1111101001111110
1100000010100100
0000000100101001
1011111010111011
1001111011010001
0010011000011100
1111010011100001
1111101111000001
1100111000101111
1110100000010001
0000100110001001
1111101000001000
1011001111001111
0100011011110100
1011010010001010
0000110000010110
0000010101100100
0011000000001110
1101010001011000
1110101111010101
1111101111010001
1011011000100101
1001001001110111
0011001111110111
0000110011001101
1101011010111110
1111101100111001
1000111100101001
1011001111011111
1110011011001000
1111111010010000
