1111011101000110
1111001001011100
1100101110000000
0000011000010011
0100010111110100
0001001001011110
1110000100111000
0110011001011100
0011111111000111
1111111111000101
1110100011110101
0010001101101110
1111110000011000
0010110110101110
1110011110100101
1111101111011110
1110111011000110
0001011101111010
1100001110010010
0001111010011100
0001101000101100
1111111101111000
1111100100010000
0010000111101000
0000100111110001
0001111000010101
1111100101001011
0000000100100110
1011100101100100
1110110111101011
1111100101000100
0010101010110100
0000010101100001
1100110101000001
0001110010010111
1110010010000100
0001110110101101
1101100110110010
0011100110110000
0011010110000010
1000000000000000
1101000111110100
1110000100001101
0111011111100111
0000111001110110
1001000010111000
0100010100111001
1101011111010101
1111010101010111
0000101000100111
1101011010001101
0011011110110001
1111111010101100
0011010001011011
1111111001000000
1101110111100111
0100110111100100
1110100110001111
1011001100110110
1011010101000011
1110110100011000
0001010010000101
1111101111000100
1011111111101100
