10100111010011
1100111110011
10101001100101
111011010100
10010010011110
1111111101101011
10000001000010
100110101111110
100111000110011
100111010101100
10101010010000
1100011100110
10100011001111
1001101110011
1010010111001
111111111010
1100000001010001
1110011100001011
1101001111011101
1111001000011011
11111000000101
100010011111110
1110001111
1010001011000
11010011011
1010111100001
1000111011000
1010001011110
1100111010010000
1000000000000000
1000000000000000
1101101110000110
1111011001010001
11001111101011
10000010011101
101011101110
1010100110010110
1001110110111001
1110110000011
101100100100
1110100100110100
1100010101100101
1001010011010110
1111000110110101
1101101101001
100001001100100
1110001010000001
1111000011101
1101101010011100
1001000001101
11100011110000
100100011001100
1001011111011
1011110000001101
11010
100000101000
1100011100101111
11011010110110
110010001011110
1110110000100100
1101111100000001
101100000110
111111111111111
111111111111111
111111111111111
1100010100101
1111100010011010
1100111010111011
1000101101000000
1000000000000000
1010010111100
101010001001110
1000011010101100
1000000000000000
1001101001000000
1111000110100001
101111011001
1001110100101
10010010010011
10100010110111
10110110111
1111111011101100
1010110110011100
1101011011101011
10101010011110
1100101010001110
1000000000000000
1000000000000000
1000000000000000
1000000000000000
1100
1110110010001
1111111010010100
1111111101011110
100001011101110
1110111000100110
1101010111101111
10110011011111
10000000101
1000000000000000
1000100101101101
1000000000000000
1001011011011110
10001001110010
110000111
11000111100
1011000000000100
10011100111110
1101001011001100
1100101110000101
110111111101101
100111100010011
1011101100000100
10101101110000
1100000101100011
100001111000010
1111110110110000
1101011101001001
1010010000100
11101011001111
10101000100010
1011111110100010
1111010110000110
100011010110000
1111000000000111
1101011111001110
11000000111011
1000001010100000
10001011010011
101111111111001
1110010010011010
1111100110011111
111101110000
1000110101
10001100011
11011111111111
1101101111111
101011101010
1101110101011
110001110001010
1000101111110
100010010011101
10011011111111
1011101101
1110000101010010
1111111010111010
1110100100001
100101000110
1101000011010
1110001101101
1110110010000110
1010010010001
100100010111110
1100000110100
101111010111
1110111000000
10101110001010
1000011100
1100111101110010
10111011100000
110001111010
1111010100101001
1111001000001
1111111001101010
11010001100
1111011111110010
1111100010010000
1111010001001
10010111101111
