110110101
1110110011111101
1111000100001101
1000110110100
1101010100100
1111001111010000
1001110100101
10111000
1111110010010100
1110000011000001
1110100000010000
1110101001000111
1111110001111110
1111111100010110
1110100101000001
1111111111000001
1001101111011
10100110101111
10010100001101
100111111000000
110110101010111
11110110111001
11001000111
1011001110111100
10010001101001
1111100000111110
110011011001
1100001100111011
1101000110101110
1110001100100011
11000111111000
100011001110010
111010100010
1110000111000011
1100101100001
10001101111001
10110110001001
101011011010110
1111111011101011
111001001
110110101
1110101111111111
1000100000011
10010011011111
101000011111011
1111111100011111
1101011011000
1100110001111
1000000011101
10110101100101
100011001101011
1101000010011000
1111100010000101
100000100000111
1111000111111001
101000101010
1110011101010
1101011110010101
1111010010101000
11100111010
10101011011100
11111001101110
1110000010111
1101010001010
1000111001000
11000000110
10000110001000
10110110111100
100101110010010
1111100111101110
1011011110010100
1000100011001111
1101000000110001
1001001011010000
1100011111011110
1101000111100001
1100011100101000
110000000111
10011111110111
10100111100111
1111000000011
1110100111001011
1010000000101001
1000000000000000
1100101110111001
1010110101001101
1010010111100111
1011100110011111
1010101111101000
110011110000
101010010110
1010110110
11100100000001
1110101011110011
1000000000000000
1000000000000000
1010111111001001
110010110011
1100001100101111
1000000000000000
1001111100001110
1100110001110001
1010010111000001
1110100100010111
1111000110111001
1111110110011110
10111110110111
10000001000001
1011000001011100
1100010000100100
1110000101001111
1000000000000000
1000000000000000
1110111100011011
1011001110110101
1001111001111100
10001011101110
1110101111100110
10100101010101
101100101000101
101111011101010
101011110011010
110010000011011
1011011011101011
1000000000000000
1100011001010100
1101111110110
1111001000100
1101111110100001
1001001111
101000110100100
11111000001011
11000011111000
100001111010000
101100001111100
11000101010110
1111100000010111
101000110101001
101101111000010
100100001011110
110000011101000
111010000100111
10100110111100
1110110100011001
10101111111
11001011101000
1100110001011
1011101101010
1111100010100100
110000011101
1001000111010
100010000011110
11101000000111
1010110001110
1111010000000101
101000010010
1111011111110110
10001101100010
101110111000101
1001111111001
100001100000010
101001001111010
11111000010110
10000010011
10100110011001
1101101111000001
1111001001001100
1111100010010111
1111101100010011
