10100000011001
1111101100000
1010111001010
110111001000
1011000010010
10100110111000
110110011111
11011001110000
101100100000111
101101110001000
101000110110011
10010010100000
1110010001111
1011000111110
1101001000010
10001111100110
111111000000
1111001000001111
1100010001
1101000110110110
1101010000010001
10011010110010
10110110111111
1101111010001
101111101000000
1110000011000101
1110010001111
10010001010101
1111111110000100
1101110000101010
1111111101100101
1110111100001011
1110010011101111
1101001001100010
1111111010111010
1111100011111111
1111110010101100
111110001011010
11011101110101
100101101101100
1111110000010000
1100101011111001
1110101011110111
1111001011101011
1101010100110100
10010001011111
10101111110100
100000010101000
100010111000
11011010
1011001010001
11000110110000
10011111110001
1100100000101111
1100011011100010
10110111010011
1111001111000100
1000100001010
101010111011110
110101110000001
1111111001110
1010011100110111
1000000000000000
1011010101000100
1111101101101110
1101111010100
1101011100000101
1010001100001
1110001101010110
1110010111010010
10100111111000
10100010100111
101111001000
10110100111011
1101010110001
1101000001001101
1011001100110100
1101100001100011
1111101000101011
110110010
10011101101000
10010110111101
11010110
1111010110100
1000011000110100
1000000000000000
11001111011010
111010011010011
110111110000101
1100111000101110
1010111100001011
1001110111001100
101111011101
1101010000100
1101011010101100
1111000001010
1101111100011011
1000000000000000
1011010010101101
1101101101010010
110011000111
100111010000101
1100100100001011
1001010111100000
1001101101111000
10101001011001
11101110110000
1111111101001111
1110011111000
1011100111110001
1000100100111100
10011001110110
1000011111001
1100110111100
1100101110100001
1000100101110111
1100010111001010
1111101001010100
1011110000011
100110110100
100111011100
11000100110101
10011001110001
1110000110111100
11011100101001
11101001010
1110010000111010
1010101011000111
1000101100001111
1010100011010
1111010000100101
1100110111000111
1110011011000101
10010010110010
100010001001000
10101111101110
1101001011001100
1011111111110100
1001101111100110
1001110100010000
1011011101010011
1100010110010110
1111011010011
1111011010110111
1100100010100100
1110001100000001
1111110010001001
100101101010101
11110111101100
1000110010001
10011100011100
1100110011111101
1000000011001110
1110110011110011
1101110101011110
1000101111111
111111011010
10101110000010
1111111011010001
1010101111110011
1011101110000011
1011001101000
101100011101101
10111010000100
1011001011101101
1001011010010100
1101101111000110
10100010011
10011111001111
