1110100111001
10001001101011
10001100101011
1000000110011
1111100000101001
1110100100100101
1000100010011
1110111011111110
10011001001
1011101010001
1101000100110
1010000110111
1111000011011
1001111001101
10001011110110
1010001010000
1100001100101010
1111011101110101
110010101100001
1111010011101011
1011100011001110
1101111100111101
1110000110100100
1101100101100101
10010101001011
1101011101101
10001010010001
10010100000110
111111111111111
10111111001000
1111101010101001
100111010111
1111011111000000
11010110101
101100001011
1100000100110110
11010011001
10010111011101
1110100111011
10111100010010
1010000000100
1000100111110
1101000111000010
1111111010011101
11110110000000
101100101001000
111011100010101
10110100010000
1000100001100
1111011100000110
101111001000001
110101110100
110011110010
1111001001000
1000001000010
1100010110101
11100000001000
11100000001101
1011100111101011
1111101101010101
10000100010011
100011101110011
10010001001010
11101010001100
11001111010000
1100111010101
10111111011011
1111100101011111
11000001001100
1110111101001011
1100110010010011
1110100111000001
11110011010
11000001110000
10111100111010
1001000001100
110000010111111
100011101000000
110110000110
1110000010001010
1001011011010000
1101110011000000
1110110100111010
1110100111101001
11000010001011
1111100010000010
1110001011000110
1011010111101101
1110101111
1000000000000000
10010111001
1001001000111
100010001001011
1111111000101010
1010111111000110
1110010010111110
100000100100
1100100000111
1011001101101011
1010111011101011
1000000000000000
1011101000010010
1010100100100111
1111111100101100
1110101001001101
101110011110100
110000101110100
1100111001010100
110101011101
1111001011101111
1111101111101001
11001110100100
10010101111111
1000110100010011
1010110101101001
1101111111001011
1111110011001110
1100001011110111
1111010010001011
1001010000111
1011010110111101
1101111111101000
1010010111010001
1011100100001101
110101011011111
100010010001001
1000000000000000
1000000000000000
1100110001110110
10011011100
1100101100000110
1101101101110100
10001110111000
1011010100101111
101111001110
1101111001100011
111100100110
1101010001010001
1011000011101010
1000000000000000
1011101011101011
11011111101
101011101101
10001000010011
1111011101010101
1000011001110
1110000001010100
1101001001010011
100001101010
1111001011010
1010110100001000
1100000110111000
1000000000000000
1001100110000011
1000000100001
1100100100100
11010100110001
1111011101111010
1011110110001011
1100010011
100100001010100
111111111111111
101101111110
101001101101101
1110100000110101
1010101110111100
1111010000110100
1111000101010
10000000110011
