10111011010
1111101011011100
1111010000000101
10110101011
1111100000100010
1110101110000100
1110110000011110
100110001110
1111111110000001
1111001100111100
1111111100011000
1111001011110101
1111110011101001
1111011000110010
101110100000
1111010010111100
10011111001111
10000101101111
1110110001110101
1011000101001000
11111101100011
1100100011010
1110110111101000
11101111001111
100001010001111
1111111001100101
11101100111
111101001000010
101110001001010
10101011100011
110011101011001
1110100100000010
1101000111011001
1110110000111010
1001010011111
11100100101011
10011011111101
100101011001011
1110100000111110
100011011100
100100010101100
1101111100010
111010000100
10001110011010
101110100101
1000011000
110010100010
10110010100000
11011000000001
1100111111110
11110000101100
111011001101000
111000100000
1000000000000000
110110111101
1010110101101
10110110010
111000111011000
1100011111010000
1111111111110011
100111010101100
10100010101011
1011000000101
111110111110110
1011100010101
1111110100111101
1000000000000000
1011101010111011
100011111001
1000011011010
10101111101011
1001111001110000
1000000000000000
1000000000000000
1000000000000000
1111110010001111
100100100001010
100001111101
1111100110111111
10101000
1100111100001100
10000111110010
1110011010110000
1101000000110
1110001100101001
1000111000010100
1010001001011110
1000010000000001
1110111101010111
11110001010011
1000001010100
1111010010010101
1110100001
11110001010111
101001111001000
1101111001010
1010001100001
1001100110001
1101110110111010
1010011010111110
1110101111100100
1011100000001111
11000001111101
1111011010000000
111000000
1000000000000000
1001110110000001
1000001001101011
1100110110100100
1110100010010000
1111110000011010
1010011110001100
1100001000111110
100011100001
100001001011010
11100001001001
1110010111101110
1111010110100010
1000000101000011
1000000000000000
1000000000000000
1000000000000000
1000000000000000
1000000000000000
1111111110110110
1101010010010101
11010100111101
101010101111100
110100101100001
1111100000110101
1101100110100111
11010110110010
11101100010
1111101110110110
1110000011001
10111111011111
10110001001010
11011101010111
10101001100011
10111101010111
11001010101101
110001010011000
1111011001110111
1101110111001101
111111111111111
110100010000011
10100011110101
101110010100000
110011001101010
11111000001000
1011011000101
10111110101010
110111111010
1110110001010100
1110111001101101
1110111001011100
1111011010010111
11010011000100
110111000001100
10001001101111
1110010000011
100010101100000
101101111100
1001001011101000
101000111100011
1100001101000001
1010101110101
1111001111100110
1111100000001010
