1111110011
101100100100
1111111111010110
1111111000001000
1111011110111100
101001011100
10110011111011
101100011101
10001010101
100001011011
1011110000
1000011001100
1000110110111
101010000110
1111000101111011
1110000010101100
1101001001101000
1011010101001100
1111111001111111
10001011101010
1011010110111110
1101000100110011
1110110000010110
1011000001101
10111001011101
1100110100111
11110000100
1010110101100100
1010111100101000
1101001011011101
10110100101100
100100110111110
11110001011
1101000111001010
1110000001110101
1100011000010101
1101111011111010
10011001110001
100111100011100
1111110011001000
1010010000111000
1000111001011110
1110101101011001
11101001100001
11100110011
1111111101000010
1110011000110110
101010110010
1110110100010000
1011000110011
100011010000001
10011111110100
1111011000101101
1110110001010010
1111101100110111
1111111100010
11011100111001
1001101010100011
1101000000010111
11101010001000
10111100110100
110100100001001
11111001111110
100100110100111
111111001001001
1110011101111011
1111110100101011
101000101110
111000101100111
111011100011001
1000000000000000
1000000000000000
1100011100100110
1100011011101100
1111000110100001
1111110110000100
111110001011111
10001100110
1111100111111110
1010010111011001
1010110110000
110010101110101
111111111111111
101011110110100
1010110000010101
1110110011111010
1010011111010
10111001100101
11100001001011
11111000100111
1111100011010001
1010111110001
1100010011010011
10111010111
11000111011011
111111111111111
10001001001000
1100000110101111
1100011100100100
1101001100011011
1111001110111100
1101101010111001
100011001000000
10100010010000
1111010001010111
1101111011001010
1000010000111
111111110001
110011101011
1101010000011000
1100100000100101
11111101001
1110011100011110
1100100001001010
1100000110010000
10000110000100
1001100001001
1100101101010000
1100001100111110
10100100011111
1101011111101110
1101010111110011
11000101101001
1111101011101001
1100111001010110
1111010001100001
1100011010000000
1110010000001000
10000010111100
11111101110
1110110011000010
1101100010110010
111100000
1100110011011
110010010110
10011111100101
1101111011001111
1100100000110110
1110111001011100
1101100101111011
1010110011
10000100101110
11111111011000
1110101010001110
1110110011111100
1101000100000010
100110010111010
1101010111011
11011001001010
11101101111011
10110100110101
10000001111000
1100010111011001
1000101000100
101011001100001
11001100100010
1111011011111010
1110001000001111
1000001110011010
1011001010000010
11101100100
1111110000
1001000000100
11101010010010
1000011011110
1100000111101011
1111100111001010
10011101110001
1010101111110
