1100000100111
1000110101100
100111011011
1100101011100
11110010010
1111011001110000
1111010101100100
10110101011
110111100110
10001001101001
1111111011000
1000110010110
1101100110000
1110101000000
1111111010000000
110110000001
10010110110
1100110001100
1100101110110001
1110000110011001
11011000101010
11010010010010
1110111000001001
101010110111011
1101110110010100
1101101101100010
1110011111101
1011000010010100
1011010010111100
1111011111011011
110000001
1100111011110101
1000101110011
101011010110011
111111111111111
10100100111
1110111011000001
1000101101100101
1000010100001101
10110001110001
1101001000011000
1111010100001000
1111000100100100
1001001010101
1011101001110000
1101000011110011
1001010110
111111111111111
101000011101000
1100111001100000
1111011010001010
10010111011
11110100010110
1110001000001111
1001111111001
1110110110110001
1110111010011110
1100111000010110
1010111011000111
1100100101111001
11101111000111
111111111111111
1111111111000011
1101111110011001
1001001001000001
10110001010011
1011110100000100
110101101100
1101110110000111
1110101
1101111011101100
1101101011011110
1000011010000001
1000010111100111
1101001001010
100100000111001
111001110101010
1011000010
1111000101001111
101001100000
111111110000
1111101010111100
1111011110
1111011100000011
1101000001000110
1000000000000000
1011111010100000
100010101100101
100110001100001
101011110110001
101101000
1100001000010011
11011101010100
10111001101000
10101010100111
110000111001
1001011001000
1011000100010000
1011000000011111
1111000011011
100111111110001
10001010110111
1111010101011011
1101111000001000
1000100101101001
1101100010111111
1111001110011111
100100000000101
1111111111001010
1000000000000000
1001100001100101
11010001111110
10000110000001
1010000100011
1110001111000
1110101111000000
1010101111111
1110100111110000
1111110011110110
1111111000011000
111111111111111
100100110000001
1111011011011001
1111010111001100
110010100011
1110001001110100
1110001011010
10101100101011
10000000111
110010011100
101011100101111
10100010111110
1111111001110110
100011001101110
11011001101101
10001001100111
1100110000101111
1101110101010011
1101110100001111
1100001001110000
1001110011101001
1111101010111011
1111100000111101
101010011011
1110110100010100
100101100001011
11001100111100
100011011110100
10100111101000
1111101011111110
1110101100100011
1111000100001011
1000000000000000
1010011110011101
1101101010110110
1111000000000100
1111111010101010
10100001101011
101000000111010
11111001101000
111010000000110
1110100100110101
1000100100001010
1001000111100110
1000111011111101
1101000111111011
1111111100010010
101010111
1010001111001
