1101001101000
111110111111
1000101010100
1100000110010
11001011101111
1100011111100111
1010110010000001
1010000100100011
1110010000111000
1111001101011011
1110110110100000
111010101001
101110111010
1010010101001
1111110111000010
1100110101100111
1001001011000111
100100101111000
11010001100000
1110110010011100
1101010111000110
1100001100111011
1101001001100011
100100101111010
1111011111110100
1001010011100
1000001110000
1111000101111101
100000000110
100110011010
1000011
1100011011011111
1101111001101000
1110101001100001
111010010010
111011000000
100100110001
11000101000111
101000000110000
1111000100101010
1000010110011010
1110111011110000
1110000001100001
1010101010100101
1110000101000101
1101111100001011
1001110001011001
1010101011000010
1100011010100001
1110100100110100
1101011111000001
100011101101110
1001001001111
1000000000000000
1011010000111000
1011011011000011
1011011100011011
1101111101000011
1101111000001101
1010101101011001
1110011101110011
1111101000101000
10010001011
1010001001111100
100010110010
11011000010
1011011010100111
1110010110001001
1110111110000101
1100111001110011
1111100011111011
1001001001101011
1000011010000001
1110110011111010
1111000101101011
1010001110001100
1000000000000000
1101011001010111
101011111001101
1100011101111000
1110111010101000
1110001101111011
1100001110110000
1111001110010111
1000000000000000
1110100101110110
1000011111101010
1011111011000001
10010010100010
100101000
10101110001100
111111111111111
1101111011111
11011100000100
10000111111100
11000110001001
1011001111001
1110000110101001
11001000011100
11011001011101
100111100101000
1101001000001
10111001011
111111111111111
100101010010100
101101110010000
110001000101010
101100100100110
101111111010010
101110001000110
101000110101101
110110011010000
101001111010111
101011011110111
110101000000110
10000001100001
111111111111111
11000000101111
1001111111000
1111000110011011
1111101100000011
1010111010001
1111101110001
100000101110000
110111111101000
101100000101100
111110000101000
101000111000010
110010010010100
11100101100001
11100000111110
1101100010011111
110000010
1111101001111000
1100000110
11110000010
1110101010010001
1110101011010001
1100010010111111
1110010111101011
100110011000010
111111111111111
1111111010001111
10111111110011
100101000000110
1110001010010111
1111001000101110
1111111100010111
1000010000000
10110010
1010101001
1001110010111011
1110100101100100
1111011110111100
10010000011010
1111111011010001
110100001010
111010000101
1010110010011000
1110011100101111
100101000111011
1010011000110
1011010010001011
100100001000011
1111010101001000
1100011100101010
1101110001000
1111110000111010
110101111011
