1111010110110
10011110001100
1100011111011
1001001100011
111010110
1111110000101011
1111111100101110
1111111100101101
1011110010001
1110010010110
1011111000000
1101110001100
1010111001101
1110011000100
1100110111011
1100100110000
1100011010111111
1001001011000010
1011000011010101
1011010101110011
1110011110000
1100100100100100
1101011010001110
1110001000100011
100100000110
10111000100000
1011101100101
1111101010010101
1111110000110010
1101001000010000
1110101101110010
1111110101000
1110100011011001
1110101001111011
1100101101000001
1110100000011111
10111001000000
11101110101001
111111111111111
1111001001010000
1100101001001111
1100111010011
110010000011110
111101101111
1111110100110101
1111011110
100101000101000
100001111010000
1110011001001
100011011110010
10111011010010
110011101101111
1111110110010001
11110011111011
110011011011100
111111111111111
1011100100101
1101001000100110
110101110101
1111010111010101
1110001001010000
1000100011011110
1101011100000110
11001111100
10000111111101
10001111100101
111111111111111
111111111111111
111111111111111
101001101000011
10011100100
1011111011
1110011101000
1110100101110010
1111110011001000
1110110110110111
10000011100000
11010011001101
1111111000000
101110001011010
110010000101111
10101111101011
101100111010110
11011011110101
1110001000010111
1100100100101
1011001100
1111100101100011
1110111110110100
1001101100111111
10110111111
10011100010100
1100101001111010
1011011111000101
1010001010010000
1110011000011110
1111110100000011
1101011110
1011100010001
1110000000100100
1100010101011110
1110011011011010
100101101010010
100001000011011
1010101101101
1000101100100100
1000000000000000
1000011111100111
1001011011111001
1110011011011100
1111010001001100
1111001100001001
1111001000111011
1110100111101110
1101010110010001
100110110001101
1110101011100101
1010010001010
1010001110110111
1100011011011000
111011110110
1110101100011000
1110101011110011
1110010010001111
1010101011000011
1101011110100110
1101101000010101
1101101000111101
11001111111101
1111010100110010
110011010011
1001001101110010
100101100011
11001010000010
11000001010011
1100010111011
10011001011010
1100101110101000
1011111011011011
1110101110010011
101001010111
1100010011001101
1111010110101111
1000011001010
101110111010
10000100011100
1000111100001
1111111111011101
1100011010001101
1101111010000100
1001011100110010
1101111011010101
11011000000101
11100110111100
1111001001
1001101001001
10001101000001
1111000010101000
11001010010100
1011101110100000
1000000000000000
1000010000100111
1101110001110100
1111100110010101
11101110111000
111010111101010
1101101011011010
101110111010
1111101011110
