10100001110101
10001111101001
10100110100010
1010101001010
10110010101000
10111000001100
1111100010001000
10010000001110
10000111011110
1111110010111011
1110000110110
10001111010010
10010110111110
10100010001010
10001101011100
1111011111100
1101101011101011
1100001000111001
1110010111000111
101000111011001
101000100010000
110000100100001
1110000101001101
1110010110010100
1111001001011001
10000111010011
1101010000010
10100000101010
11111101100111
1010101110001101
1010110000010000
1100000101011100
100011001100
11010100110110
101110110111
101011110110110
111010110010100
1101101101001011
1110001101000011
11010100111111
1111010100011101
101111010000111
11100010110001
101001011101
1010011111110101
1101011000100000
1110001111100001
1101110110001001
1111000100000000
10000011100
100011111000
1011011011111111
1111000110101001
1100101110100111
101101001010
1111110101010001
1101011010110
1101111000000010
1010110000111010
1101111001
110000110010
110101000101
1001001100101
1100001110101101
1011111001001000
1110111110110110
1000000000000000
111001110101
100000011100
111101110110
1111010111111101
1110110101010000
1110001010001110
1111110101001010
10000101000010
11110110111
100100100110011
111111111111111
1000111010
1010100101100101
1111011010001010
1111101110100101
11101101
100010100111001
101011111011101
111011011111
1011110111010101
1010001111001111
1001001000110011
100111000110100
111100000000111
1011110111100
10001110110111
11001101111
1110110010100111
101111100111
100011000110001
10100110101101
10111110110010
10101111011001
1100010010111100
1110111001110010
111001101100100
110110011101100
100100101011001
10111000100011
1100100100011010
101110011
11110001011100
100011011000001
1111101111101000
11111000001
100001111111101
10101111001100
110100101100
11011110000001
100111111010111
1000100001110
10001111000110
1101100000010110
100000011101111
100100110101001
1110110000100010
1010011110011
1101001100010111
1101101100110100
10010111000011
10100001001010
101010011110110
10111101101110
1000111110100
11101001110010
1011010010000011
1011000100011000
1110010101000111
1000000000000000
1000000000000000
1000000000000000
1000000101010010
1011100001110101
1000010000000111
1100100010100001
1101101111000
10101010000111
110101011101101
1101101001110001
1010010110100001
1000000000000000
1000000000000000
1000000000000000
1110000111010100
1110100010101001
1001010111011010
1010111100110100
1011011101000100
1110000101010111
1111111000011
1011111011110000
1000000000000000
1000000000000000
1011001110101110
110011000100000
111111111111111
111111111111111
100000010111
11110001000110
101101111110111
110110110010011
10101101101010
