1001010011110
100000101000
10100111100
10011111011100
10010100110110
111110011110
1110101010001001
11010110001110
1111001110100
1111111100100100
1110001111011010
101110000011
1001001001111
1101011111
111101010010
1111011001000001
1111111101000101
1101110110100110
1010110111011101
1001010011001101
1111100000000100
1010101101001000
1111101100000000
100101110011001
100111101010101
100001110010110
10000111110000
1111011001010011
10110010001010
101111100100010
1110010101001
1101010110011000
1111110011000100
1001011101010
1110001010110011
1011111010111011
10000110010000
111111111111111
111111111111111
1101111101000
1111110010011
11000111111100
1111101111001001
111110101
1000101000100
1111100101110111
1111100101011010
10010011000001
101100101101100
101111010010
1011001101
1100011011111
10110010011
10010111000011
110101000110
1101110010100
11110011100101
101010000011111
11111001010010
1010000011010
1110000010110
100010101001
1010010111001001
1100101100100010
1111011000010001
111101111110
1000010101101
100011001111010
100110001011001
10011110101011
1111001011001111
1100000000101101
1011110111010100
1101000101100000
1111110110111110
1111011011100010
1111010100110101
1110101010000
1110101100011001
1000000000000000
1000010111000000
1000000000000000
1000000000000000
1000000000000000
1000000000000000
1100011111010010
1010110000
100000001
1100011000010011
1111010101100101
11001001000010
1110001000000010
1000000000000000
1000000000000000
1000000000000000
1001000100110010
100000010000
1111101011001011
1111100100111110
11000100101111
100000110100000
100011110101000
10011110100
1111110010100011
1110111111110010
1110110111010000
1110110111100
1001010011000
100011111101101
11101011101111
10100011001001
101000001100101
1101011111111
1111110111010101
1110001010100
10011001111110
10101100001001
111000010
10100011001110
10000111001011
110000100010
1111110100011000
10000101110000
101000101000100
100010001011111
1011100011100111
1100010100001001
1011110111011011
10100001100
1111101100110010
1100001010101
10111000000
1111111001010011
1111011000010100
1000110101111
1111100010101111
10101111011000
1001100001111
1000000000100
1111101010011111
1110100110111011
110100001011000
1111110110010110
101010010110
111011001101010
11111001111111
1101000000100011
1111100001100011
1110000001
1001111110111
1100111100101110
1111010011110
1111000111111100
11111111100
111111111111111
101110100100
1001110101000
11101001000110
1110111010010100
1101010110111011
1101010111100001
1101101101010111
10111010100
11010011111110
1100000011
1111101010011001
1100101010001101
1110101101010000
1001001110100
