11000111101111
10101110110111
10010010100101
10101101011010
10110011100011
10100011110101
100010010100100
11010010010101
1010111110010
10011111101111
10111000000100
10010011101000
10000110111010
100100011100100
11100000011011
11000011001111
10001010101101
1010100110011
101110011110111
101010101010010
1110111101100101
10101001111100
1101010001101011
10100110010
10000000001111
10100101011000
10010001001110
1111001010011001
1101010110100010
1000100100001000
1110111110110001
1101111000
10010000000010
101110111110000
1110110
1010101111001111
1011000110001110
1111110000110110
11111101000110
1000011001
1101001100010101
1100111111100101
1011110001001111
1101110000011111
100110100100000
111111111011101
11001101110000
11010001011
1100100100110111
1001110000111100
1000110100010011
10000101101
1111010010010
101101110111
11100001000101
11111010111001
10111001000011
1110111111000010
1011100110111
1110011010110100
111010100011
1100111100010
1001111111010110
1000000000000000
1111100001010111
1111110001000101
10011000011001
100010011011100
11111011111010
1110101111011011
1100010010101011
110110101001000
11001101100110
101100001100011
1111000110101
10111100110001
1001001011100111
110001101111
1011010101010
1100111111001011
1100101100000
100011100010
1011101101111011
1110000011111000
100000110001011
101100101100
1111010001010100
1001010111110
10101110111101
1000010111111111
1111100010100101
1110100110100
1101111000010011
1000101100001
1001101101010
101100100001
11111100101
1111011001001000
1110111000110011
11110101
1101101001001110
1101100101011100
1000000000000000
1100001000000
100001010010001
1111001101110001
1010111001100000
1111101111001001
110001010000100
1010011011001
1011100100011100
1111100000100000
1101011011100
1101010010110110
1000000000000000
1001000101110100
101100110000
11111101100100
1111111010111010
1100111100010001
1100011111111001
110101101
1011101010111000
1011100110111010
1011000010001001
1100101100010
1111111101101001
1011101100000010
1110100101010001
10000101000000
101000110101100
100011011110011
10011010001111
1011101001100000
1011011011
10000111100001
1110000100001110
1110101110010100
1110000110011001
1101000111110100
1100111101000000
1001110100111
10001001001010
101010110010000
100000101100100
1111111001110001
1010100101011001
1111100110001011
101111001010
100110111111
1110110010011010
1010000100000
10110000101101
11100011000110
11110001100110
11000110100111
11001000111111
10111111101111
10110111100
1110000000010100
1110000110011101
1111000111100
1110000001111000
1011100011
1111100101101101
1101111100100011
11010011000011
1111111010101
10000100011011
