10010101110010
10100100011000
111010011110
1111001110110000
1110110110001100
1111000001000010
111111100000
10110010100110
1100000010010
1100010000100
101011100011
1110100110001
10011100110111
10111011000011
10110001011111
1000010001101
1011100101111111
1001000000101100
1001001100101000
1000000000000000
1011000000000010
101010111011110
1101100110010011
101101011000
10001011000010
10001110000110
11011000010100
10011111010011
1010110111101
101010111001001
1011110011110111
1110001111000110
1110111111010010
101111011110
10011001100001
1111111000101010
1101000000010110
1101000010001111
1111111010100010
101100100010010
101001110000000
1110110110001
1001111100010
1110110110010110
1110010001110011
1000000000000000
1011111111010000
1101100011101
10001111101
1111000101001100
111000001100
1110110001
101101000000
111111111111111
101010111101
1101111101000100
10010111101001
1110111001000101
1001111110001110
1111110110000110
110110
1110101011101011
100101100110000
1101001010001010
1101001110111100
111001011010
11101101011
1011000110100
1111100111100110
1101011111101
110110110011
1011111110101101
1001000010110
10111000011101
1101101010100
10011111010
1000011100100000
1001100010001
11111100111101
10000110010001
11101001100011
101010011100
11000101111
1100101111111100
1100010010101100
11000010110111
101011001101111
101110000000010
100011111100010
1010000000110
101001110000000
101001010100110
1011001100110010
1110101001010000
100011111
10100110001100
1100111100011
100110011111010
11001110011100
111111111111111
111111111111111
111111111111111
100011111101111
1101011111001
100001010110001
1100100101001111
1001110001000
100001011110011
1110010000000111
1000000000000000
11001000010
100111101011001
10010000100101
1110100010101111
1111100010110011
1111011001011010
1111111111010001
11111110111110
10001010110001
1000001101110
1100111000100100
1000000000000000
1000000000000000
10010110001
11111000110100
1110010011101000
1001100001100010
1000000000000000
1000000000000000
11110010
111011011111
1100110100100100
1011000000100101
1000000000000000
1000000000000000
1111110110110001
11000010100100
1010011101000
1101100100110011
1011000011111001
1000100111010000
100100010010000
11111000010111
1111101100000
1010111001011000
1101110011100010
1101010110000011
1110101010110100
1110111100010011
1011100110001110
1111011100110010
1000001011100
1110011110000100
1110000110111010
1001010001100
11110101110010
1011010111100
1111101000000000
1000111001010011
1101100111110110
1110001010010010
1110110101110111
1110011011101011
11001101101101
1110111010111100
1111010100001101
1100001001100110
1101101101010010
10000010100011
