1011001101
11010111011
111101110000
10110010110000
11011100010101
100100011010001
1111110111110110
1111111110110
111101111100
1101101111000000
1111110101011010
111000110110
1010001110100
1010010011101
1111001111111010
10111001011
11011000100
1111000000100011
100110010111000
1001011101111
10100011101
1011000011011011
1100101111001110
1111111010010010
1101001111101101
1101100111
1110111010110
1100100101010010
10011001100
1100010101101
1001011011100
1100110001111
10001100011010
11010100001010
10111111000011
1110011011011100
1100101100111100
1000000000000000
1110110101101111
1111010110111
11011100100010
11011000101110
1100100101111010
1110011010100101
1101100110
1111111101101011
10010010001101
10101110111110
1100010000011010
100111000000
1000000100100110
11101111100
1100111000100
101000101101
1001100101010101
1000111110100010
1101000010010100
1110110001001100
1011101010100001
1101110010101011
11010101010011
1010101001111
111100000
1100001000001111
111010000101
10101000001
1000000000000000
1000000000000000
1111000110000010
1100001001101011
1001101001110011
1000011001110101
1001100011010011
1110110000100101
100010111001001
1111100111010011
1011100010001110
10000110100101
11110101010
1101010110100011
10101010010111
1111000011100111
1010110001000011
100001100101
1101111110000001
1110101100010010
1110100011100010
1110111100110110
1110110000001000
111111111111111
101011010001010
10111110001100
11100101110000
10011010000111
1100111110011001
1111100011000101
1110110010001110
10011010010
110001001100
1111110111100000
1100110011001101
1100101100000111
1101000001000100
11100011110100
11011100101000
11010010000111
100111010000000
100101111101100
11110001010110
1101001011000101
1100110011111110
1111111101011
1011110110100011
1001100100100000
1000111011110001
1000001101100110
100100011101010
110110011101
11110111100011
101000100110000
11101111000010
110010111001
100010101010
101111101100111
111100100101100
10110010000010
11101010011
10010011010111
11000011010110
101001000010111
100101111111000
1101010100100011
1111101100011000
100011010011011
11001010100011
1101101001000100
1110101110110111
100000000111101
111111111111111
111111111111111
111111111111111
111111111111111
10111111011100
10000000101100
10010011001111
1110111000110110
1100110001001
110001100000
1100011100001110
1000000000000000
1011111101000000
100110011
1001000011
110011110100101
101000101001001
1111001010000000
101100001000
1111000000111000
1010001100100111
1101000111011110
1101101001001001
1011010010001000
1000000000000000
1001001011101011
1000000000000000
1110100000100111
100010001100001
1110100100110000
1001111110100
