1101011110101010
1110001110111001
1110000010001011
1111010011011110
10010100111
1110011000110110
1110010110010110
1111100001010001
1110111100000010
1101101001100011
1110000111110000
1110101111000000
1101011111000100
1101000001100100
1110011000100100
111000000010
1011010101
10001101000010
1111001010000010
110000111
11011001110100
111011001001111
10000000011110
11110001001001
1111011100011111
1110011101011100
1011110000111001
1101110001101101
1110111100010000
10010111001010
1011011111000001
1100101011011110
1101100010111100
1111001100001111
110000011100
10010010011100
111110001110
1110011110010001
1110111111100011
1011000000011101
1101000111001
1101000110001
111001110
1110011101101010
1100110100111110
1100010100011011
1110100000010010
1100101100011001
1111001110110101
1101101111001000
10010101111
111000111111
1010001000000
11001101010100
1110011001011011
1101000000101001
1110110011011111
1001101110011
1111001100101110
1010010011110001
1100010000000100
1111001010111010
1001111101111
1101000101100
10110000001001
1011101101010101
10011000011001
1110101000101001
10101011000010
1000110010101
1100110110000111
1000000000000000
1000100111010001
1011111000100100
1110011000111000
1010111001100
1101001010
1010101011111010
1101101111001100
10000000111010
1110011001001011
1111000011111
111110001010
1111100100001
100001110100010
10001001100111
101011011100101
110011001001101
10011010001101
10110000111110
1111000100010111
110110001100
1101111111100111
1111110000010011
11100100001110
100101011100101
111111111111111
111111111111111
110010110111110
1010111011110
1110100101001
1011111000000
11000000100010
110000001001001
1001000000110
1011100111100110
10100111100010
10010001010010
1111010001100010
101100010001110
11101111100001
1000101101010
1100110110001101
1100000000110111
111010010010
1011011001111
1110111110001010
1010011111111
1011011001011110
1011011010101000
111010100110
1010110101011
1110011100100101
100
1101101111010101
1100100110000100
1001000011111
10101100111111
10001110111000
1100011011010101
1111110011000000
11100100011011
1000001100010
10101001001
1100101000101001
110110001
110110000111
1110000101000
1100000010010
101011100000001
101001011000010
1010001000000000
1100100111100100
1110101110101000
1110000100000111
1110011110000001
1000100001
1011101010010110
1011111101100011
11000011011
110110101110
100001100011001
100100001100000
100100010011
1100111110010111
1100110010001111
1110011011111010
1110011011111111
1100111110111
100000001101101
10110001100001
100100111111001
10110010110
1110100000001010
10011101101111
1101011111010001
1100111010101111
1100100101100100
1100111000011010
