11000001101110
11010110110010
11100100111011
1100111101110
1110001101011100
1110100000111
1001101111000
1110000001000000
1011101011011
11011110011011
11001110111101
10101101111101
10011010111011
11001011100100
11001001010010
10000111111100
1110111000010001
1001000011111111
100010111100101
110110001111100
1110000111101
1101110111010001
1110011000111111
110001111111
1111001110110
11101101111101
10111001101110
1111111111010
100001110001111
1100110010111
1100000110100
111111111111111
10110010100000
11010101001011
100110110101111
1111101100000000
1110011110011000
1110101111101100
1100010111110
11001001110111
1110100100001010
1111110011011101
110001000001
1011100111000010
1110111100000011
1110011000000100
1101110001111101
100000101000
1011011110110
1111100110110110
100010100110010
100000011101100
11001110000000
1110101011010111
1011100110001001
1110000010111011
1000111110001111
100100001110110
11100111110011
1110010110110000
10101100000101
111111100110011
11011100111100
10111001010
11100100000101
11110101100101
1001101101100
1101010011111111
1001111000010001
1000000000000000
1011000111010
10010100111111
110101111110
100011001101100
110000110111100
1101001110000010
1100010100100101
1111101010110001
11001001000100
10001000001101
1111000100010001
1000010110010010
1000000000000000
1011111000000110
1110110000100110
10011101010100
1101110111111
1110000010000101
1011010011110010
1011000101010010
1011000111010
111111111110
101101010010110
111110010011
1000001100010101
1000000000000000
1011111000011101
1111100000111
110000011001
1100110011
10101111000
10101110101110
1111000000111110
100111010100
1111011000100
111000011001101
100100100010000
1111010001101010
1010001101011110
1100001110110001
1000101000110
1100000010001011
1101101110001100
1000000000000000
1000000000000000
1110001001100010
110001011000
1111110110011000
1111000100110011
1111000110000011
1000111110111
1101101111010000
1001101000000111
11101010110101
1011001100011000
1000000000000000
1000000000000000
1011000011011001
11001100010
11100001100111
1001000011001
1101011011110001
100111101101010
101001010110111
1110111000100111
1110001101010011
110010101111000
1000011111000100
1000000000000000
1000000000000000
1101101110011101
101010101101
10000101100000
110000100001000
10010111000010
101001111001101
11010000000110
1101000110111
111010011111
1101101011000000
1000000000000000
1000000000000000
1011100010100011
100010111110
11111110101
10000101001010
100000111011000
100111011010000
101100011100100
1011000110101101
1010100101110100
1101000000111000
1100100001111111
1011111010101111
1111001110010100
1010100010010
10110001010111
10110101101011
11100110011000
