1111101000011111
1111000000100000
1111111101000111
11001111000
1110101011011000
1100001010100001
1011101111001101
1101010110011110
1101011101100101
1101000111001101
1111011001100011
1101000
1111110011011011
1111101011000101
1111010010011010
10110111100
1011010010100
10110110100101
1100011010011010
1000010111000010
1010100011111011
1011100101110000
1110010110110111
10000010011010
11111100101010
100110111
1110111100011111
1110000011100110
1001111011011101
1010101011000011
11111111110
101010011101011
110000001011010
111111111111111
110000000110100
1101010100101000
11111111101101
111101101100111
111111111111111
1110010110001001
110100000000
1111011100110111
110101111001100
11111101101110
101001100111000
10111001101010
100111101000001
1110111100000111
1010001101111101
1011110111101010
1100111011101000
1001010010000
11010000011111
101000110100101
101010110001111
100100101010111
1110010101110
1100101100010100
1000000000000000
1000000000000000
1001011100011
1100101000110001
1111111001000111
1000000000000000
1111100110110001
1010100111010
1011001101001111
11101111101100
1101111011101100
1101111100111100
1110110001111000
1001011000100010
110001011000
11100001100000
1110100010111001
1100101000001000
1101100101000011
1110111001101110
1111111100001011
1000000000000000
1110001110110010
1011001011111001
1101111101010010
100001101110001
1100110111011
1100001110001010
1111000110100010
1110000111101111
1010110011001011
1010100000111010
1100011111110011
1111001001
1011010010101110
100000110001
1101101010100001
1110011011010001
10011011111101
1111001000000
1101101111100011
1101111101001011
1111000111110000
1000001001100001
100010011011010
111101111000
101001011010
100001000001000
1110010110011101
1101100000110100
10110110100
111001001000
110010010101
1010110111000
1111000011110011
110010110001
100000101001000
11100110101011
10000100001111
10000100110001
101011111101110
1101001110001000
1010010111110010
1110001111100110
1001010101110011
1001000101001001
1011100110101
11000000010011
1011011100011
111001111111111
101011000011110
1111101111010011
11100001000000
100000100000100
11000101101000
1111110110110111
101010100100111
1101111100010
1001100011
1100101111100000
1111100000001111
1111110010101110
101011010001101
1101011000100
1100100100001111
10100100011110
11001000110101
1111110011000011
101101011100000
101101101000100
1111100010100
10100100110001
1110011011011100
1111000001001000
1101100100110001
111111111111111
111111111111111
1110001101011010
1111111001101011
1111010010101111
1010101111000001
1100101001100111
1101000111111010
11100101100
1001011110010
11010100110001
11010010001110
1001010001
10110110111
1111010011010110
1111101111100101
