10111110101111
1111001000010
10111111110100
1010101110000
1010111100010
10101100010100
1011111110011
11111000101001
10111001111101
11101000111001
10000111110101
1110111001100
1111011000100
1111001010000
1100001001100
1100011111110
1111000101000110
11111010010
1011011011101
10001011011101
1111110000000110
1010101011101
100111000101101
10110011100110
10000101101011
10100001111000
10010001110110
11110010000101
1101111101
111111111111111
111111111111111
101101011111011
1111011001101001
1110011110110101
11001111
1100100111001101
1101110011111011
1111100100100110
1111101010101
1101011010001
1101101111010
111000101000000
1100101100000
100110100100001
1101000110010
1011000010101110
1001100000011001
1101111100101011
1101100100001010
1000000000000000
1011011000100000
10000000110111
10010111101000
1111110011101110
100101111010110
1011100011101111
1000000000000000
1000000000000000
1010100010100001
1110101001000100
11101011
1010111100010011
1100110001100011
1100100010000001
1110001001000
10011101000100
1110000100000111
101101010011011
1110100010011110
1000000000000000
1000000000000000
1000001000011100
10000010110101
100000000100110
1110100100111110
100010001110010
101111000100101
11010110010111
1110010100111
1100011001011111
100010100010011
1001100100011
1011001110000011
1001011001001010
1110110001010101
101000100111010
1001001101000
1100011111101010
1000101110011
111111111111111
111111111111111
10010000100000
1101100000001001
1100000100
1011010001
1110101111011111
1001101100111000
1001101111001
11100001100001
1111001010100111
1001010111000101
1101111100000001
110001101010111
111111111111111
10011101100010
1111000011110111
1110001110010110
1101010010111111
1010001010011101
1001111001000010
100001
10100110111010
1110100000001111
1111011001010010
10010101101111
111110010110001
111110010000100
10001111000111
1011100000011111
10001001111011
1110010011011101
1010110000000000
1110010010011011
11110100011111
100101011100000
101011110000010
1010111010100
100011100110010
111111111111101
100101111011101
1011101111001
110110011011
100111011001000
10100101000100
10010010111001
1111000001100011
1111100000001100
1100001111110
1111010100100100
1111000100111111
1001111011010000
1111001100100000
1001100000010
10111100000010
100001001101001
1100110101001100
1001010101101010
1111111010111000
1100101110100110
1010111011010110
1111000101001000
1010001011001111
1100000101000000
1000000000000000
1011110111011001
11111110110011
10100011100000
1110101100001
1111001111011000
1011110101111001
1000111011111
1011110011001111
1101110100001001
1100000110000100
1111000000110
10101011111110
1110011110111111
1001001011
11100011011101
