1010011010101000
1111100010101001
1101000100001011
1001100100001011
1110101010111010
1000000000000000
10011111110001
1100111101110111
1001110001110111
1111010101000100
10000011010000
1111100111000110
1010110011001
1111100001110101
1010000100001011
1101011001000001
1110101110010010
1100010100001011
1101101100111001
10100001100000
1000101000110000
1110110000000010
1010000000100111
1111110111001011
1100010000101001
1011010001101100
1111111101000001
11111001001010
101011001000
1000000000000000
110011100100111
1111100010100100
1010010010000
1111100000000001
1101001110111110
1111001001001111
101000000111110
10110000010101
11011011001011
110101010101
101011001011
1111011101001000
1110101100000101
1000100111110011
1011101110101010
1001001010010100
1000101011001
1110000000101111
100011111001010
1011101111010010
1100110101000100
1111010110000100
1110101100110000
1111011110111111
1011010011010010
1000000000000000
101111110100111
1101100101001111
1110010001100000
1100101110010111
1111110000010111
100000001101110
1111010001001100
10010010001100
