1000110110100101
10011101111110
1000000000000000
1000000000000000
1011101100110
1000111011110000
1001111110000
1000100110010
1011101111001010
100010011111
1101101111001001
100011011
1011100101010
11000101101011
1101000110110000
1110000011110010
1001100111000101
1010000110100111
1111000000001
1110010111010101
1000000000000000
1101010100101000
1100010101100000
1000001101001
11011000101
11010010000111
111110111000
100111110001001
10100011000111
1001101110010
11001011011
1010000110011
1000001000100101
1111010111111100
10011001101110
11111101010110
1011110111001
1110111011111100
101001001111
1110101010101
11010010100
1101011110111101
1100001000010
1011111011111011
10011010110010
1010011101011000
10101100111001
1111100011101011
1001001010000110
10100100111010
1100100001000110
1111111011010010
100010011000
100000010011
1000000000000000
1010001101000001
11101111111010
1011111011101010
10010011000101
1100111100010000
111110001101110
1111110101100000
1111010010111001
1101010010000101
