1110010000010000
1111011100100000
1001111111100
1010000100011011
1100101010100010
1110011001110101
1111001111000000
1110110011101
1100011010010100
1111011110101001
1100000011100101
1111000101001011
1000000000000000
1001100011100
1101010111110100
1010001010110010
1100001010001100
1001010001111010
100101101111
1111111000100111
1101110000001111
1101000100000101
1110010001110001
1101110000010011
10100111001010
1000101101111010
1101101001011000
1101110101000101
11001111110001
1101001101000
1011011010101
1101000111010110
1110100001011010
11110011
1000011010011
1110010000010001
1110001111101011
1010010111011000
1111111110010011
1110001011100100
1111010111011100
1011110000101000
1101110001101111
1100110000011101
101001111111100
1010110101101100
1011110011101100
1010111100100000
10101110001001
1101101101101000
1111010010100101
10010110111
1101001010100001
1110111011010000
1110001101110011
1011100100110011
110010101110111
11010011111
110001101100
1111110110111111
1111000111010000
1110001110000000
1111110100010001
1110010110001
