10101000010110
1010010101010010
10000010101001
10011111110
1100010100100
1000110011111000
11011101011101
1110100100011010
10111101000110
1110011000100000
1110101011101010
110110100
1110110100111100
1011101101100001
1010110110110111
10010010110100
1111101010111001
1111111100001
1111100110100111
1010010100000000
1100001100000011
1001100
111111111010
1011110010101
1110001010010111
1101010000001001
10100111011100
1001001100010001
1101100110101
11100011000101
1110111101000101
1000000000000000
1000101011101111
11100
1110011111010000
1111011001000011
111010001
1001010011100111
1100100101100100
1111001110011101
1111100111111010
1011110011100
1010011101010000
1001101010010010
11111100000101
1110101110011001
100011110100
1101000110010110
1011010001001101
11101100110100
11011011000
1101111011
1110000100101
111100101
1100111010000111
1101011101010001
1110001111101111
11001111
1111111000010001
11010010001
10010111001000
1100101110100111
1000111111001
1110100110010110
