11110110101110
1111010011000000
1011101000000
11010110100000
10000010001100
100111110011
1111110110010110
11100101010010
1111001001011
101010000111
1000011011110
1110000011
10101010100010
1011000111110111
1111100011111101
1111011110000
1111111001101110
1110111110010
1001110101011
1111000100011001
10010001110000
1111010011101010
11010000100001
1001101011110001
1110101010011110
1110011010100000
11010100100000
1001011111010001
11001111100110
1100001101100110
1010111010101100
10001101100111
1000000000000000
1111101001011101
1000000000000000
1011100110101101
10110100110000
1000101010001101
1000000000000000
10101011011
1111111111110111
10000101111100
10001100110101
1110101111101000
1110011101100011
101110011011010
1001011011001
11011101001
1000010101011000
1100101010000100
1111100001101101
1111110100011110
1100100001111000
1111010101000011
100011111
10010100010110
1100110101101100
10101010000010
1100111100000
1010010010110011
1110111011101001
1010011100100011
1111110101001001
10000100000000
