10100110101100
1101001000011010
1110101111001100
1111001000011001
1100110101110111
101100111
110000110111
11111101001111
11010000110
1000010111
1110100111101111
1111010110000101
111000000100
1110010100101010
1011100011101
10010101010101
10111011000100
1100110001110100
1110000001111111
1010111000010111
111000001011000
11110101001010
11010011010010
1000000000000000
1011011110110111
1011010111001110
1110010000110111
1011001111110
1100100001011001
1101001111010100
1100010110010000
1100000010010110
10011111011
11011010100
1111110100111011
1101001000111000
1010101101100110
100100011101100
1011001001011010
101010111111
1111010111000000
1111101101110101
1011111100100001
1011000101010110
1001011001000100
100000110000001
1011110001001101
1111111001101010
1110010001100110
1111101110110100
10100110100011
110
1011001111101
111011001
100111011001101
1001110000011
10101100001110
1110000101100110
1000001000001
1110111000110100
1111110111001000
1111110100001110
100110100101
1011100101100
