1100101011111100
10100111101100
1111001011100011
1110001000001000
11101100110101
1011111101101011
1100111001111111
1101110101100110
1100010000011000
1111011110000100
1000000010100000
10000101110
1110100000110001
1110101101111011
1010110011011010
1000000000000000
1111110111000000
1100100000000
1101000011111100
1101101110000
1011111110001111
1110101001010
1100100101100
1111101101101
1001110001100001
1110011110010100
101100100
1111001100100100
1011101010111
10011101111010
1110101100000001
1000000000000000
100111100011
1110011110
10101011100001
11000011011001
1110010110010110
100100111110001
10001000
1100011000010101
1111111010011011
1100100111011
1110001101111011
1101100010101
1111101001010101
1001010011110011
100001010100111
1110110000001111
100001010001001
100011001100101
1111001110100011
1111010111100010
11111110001101
100110110000
1110110011110001
1000100100101111
1100011101100001
1000000000000000
1111101101110101
11011111110111
1101111010000
111111111111111
101011010101
10011110011011
