10011011001111
10110110111
1100111011111001
1101011110100010
1101010001101101
11011110101010
10100110000
10101101110010
10100101100010
100101011001
11111101
1111111101100111
1111110110001110
1111011000101011
1101000101010011
1011100111111101
1010101001110001
1101010001011111
1111001011000111
1110101100000111
1111100100110010
1101001000011111
1110111001111010
10111111100000
10010100101000
1000000101001
1101100000011011
100001000101011
1100111110000111
11010001101
1011010010100
1110101010000000
1111011001110
101111001001
1111011100101011
1110100111111110
101101101100011
11001000010100
1110111100101111
11101111111000
1111101111
1101011011110001
10101011001101
1011111000000001
1110101010111001
1100111101110001
11110100000000
1010011010100010
10111011011
1111100010001000
10101100011
10000010010
1001100100101110
10111011000
1110100111100111
1011110110010011
1001011111100
1011110011111110
1101001010000000
1110110101001110
11010100011000
111111111111111
10100000
1101110100000
