1011100100011111
1100111010101101
1011110011110000
1100110100011011
1101101001111110
1110001011100110
1101000101100100
100000101101
1111110010110100
11010111010
1111000001111100
1111011011100110
1111100111110110
1101110100111110
1011001011001110
1110000011001101
111101011100
1101101000101011
1011001001000100
1100110101011110
1110000001100101
11110110000
1101010101101111
1100000001101000
1010011111011011
1100111100011111
1110110110101000
1100110101001001
1110111000000100
1110100111110100
1000000101100
1110011011011001
1110011110010010
1111001000101010
1101000010110111
1110000110111111
1110010101110110
1100011100100010
1100101000010110
101110110010
11001010110
1101111000101100
1101010111110110
1101110011111001
1100000110010010
1100010111010011
1111001101101011
1111010111100001
1111100100000110
1100100101011110
1010101110110110
111101010011
1101000011100100
1111100110001111
1110110011010111
1101000000100011
1110011010100110
1101011100010011
1111001011001011
1100011111111011
1110010111011110
100000000011
1111101100111111
11111101010000
