1100110000101101
1110110001010111
11100000100
10100010111110
10101011
1111001111000
1111000010000010
1110110001101001
1110100011000000
111000011011
1110010111011001
110000100110
11001110111100
1000101011101
110100010101
1111111110111000
1101000010010100
1111111011001000
100010001000
1111111100011000
1111111100010101
1101101010011110
1111000010011100
11001100011
1110110011000111
1111001001101110
10000110110000
11000110
1110110011101111
1001010100
1110011101110011
1000110100101
