1101100011010
1100110100110111
1101101100101111
1111111101111111
1011001101001001
1110010001111000
10100110011011
101110010100
1110111001100101
10011111100000
1110000110011101
1110100001010011
10101110111
1111010101110010
111110000
1110110110011011
1100101110110111
1110100110001110
1001110011101
1101111011111110
10010100
1101011000001010
1100010101010000
1111010100101101
1101110011110010
1111000001111001
1101010111101110
1111111111100
1111100010110000
110100101111
111000000110
1110100011011101
