110000110011
100000100
1110011111001
1110111011101000
1101110101101011
1111100010010111
11011010101
1101110110000101
1011100010001
1110011011100110
1110001000101111
10000101100001
1111101000110111
1110111001100011
1111000010111011
100001110
1101111101001010
1101101100010011
100101001111
1111010101011011
110010100110
1111111011100110
1111100101011001
1101001000000011
111001010101
1111000010101000
1101101101111010
1110110100111100
1101011101100010
1111000111100010
10111101101000
1110001100101000
