1111010000000101
1001001111111
1111101010010100
111001111010111
111100010110000
110111011011100
111111111111111
110001011111000
1111010101101101
1101100011011010
111111111111111
101000110001100
1100011011110
100010010
1101011001011111
1100010101000001
1000000101100
100100110000010
111010011111
1111010000110001
1111100001100001
101000101111001
1111000001101
111001111111011
1101011100101000
1000000000000000
10011100000000
1000000000000000
1010001101100010
1011000001101110
1111011001100010
110001000
10101011110
1111011011001111
1111010110001100
1110001000001101
1100010100000001
1101010001011011
1110110110101001
1110110010101110
1010000101001001
1011100100010010
1000101110111010
1011101101000
101010101100
1111001010000000
10001000100011
100010111011111
1111100000001011
1101000110011001
1011111100100
1111101101111010
11100110010
10100111000
1101000011010111
1110010011101011
11000001011000
11000100010001
1110100001110100
1100011001010000
1101000111100001
1010010000111
100010100011
1110010011101101
1111100100100111
10000011110010
1101001100111110
1110000101110010
101001101101001
11011010101011
1101101100111010
10111110000101
1110001011010001
1011101001000111
1110011101010011
101011101010110
111001111001
1101111111010010
11010011100
1001001011011100
1101010111101010
1101110011101110
1111001000100011
1100010011011
100111010
100101110000
1111010011001111
1100100110001000
1110101110101001
1101010100101110
1111101111000110
1101101000011010
1111010111011000
1101110010011000
101110100001
11000000100011
101010000010011
1101101101011111
1011000100100000
1011111001110110
1011011110011111
1111101110001000
10010010101100
1100101110001101
1010000101001000
1001011000101101
1011111010101100
100001111001010
111111111111111
1101000110
1000000000000000
1011101100101010
1101100001000110
1101011001111100
1111101111000011
1111110010000010
11100001101011
1001100110011100
1000000000000000
101101110
101101101110001
111111111111111
1000110110110101
1001011110100111
1100111101011101
1100110011100110
1111110110101111
101001011011010
110100001100000
111111111111111
1101000111011010
100100100001111
11111111101001
11010100001011
110110000110010
10011110010001
1111011011011111
1110111100101000
1011001010001100
111111000100
11000101111110
1000000000000000
1100010010100100
111111101110
1101100001110110
1110011001011100
10110101011000
11011010000001
1001011011000
10000011010011
1100100011101011
1100111111111010
1100010000010101
1011111010011000
1000000000000000
1100000010110010
1101111110010000
1011001011000111
1001000100001110
1001110010111010
1011110001010
11101000000001
100000000
111101011110
1111010010011001
1101010111111010
1000000000000000
11001011110001
1010001100111
