101100101001
101011010001
1111100001111111
1111111010100001
100010110101001
1111010011111001
1000011011010010
1000000000000000
1101111110110101
101000100110111
111111111111111
111111111111111
11100011110101
1010111011101110
1101101110111100
1110011110111011
1111000010111111
1000111001001110
1010011010010110
1000000000000000
1111010000010
111001010011000
1010110001111
111111011110
111111111111111
1111011100000000
1011000100100101
1101010100111000
1000100100100
110110011011
1000000000000000
1000000000000000
1010110001000110
1101000011000
1111001110000000
11110101001
1011011110101101
10010100101100
11110110100000
1000111011110010
101110011110100
111101111010000
100011111010001
1000000000000000
1000101100011000
1100110101000
1101010101000
10110101111100
10100110100
1000111011100
1110110100101011
1011000101000110
1111101110001110
110011001110001
11100110100101
10100000010110
1000000000000000
1000110010111111
10011011010111
111001101101101
1010011101000
1101110011011000
100101110011
101100000010011
101110001001110
11000000001011
111111010110000
1101100001000001
1000000000000000
1110111011000101
1111001011001110
10111001000011
1110100100100001
1001100000110100
1000000000000000
1010100110101000
111111111111111
101011011010000
111100110000
111101010100111
1000000000000000
1011001011100100
1100011110101
1101011010011
10001100100000
1111001011000011
110110000010
1000000000000000
1000000000000000
1000000000000000
1010001111000010
1100000101011010
100111010000111
1110110001000110
1111110111111001
1110100110101
1111010000110010
100001110011
10111010010110
11000001111110
100110010010
1001001000011111
1111101100000100
1110001010100010
1000000000000000
110010000010110
1011111011110000
1011100100101111
1111111010011010
10011101010
11110010100
10101101101100
1000111010111111
11000110111
1001100111011110
100001001
11111101010110
1000001110100111
10101010100010
1110100101100011
1101010100000000
1110110000001110
100100101010011
110001101100000
1110001001110010
1110000000001111
11001100100100
1000000000000000
1100010011110001
111010010111100
1110010010111110
1011001110000111
1101110001100101
1110000011100000
1111000011011
101110101010
1010001010
1111011100111000
10100001010100
1001111000011011
10011101101000
111111111111111
111111111111111
1110100010111000
1001010010001100
100001101011
1100110111101
11110001001010
1111100111101100
1100010010011
1010110010111
1101110101101100
1111001110101000
1111111101110100
11010100101010
111011101110100
1101000110
1000000000000000
1001110110011111
101000100101100
1101100100011111
1110111101011001
1010011101111
1101000000001100
11000010011101
101110100101011
1010110011010001
1010001111010000
100011001
