1111101001111101
1111111101101000
1111011010110111
11000100000
10101100101
10010101101
11111100110
1111111111101100
100010001101
11011110001
10011000
10110100000
11001000010
1111110110100110
101000011100
10100111100
1100111011
11011010111
1111010110101010
110110110111
100011010110
10010100
1111111001100000
1111101000111111
1111100010000110
11011011010
1111100001
11000010111
1111101010011001
1111010011111100
1111001000011010
1111001100001001
1111001100001000
1111111000110110
1110111100
1111011000100100
1111100101000110
1111110100010101
1111110001100101
1111110111001100
10001110111
1111100111011100
10101001001
1111110100111011
1111010011110101
1111010011011111
1111001010000001
100011111
1111100010111001
10100100111
10110111110
1111100110111011
1111110101101001
100011011101
1101000000
10111111110
1111100010011111
1111011110111100
1000000011
1111011010011110
1111010110100111
1111110110000000
10110110110
1111110001001101
1111101101001011
10110010110
1111101111110011
1111010011111100
11110001011
110100100
1000010010
1111000001101111
1010001011
1111000011011100
100000111100
1001110100
1111101111010001
1000111100
10110011110
1111101100011101
1111001101001111
101100110111
1111011000011111
1111110100101101
1111100101010100
1111111100110111
1111011110010011
10100101001
1111101111110001
1111010000011001
1111110001111001
1111001101010101
1111110011011001
10111001000
1111111010100011
1111111011000110
1111001011011110
1110001110
100001
1111111010000110
1011011001
1111110101011001
1111101111000110
1111100100100001
1111001000010000
1111111010100000
1111101000011111
1111101111110010
1111001010111111
1111101000110001
1100010111
1111110011010010
1111110001111101
1100011100
1111000100110100
10000111001
1111100101111000
1111001110001101
1001001110
1011000
1111110011111100
1110111111101011
1111101101001111
1111011001110100
110010
1111010101011001
1111101110010101
1111100101110100
1111100110101000
1111010011101110
1100001101
1111001010100010
1101111010
1111001011100001
10000
1111010011011110
1111000101010111
1111101100110010
10011000000
1111100110101100
1111111000011001
101010111001
1111101001001011
1111011100001011
1111110011100000
1111010010001010
1111111010110100
11010101100
1111111110100010
1111111001010011
1111010111100001
1111001100000101
1000110011
0
1111111001001110
1111011011010100
10010001001
1111100110110101
11101101111
1111101111001101
10110001011
11001110
11000000111
1111110001101101
11011011000
1111011101001000
1111111010001010
1111101010000101
100110001001
