1110110110001110
1000001001000
1111010111001010
1001111110100
1110111001000111
1111010101101010
100101101101111
101011100000101
1100001110100011
11000000100
10100010010101
1101010000010011
10101111110100
1110111010000110
11001110100001
1111010000000111
1101001001000111
1101110111101110
101100100110
1101111110100
10110101101
11110000010111
1110110001010
1101010101111
10100001110
1000011000000110
1011011101000110
101111011100101
1101010100110011
1111000111011001
1111011011100010
10110010100
1010111111100101
10000010110011
1011010101010010
1110111110000111
1100000001110000
1111111001101000
101001001110010
1000101010001000
101011100000101
100100001000000
11100111111
100000111010110
1010100100100001
11000011111001
1001000000000
1111110000000101
1111101001010010
111101100
1111000111100
100001101010000
101100110000
1111001
1100011011100010
101000000
1111100001101010
110100000101
11101111111
1000000000000000
100111011010
1000000000000000
100110000111011
1111010011100101
