110010000010
1111100001110110
100001011000
101111
1010011000001
1111110110011010
100110110011111
1001111101000100
1100111010010011
1111100101101010
101101001110001
101100100000
1111101001101110
1000001111011
1010100000001010
10001100111
1101011101100111
1000000101001
1100111110010011
1001101011101110
100111010111
1111000100001
10010111111101
1101101011011
110001101
1110111011011011
10100111001110
1101000111011100
1011100110000000
11010010000
1111110111000111
1000000000000000
1011001011001001
10010111000110
10011011101111
1111001110010011
1100001000010011
1100111111011110
1100111000010000
1010101100101
110110010110010
1000000000000000
1000000000000000
1001101100100110
10011101000001
11110111001
1111000011100111
10110000001
1111111110001111
10111101
1101010110010101
1101010011100000
10100000101
1100100000010101
100100000000
1111111111000001
1000100111101
1010100000110000
1010101111011000
10101110011001
1000000000000000
10001000001111
100111010001001
10000000001000
