0000100100101100
1110011100111100
0000101111101111
0000101000100001
1011100001011011
1010011001100100
1000000000000000
1000000000000000
1000000000000000
1000000000000000
1011100001101001
0000001101000101
1110010110101000
0110110110011011
0000111001011111
1101011010001000
1111101101010111
1000110010111111
1100100110000000
0010001111100100
0000001000110110
0001100011001000
1110100111100000
0000100100100111
1110000100000101
0110111101000011
0101000111010010
1111101001110101
1000100001000111
1101101000010011
1000000000000000
1110011011000001
1110001010111010
0000110011101110
0001100001001001
1101011110001110
0110001100010110
0001111101101010
0111111111111111
0110101100100000
0000110010010000
1000000000000000
1000000101011110
1000000000000000
1100100101010000
0010001001111101
0011000001011100
1110011101011010
1101011011100011
0011010001101101
0000110001001011
0101001000100010
0001001110010000
0110111100010111
1000000000000000
1000000101011011
1011001010001010
0100010001001101
0011010100011111
1011010101110101
1010111000100100
1110010100010000
1101100111111001
1110101110000010
1100101000001111
0011010010001001
1111011100101101
1000000000000000
0000010011000110
0000011110010000
0101010110101001
1110000110010000
1110101110100100
0101010010101010
0011011001100101
1000110101001101
1001001011001111
1101010010101110
0110100011100110
1000000000000000
0010000111011110
1111001001010011
0010100100001010
1111010100110011
0000100101000010
0011011101010111
0101100101000010
1101000110011010
1001001010110011
1000000000000000
1101110111010100
0011000100101010
1101011000001101
1110000011101100
1111001101101000
1111001100110001
0000110111001100
0011100110001001
0111110010001010
0001101101100001
1000010010000010
0001110000010011
0011100111000001
0100110011101111
0010110100011010
0000010001011011
0010101100111010
0100100011100000
0010011100001010
0011100001110000
0001100101011001
0010010011101101
1000000000000000
1011110100011111
0111111111111111
0100100100101101
1110101000110110
1010010111101100
1101000111011001
0000100011100000
0010000001101100
0011010011111101
1011001011111011
1111000000111111
0000011100011011
1100101001110001
0010010100101000
0111111111111111
0110011111010000
0000110110001011
1000000000000000
1110010001011110
1110010011010000
1111101110101111
1010101010111011
1001100101001110
1101111000101000
0001111010010101
1100111111110101
1001010100101010
1100100100110011
0011100000100001
0011101001111100
1110100001100011
1111101001000101
0001100000111011
0000111101001000
0001001000001000
1110111111111000
1100001110011111
1110100011111000
0011101101100011
0000100001001111
1010010011001011
0011111000110111
1010111111101010
1101111001111110
1001100101011100
0000001110011111
0010110011111001
0001101110110001
0011001101010000
0001000001100010
0000101010010001
0111000110001010
0010010001110110
0101110100111110
1101001100100101
1101010011000110
