1111101010111011
0100000010001101
0011111011010010
1111001111101001
1101100011001110
0011010000100001
0000101000110101
1111010010000000
0110011100100101
0111111111111111
0111111111111111
0110001110101010
0100100110000111
1000000000000000
1000000000000000
1110011100011101
1101001100000010
1100111000111011
1101011000110110
1100011001011000
0001011101100011
0000110100001111
0011011011110100
0101000101110110
0111111111111111
1110110010011101
1001001101001111
1110001111101110
0010000000011110
0000000101001110
0010111110101011
0000011001100110
1101110110001001
0011110011101111
0111111111111111
0111110010011000
0101011001110110
0111111111111111
1101100100001101
1000000001111010
1001110001000000
1100100010001100
1101010111011101
0000000110110110
1111111011101001
0011010010110101
0010111110101110
0000101100110110
0011100101111110
1101100110101100
1000000000000000
1001001110011100
1000101001010111
1000111001100011
1011010000000110
1110011000011011
1110101110011101
1110001011000001
1000000000000000
1000000000000000
1000000000000000
1000000000000000
1000000000000000
1000000000000000
1010010000110010
1101011011001111
1101010011011010
0001110000011010
0000110001100001
1111101111000000
0000000101110000
1111110110001110
0001011101110001
0001111111110001
1100010101000001
1010000011101111
1000011111111010
1111100111110111
0010101101110111
1010001010110110
0100101011001111
1101101101101010
0001110010100001
1111001101010011
1110001100110110
0000011110110000
0100101110100110
0011001000010011
0011010000110000
0010011100101110
1000010000011011
1111010111011111
1111011110110000
0100110011010010
1111100001011011
0010001010000001
1111111010011001
1100111100111110
0001001001101100
0001000000101111
0100010011000010
0001110011010010
1100100011001010
0011001010010101
1000101101001110
0000010111010001
1111111101000110
1110100110100111
1111000000101101
1101100110010101
1111001111001111
1111110000101110
0010000100111011
0001000010001010
0101000000011001
0000010100011110
0010011101000100
0100011010001111
0001111110010010
0010110101010001
0010100100001010
0000011111111110
0010011110000011
1110111100101001
0011011011001000
0001011000101000
1110100101010111
0000011110101011
0001011110101100
0010111010111111
1111010101000101
0011101011101001
1110001011000001
1110100010000110
0001100100100000
0010100101111010
0010111011100111
0010111010111101
0000010010111110
0000101111011101
0100011000011011
1111111110101000
0010100101111100
1000011100100010
0111111111111111
1110101100110010
0001000011110010
0001010011011011
1110110110000001
1110101010011111
0001010010111010
1011001101010010
1110010010110011
1111000000101100
1111000101100100
0110101000101111
1111101011110100
0111111111111111
0111111111111111
0110101011011001
1111011100100110
0101101001100010
0100011011100000
0011111101001000
0100100100001110
1110111101100001
0000011111011100
1100010111100000
0001100011000110
