0000000000000100
1101011110010110
0010011101000010
0010111110111101
0101010011111101
1011110010110100
0001111001110111
0100010110110110
0011001010100000
1001001011100110
0000111001001110
0101001001010110
0010101001100010
1011101001110101
0100011101111011
0111111111111111
0111111111111111
0111111111111111
0100111001011110
0101000100000101
0100110001100110
1110000101001000
1111101111101101
0001100001101110
0011101001000010
1101100111001010
1010111110110001
1101100001000011
0001011110001111
1111010010011011
0001011100011000
0000111011111101
1101000110101101
1110110010111000
0010001100010111
0100110110011010
0001101101011111
1110011100110010
1100001101110101
1110010111010100
0001011110001111
0001001110111101
0001100101101110
0100011110111001
0010000011111110
1000000000000000
1001110110110100
1111111100100001
0001110110101110
1101111111000110
1101101000010101
0011100110101011
0110111000001001
0001110110001011
1110000110111110
1010011000001100
1101111011001011
1100000010010110
1000000000000000
1011000010011011
0110010111011001
0100111101011101
1110000100010001
0000110111110000
1001010011110000
1010000100000111
1111110001000010
1100001110111110
1100100010011110
1110011010011010
1110011001101001
1101000111011101
1111011011110011
0000010110010110
1111001100001111
1010101000100001
1100101101001101
1101010111100010
1110100010010010
1111000000110110
1111100100111110
0000101100110110
1110110000101000
0110100011100011
0010011110000101
0001101000100100
1110000001011001
1100011001011110
1111011100010110
1101011100001000
0010011000110101
0010100010101010
0001000101000000
0011110000000100
0000011001100010
1110010110100010
0110000111100111
0011011011000000
1111010011001110
1110000000010001
1110010111010011
1110001100010100
0001000011011000
0100001100011111
0111111111111111
1111101100011010
0101101110010100
0100101010011000
1110100010111111
0000111111111100
0100100110100001
1110000111100111
0001111010101001
0000000000110010
1101101111001111
1100111010010000
0111111111111111
0110001001011011
0000011100111011
0010011011011101
1111111110100100
1111011100000011
0000011001101101
0010110100000011
0000001000111110
0001100011010111
0010001001111000
0001110110110100
0100000110001101
0111111111111111
0111111111111111
0100010010010111
1111000111111101
0000011010101010
1110110111011110
1110111000011100
0001100001001011
0000011001001010
0001101111011100
0110011111111010
0111111111111111
0111111111111111
0100000110100000
0111111111111111
0111110111101111
1010100000110100
0000010011000100
1100111011000001
1111011001101100
0010000010101100
1100111011010100
1111111111110100
0100011100110010
0101010000100010
0111111111111111
0000101001001111
0000011000001100
1111011010001011
1000000000000000
1000000000000000
1100000001101111
1111110111101111
1110001001100101
0000110000111100
0011011100111010
1001100110000000
1000000000000000
1111000101001000
0100011001011101
