1111100101110000
0000000001110011
0000000111101111
1111110110000011
0000001000010110
1111111100010001
0000100011100011
0000010111010111
0000011011101110
0000100011111111
1111011101010110
1111111001110000
0000100001111110
0000011000101011
1111110001110010
0000010000000110
1111101111011110
0000010111110111
0000001101111101
0000000000011001
1111101011010011
1111111001111001
1111100001011110
1111011111001110
0000000000101100
1111111001111110
1111100100001011
1111111100000100
1111011101111001
1111111001100000
1111011000011000
1111101010110011
1111100101010101
0000000011101000
1111011111010011
1111111100010101
0000001010011100
1111011000111010
0000000110100110
0000010011001101
0000000010100111
1111100110101010
1111011100111101
1111101011101011
1111000000110001
1111011100001101
1111001111110101
1111000111100111
1111010011110111
1111001100111111
1111111001011000
0000011111001000
1111101001100110
1111011001110010
1111001111101001
1110111000000110
1110101100110110
1110111000011000
1110110100110100
1111101001011000
1111000000100110
1111001011111111
1111011010101001
0000000111011001
1111100100001111
1111011011110101
1111101100001011
1111110100100011
1111011001110110
1111010011111000
1110110001001001
1111110010000101
0000011101110001
1111000101001011
1111110101010011
1111110011011000
0000100000111001
1111011010111101
1111101111000101
1111011100011100
1111000000000110
1111011100010100
0000000101111000
1111100011011000
1111110010100111
1111011111110110
1111000011100111
1111010000001101
1111010000101010
0000011001010001
1111111010100011
0000100001101010
0000000001000001
1111100110110111
1111011100000011
0000001101111001
1111101111000101
1111110011111000
1111100011110010
1110111111011101
1111100100110010
1111001100110111
0000000011110101
0000000010100111
0000001110110000
0000000001110011
0000011010101110
1111100100010101
1111100001000001
0000011001001010
1111111011011110
1110110001001110
1111101110001110
1111000000011110
1111110100010101
1111111101100101
0000011111000000
0000001011101010
0000000111111110
1111011011000101
1111101011011001
1111101101111001
0000011010001001
0000100101001101
1111001110001001
1111000001110100
1110110111001110
0000100111000010
0000011000010000
1111100111010001
0000001110111110
1111101011101011
1111100011111001
0000011011101010
1111111101111000
1111011101000111
1111010101110100
1111110101101010
1111011011011001
1111100111000001
1111011000100111
1111101011110011
1111110010000000
1111011110101011
0000000111110111
0000000110010011
1111011110110000
1111101110011110
1111010001011111
1110111000111111
1111001110001010
1111111110100101
1111011111110011
1111101101010010
0000100100011010
1111111111000101
0000001100000110
1111110110010110
0000011111001111
0000100111000100
1111000100011100
1111110000011110
1111111000111100
1110111000000010
1111111010100010
1111110101010110
0000100010000001
1111101110111101
1111010110111101
