0000010100010100
1101001100111101
1111011100001011
1111110101110000
0011111101100011
0000010110110100
0011110110001100
1100001001101001
1000001110000011
1110011011101100
1011111100010101
0001000101000011
0001001110001000
0011101110001111
1011011011011111
1101000011100011
1110110011011000
0111010011000001
0011010101000101
1111001010100011
1100100110111101
0100101000000001
0000100111100101
1111100001010110
1000000000000000
1010111101001100
0011101010011111
1000000000000000
0000001011101011
1111001110010000
1100010110000111
1111011110111100
0001010111110110
0001010010101100
0000011110100111
0000110101010101
0001001100110010
1010111100001011
1000000000000000
1101000000001011
1001001011111111
1101100011101111
1111100011001010
0011100111011110
0100000000100110
0011100100001011
1110001111011110
1101111000001011
1111011000001111
0000011010011110
0011010001111011
0010010000110010
1110100100001110
1101111010110110
1010100000010101
1111011100000001
0000000011111111
0001111011001111
0101001001011000
1111000011011110
1110000100001001
1111110000000110
0011010111010101
0101100010111011
0100110000011110
1011000010011000
0000100110000100
1010010110001110
1101110111011010
1000000000000000
1000010110010000
1111111011010011
1110110111100001
1010001100010101
1110000000000101
0000101000100101
1110110011100100
0100111111100010
1010011110110011
1110100011010010
1010101011110110
1000001110110001
1001000010101011
0000110100100111
0100111111001101
0011111110101110
0010011001000110
0110000100110010
0010000001101101
1101000100110110
0010001100110110
0110000111000010
1111110001011100
1111101010000100
0000010111101110
0101000101100100
0100111100111100
0101110111111011
0010110010001010
1110100101000110
0001010001101001
0010010001100001
1101100010100001
1111011011111111
0011000100000011
0110111011111001
0011000000000111
0011000100011001
0010110111010100
0010101010011011
0011001011110100
1111000011010010
1010010101101100
1111101110111011
0011101110001011
1111111111000010
0001101111010011
1100111011100010
0011011100001011
1110011011010100
0000000111111000
0010011100011001
1011011010010011
1110000010111101
1000000000000000
0000001011110001
1101110000001001
0010000000011111
0111000010001111
0000011011001011
1001001000011010
1111011101011101
0011001011000001
0010100110000000
1111010011000010
1100110001010000
1010101010001010
1000101111110110
1010111111001100
1111010100110100
1011110101110001
0010110001011110
0000000100000110
1001110101111110
1000000000000000
0000110011100001
0100001000000010
0010010110110000
0011110001001100
1111010010100110
1111000010111001
0001000101100001
1000000000000000
1110000001001001
0001001010100000
0001110010000001
1111100001010010
1010111010100110
1111101011001010
1110000101110101
1111111100010000
0011000111110111
0001110010001011
1101111100011011
0001000011000010
1000000000000000
1101010011010100
1010001000011111
1110110110101101
