1110110110001110
0001000001001001
1111010111001010
0001001111110101
1110111001000110
1111010101101010
0100101101110000
0101011100000110
1100001110100010
0000011000000100
0010100010010110
1101010000010011
0010101111110100
1110111010000101
0011001110100010
1111010000000111
1101001001000111
1101110111101101
0000101100100110
0001101111110101
0000010110101101
0011110000010111
0001110110001010
0001101010101111
0000010100001110
1000011000000110
1011011101000101
0101111011100101
1101010100110010
1111000111011001
1111011011100010
0000010110010101
1010111111100100
0010000010110011
1011010101010010
1110111110000111
1100000001110000
1111111001100111
0101001001110011
1000101010000111
0101011100000101
0100100001000000
0000011100111111
0100000111010110
1010100100100000
0011000011111010
0001001000000000
1111110000000101
1111101001010010
0000000111101101
0001111000111100
0100001101010001
0000101100110001
0000000001111010
1100011011100001
0000000101000000
1111100001101010
0000110100000101
0000011110000000
1000000000000000
0000100111011011
1000000000000000
0100110000111100
1111010011100100
