1111010101101000
0000010011110001
1110111011010010
0000111011100101
1110101011000001
1111001101001111
1111100011010010
1110111010111011
1110110100010010
1110111001111010
1111011000101001
1110110101111111
1111100110000110
1111100100011010
1111011101001000
0000010001101101
0000100110010000
0000000101010011
1111010110100100
1111111111111111
0000110000001110
1111100010110011
1111111110101010
1111111110000000
0000000000011011
1111111000001100
1111000101110101
1111110100100000
1110110000010111
1110110100111000
0000100000010100
1110110001000110
1110110001001010
1110101010000011
1111110010001000
1110111001111011
1111011101110111
1110110001111001
1111001010101010
1110101010100011
0000010000111011
1110110001110001
0000000011000010
1111101001100110
1110101101100111
1110101011001010
1111111110011101
1110010101000001
0000101100101101
0000110110110001
1111110011111111
1111100100111111
1111101001000100
1111111000101101
1111111011111110
1110111000001010
1111100010101001
1110111110101001
1110010101110011
1111011011011001
1101100011000100
1111110100100100
1111100111000000
1110100011110000
