1111000110010100
1101100110111111
1111000011000011
1101010110011001
0000111101011000
0001000110000001
0010110011101011
1111011110010011
1110001111101001
1100110101110100
1101000101110110
0001100000011110
1110100100011110
1111100110110111
0001011100011110
0000001000010000
1101011011010011
1111101000110010
0010011010011101
0000110010000101
0000101111111100
0000011110111110
1111001001010011
0000010001100010
1000000000000000
1111000111100111
1111101101101110
1111000010111000
1110111000110100
1000000000000000
1011010110011000
1110101010101111
