1111100000101110
1110000000
10100100100
1110111101110
111111111111111
111111111111111
110101100100011
1110111001101011
1010101101001100
1101000100111101
11100101000100
1110101100110
101010111001
11110010101110
1111000011
100101001101011
11101011101011
1101110001010011
1111001100010110
101000001
1101000010110111
101010111100
1001010101001010
1111010011001101
1000010010110111
1011000110100011
11101010001010
1010011101111011
1101001110001001
1101001110001010
1110111100011001
1011110000000011
1101110111111111
10000111110001
10101111011010
1101101000001001
1101000110111
1010011000100110
1000000000000000
1101110100010111
1111001000010111
1011001011100110
1011011010111011
1001100011001110
1101010111101011
11011101001111
110100100111111
11101001
11001000
10110001101010
1001101101001101
1000000000000000
111101010011011
1010111001000011
1100110100000110
1000101101001000
1101000111110100
1110111101100
1010100010
1110011101001000
1011010100000111
1110111000000111
1100110101000
11011110010000
1011000010111110
1111111101110110
11011011010
111001011110101
1101010000111011
1011011100010
1011111010101010
1100111110110010
1000100100101111
1111010000111010
10110110010110
10100100011000
1011001101110100
1000110011011100
1110010011100011
1001001110011101
110011100100
1111110101000001
1110101011010111
1011000000111001
1000000000000000
1111100101001000
1111001111001
11010100001000
1011111011001111
1001111101011101
1010101111001001
1000000000000000
1010011011001100
1110101100101110
10000001110000
1101101100111011
1001101111101001
101011101001011
1101110011000
1101000000110100
1000101010010110
1000000000000000
1000000011100110
1011010000100000
1010110000001010
1110110010110110
1011111010101010
1100000101100
10100001110111
100011011000010
101000110110101
11110110011
1100001001111001
1000000000000000
1000000000000000
1010000110111001
101011100000110
11110001110011
101011101101010
1111110000010001
1100011101011001
11010001000111
11000000110110
100001100111
1011000111011111
1100001111010110
1101001001011000
1010101011000010
1011100111100010
1011110010011011
101001100100011
101111001111000
1011101010111100
1101000101110001
10001110111100
101011000010110
100111001001000
100111010011110
101101100010101
11111101010000
1101101000010111
111111111111111
110100111001001
1111101111001011
101010010010010
1000000000000000
1011000001101010
1101100111111101
1110010010010101
1101111010111
11000110000011
101011001010111
110011010000010
10001110011001
111111111111111
11011110010000
1110100011101100
1111000010011000
1001001100111011
1000000000000000
1000000000000000
1100111110010001
101101011110100
101000110011001
110011011101100
111111111111111
111111111111111
111010001100111
11000111000011
