10000100100
1110111101
1000110110101
1101011111011
100110011101011
100000010011010
111111111111111
100000101101110
1100101010101
1101111001000
1110110000010111
10000110100
11101010100
11110001000
1100111100011011
10111001101101
111111111111111
11010010100100
10000110110010
1101101100011
110001111101
11010110001001
1110011000110011
101001100101000
1100101000111000
1100001011010110
1010110011010011
1100000111
111111111111111
1111111100000
1000001101001
1100010011010000
1100101001100111
1110000100101001
10001011010011
1101111001110101
1111110101000101
111011001100000
11101100100000
1110100000010100
1110111001110001
1101011000011100
1110101000000010
1100111111011
1000110001111
1101001100001111
1011001101000110
1100001011001111
1100010001010010
1101100000100011
110010011101
1101001110011110
110010000011100
1100110101010110
1001111101110101
1010101000011
111111001101001
1100001001011111
1000101001110011
1100100101001101
1110000100010100
1110011000110010
100101100100110
1000000000000000
11111110010101
111111111111111
1111111110100110
101101010101
110000110011100
110101001010101
1000000000000000
1011011111010100
10101111000010
100100001111111
1111011000101
100000101000010
1110111110010
1011000000001001
111101100100000
101000001001000
110000011111010
111000101001011
1011110010111
1000000000000000
1000011101011111
1110011011010100
10011111010
1111001000001100
11100111001111
11000100111100
1001011011100010
111101000101000
1001001100010
10011000100010
100001010011111
10010110011101
1110000100110100
1001000001000100
1000000000000000
1110100100010000
10011110111110
1110100010000111
1111010110000100
1001111000001
1111011011010011
1100000011111001
1011010100010110
1000101001100
1100001100
1110110010100010
1010111100100000
1000011110001011
100101010111
11101000101011
1111010000100010
10010000001101
100101011011111
111111111111111
1111100010111
1000110110010
1110001000000
10010000011011
1111110110010010
1011001100101011
1011110000001111
101111100110101
100001011001001
10010110001010
1111001001001001
101110111101001
1100111100100111
1111011100011
1000110011010
1110011110001110
1110011000
1111101000010110
1011011010110100
1111101111101111
11010111000100
1000001000000
1111010101101001
101100110
111111111111111
1010011011100000
1001011111110011
1101011000100010
1100010011101101
1101100111111111
1101111111101100
11000110010
11010010111010
11000001100100
1011101000000
11000000001001
1101101010101011
10000101111110
1010111010000
111111001111
110111010101000
100010100001110
1111001101011
1111011100100
1110000111000110
100010000010101
100101010010
11010111111010
101010001010110
100011001110010
1111111100000100
