101001000010
1011110100
100101110001
1110011010111011
1110110001110011
10111100110101
101001001010111
10000100010
10100000000
10011111100011
1111100110001110
1111100011000110
11101
1100111011010
1110101000000111
1110011001011000
1000000000000000
1011111110000100
100111101001001
110111001001
11100111111010
10110111101011
111001110011011
111110010000011
1001001111011
1111100101111100
111011000011000
101011110111001
1110011011001
1100000011010
1111111001011
1111110100110010
1101100111011000
1110011000100111
1110001101110010
10001100011101
1100001001011
101000001010101
1111010001010
111111111101001
101110100001100
1111000011110010
1000000111011
1111101010101101
1011000011001
11110110100001
11100110001100
1010011100100
11111100110001
10100100101001
1101010100101001
110110001001
1100110100010011
10110000010001
1100011001011001
1111110101101100
1100000011
100011000010010
1100111000100101
1000101101101011
1111010100
11001101001000
1111100110111001
1100100011101100
100000010001101
10100110011
1101101110110000
1100010011011011
101010011001
100110111111011
1010011110001
1000000000000000
1000000000000000
1000000000000000
1000000000000000
1000000000000000
1000000000000000
110101100100011
1111100101111110
1100111101101111
1101001110010
1000110011111
100001001111011
1111000011010100
1101010000101000
1111010011001110
1111100000011111
1010101000010101
1011101111001010
1110000101101000
1101110000011001
1000000000000000
110101011101001
1111001110010011
110100010100010
11010111101101
1101010010101010
1110011001110000
1101010110110101
1111001101000000
1111110000100111
10011001001000
1101000100011111
1000000000000000
1010110000101011
10111110010000
1011101110100011
1110110100111110
10110110010101
11001100011
1010100110101101
1010100010001101
1001000000001
101000100001
11000010001000
10100110101000
1000000000000000
1111011110000111
11111100011000
1011110100000111
1010111010100100
1000000000000000
1000100000111111
1000000000000000
1110001110100010
10101010110011
11000111111111
11100110000000
100011010101111
10010010001011
1010111000110101
1111111111101000
1010100000110010
1001110011100110
1100110111101100
1101000110110010
10101100010110
101010000100000
10100000011001
11110100110010
10001000010011
11111111010111
111111111111111
1111100110110111
1011000001000101
10101010001100
1011110010100101
10010001011111
100010100000111
11100011111000
10000010111101
1110100100000110
1111011101101001
1110001011010110
101000111011100
111111111111111
1111101010100111
10010101111010
111111111111111
110011010011010
101111101010010
110011010011010
11111000110
1111010101100010
100011110011111
10111111101000
111100111100100
101110010011101
101101010011001
