10100010100
1101001100111110
1111011100001011
1111110101110001
11111101100011
10110110011
11110110001011
1100001001101001
1000001110000100
1110011011101101
1011111100010110
1000101000010
1001110000111
11101110001110
1011011011100000
1101000011100100
1110110011011000
111010011000000
11010101000101
1111001010100011
1100100110111101
100101000000001
100111100101
1111100001010111
1000000000000000
1010111101001101
11101010011110
1000000000000000
1011101011
1111001110010000
1100010110001000
1111011110111100
1010111110101
1010010101011
11110100110
110101010101
1001100110001
1010111100001011
1000000000000000
1101000000001100
1001001100000000
1101100011110000
1111100011001011
11100111011101
100000000100101
11100100001011
1110001111011111
1101111000001011
1111011000001111
11010011101
11010001111011
10010000110010
1110100100001110
1101111010110111
1010100000010101
1111011100000010
11111110
1111011001111
101001001010111
1111000011011111
1110000100001010
1111110000000111
11010111010101
101100010111010
100110000011101
1011000010011000
100110000100
1010010110001111
1101110111011011
1000000000000000
1000010110010000
1111111011010100
1110110111100010
1010001100010101
1110000000000101
101000100100
1110110011100100
100111111100001
1010011110110100
1110100011010011
1010101011110111
1000001110110001
1001000010101011
110100100111
100111111001101
11111110101110
10011001000101
110000100110001
10000001101100
1101000100110110
10001100110101
110000111000010
1111110001011100
1111101010000100
10111101101
101000101100011
100111100111100
101110111111010
10110010001010
1110100101000111
1010001101001
10010001100001
1101100010100010
1111011100000000
11000100000010
110111011111000
11000000000110
11000100011001
10110111010011
10101010011011
11001011110100
1111000011010011
1010010101101100
1111101110111100
11101110001010
1111111111000011
1101111010011
1100111011100011
11011100001011
1110011011010101
111111000
10011100011001
1011011010010100
1110000010111101
1000000000000000
1011110000
1101110000001010
10000000011111
111000010001111
11011001011
1001001000011010
1111011101011101
11001011000000
10100110000000
1111010011000011
1100110001010000
1010101010001011
1000101111110111
1010111111001101
1111010100110100
1011110101110010
10110001011101
100000110
1001110101111111
1000000000000000
110011100001
100001000000001
10010110101111
11110001001100
1111010010100111
1111000010111001
1000101100000
1000000000000000
1110000001001001
1001010011111
1110010000001
1111100001010011
1010111010100111
1111101011001011
1110000101110101
1111111100010000
11000111110110
1110010001010
1101111100011011
1000011000001
1000000000000000
1101010011010101
1010001000011111
1110110110101101
