100010001110
1010000111
1001000
1111111011100101
1101001101
11111111011
1111110001101101
1111010111100111
1111100011110001
1111101101100100
1111111111010101
1111011010110000
1111101101000011
100000101101
10101111110
1111100010111110
100000100111
1111011010101100
1111101000100000
1111101110100101
1111010111110011
100010101
1111110010101100
10011000010
100110110100
1111010111111111
100010010110
1111101000000100
1001001001
1111100010101111
100101100111
1111100011111010
1111011100100010
1111100000010100
1111011111100100
1111010101110101
10101000001
1111101001000001
1110010100
11111
10110101100
1111100101111111
1111011010001101
1111111101100001
1111100101100010
11111011010
1111101110001011
1111101010101110
1111101101101111
1111011100100100
1111100001100000
10000110111
100001010100
1111101011100001
11110011010
1111111011000101
1111111111111001
11001100111
1111100010110110
1111110111001111
1111110100000110
101111000
1111111110101111
1111011010110000
100100
1111100100011010
1111101101101100
11111001011
1101110011
1111101011101111
1111111010011111
10001010101
1111001000100100
1111010111110010
1111110110101001
1111111100010010
1111110111101110
1111111000011011
11101011000
11100000
1111100111000010
1111110010111011
1111101110110001
1111011010110011
1011101001
1111110001100011
1111100100101100
1111111011001010
1111110111011011
11101110011
11100000011
1111011101011000
1111101100011110
1111011101111001
1111100111110111
10110011011
1111001110011110
1111110101000110
111010001
1111100110010100
1111011011100111
11110001110
1111101010010100
1111101000111101
1110111111
10011001001
1111111010101100
1111011101110011
1010101110
1111110101101111
1111010001101011
1111001110101110
111001101
1111011010001100
10001011001
1111110001010011
1100100011
11011001111
1111011110101101
10011101101
1111100011010010
1111010100110100
1111110000010101
1010101011
1000011101
11010000010
100010100110
10001001100
1000010101
1111100110110101
1111011001010001
1111110011001001
1111111011101011
1111011011111101
1100000101
1111110011110101
1111001101101111
1111100101110011
1111101001101110
1111111011001011
1111111010100101
1111011100000101
10111111111
1111101100010001
1111011111000010
100010011011
110100011
1000000000
1111001001001100
1111011111001110
10101010
1101110101
11111001011
1111101111000011
10111110010
100101110110
1001101010
10010010001
1111010111111101
1111010111100011
100100010101
1111011011010001
1111110101101101
1100110
10000001100
11110001101
1111100100111110
1111111010001110
1010001000
