1111001111010110
1111000011000101
101001000001
1111010011000100
1111101000011000
1111010011101110
1101010100000000
1101100110011001
1111111100101010
1111011110110110
10100011111010
1001001101101110
1011001110010111
1001010111100101
10000101011001
1111111000
1111110000011010
11111000000100
1010000001011101
1100000000000101
1011010101
100110100101111
1000100100101000
1011110010010010
1111100111011010
1001011110110001
110100100011
1010111111100100
1011001011100101
11011000011101
110001101100
1111101110110100
1100111010111011
1110100101000011
1000011101110001
111011000
100011101101000
1000000000000000
1100011110000011
1110110010010100
1100110100100011
100101100110110
1111111101010
100010101010010
10110110001111
10000100001001
1100100100101
100001110001
1111100101110111
10001110110
11000111101111
1111110001
101001010011
1000111010011
1010010101111010
101000101100100
100100110100011
100000110000101
1110001000110100
1101111011011010
1110001001110011
1000001010110111
110101001010010
1111010100110100
