1111110000100110
1111001000000111
1011001100100110
10100000101
1000000000000000
1111101111111000
1000010111010
1010010111001100
110111001000
110110111111
1100101001100001
110100010111
1010100110111010
1101100111010000
1000000000000000
1111001011111011
1110101101001100
1101011110001111
1111001000001110
1110100001110001
1110101101100100
1100111011010111
11010111000
1010000000110
1111011110110011
1100101011100101
10110101000
1111000111110110
1101110010010100
1110000110010100
11101010000
1101011111100110
100001100011
1011011101111010
1001011011011000
1100011111100000
1110000000101010
1100111110101011
1111001010011100
100010101110
100110010111
1100001010000110
1101111000010011
110110001011111
100001100100
1000000000110101
1011001010000010
1110000110010000
1110111100100000
1111000011011000
100010010110001
1110100111101110
100110101
11011101100100
1111001111100010
101111110100011
100101110110100
111110110101011
1110001000000001
1001011110010010
1001011100110000
1001011110111
1100101110110111
1111110001111101
