1110101110
1001101011
1101100000110111
110010000
1111100110001010
11010010001
1111101111010011
1000000000000000
1011010011101
100111100110
1010010111011001
10101110001010
1111000110101111
1010110001101100
10110110110101
1111101011000000
10110001000110
1011111011110
1000011111111111
1101101001010101
1111010110001110
1010011100000
1000100000101111
1111001010110111
1111010001111010
111000111111
1101111101100001
1100011
10011101111000
111001000000
1111001101100011
1010011011011111
1111100010100011
1100001100100100
1110110101011001
1000000000000000
11111010101111
1011100111101
101010111111001
110110110000
111111111111111
1110100101101110
101010011010011
11001000011100
10111100010111
1111000001111001
1111100
10110111100011
110101100
1111100011010011
110011101001010
1110000010010010
11000110110
1011101000011
1101100101100111
1011110110101100
1111011011101010
1100101011011000
100111111000
1101011011100001
1110011111001010
1101101110111101
1111100110111110
100110101110110
