1110001100100010
1110000111001110
1101011111101111
1010011011110
1100100010100
101100000
1101100101010010
1101101011010001
1101001010100000
1111100010101100
1111011100010
10010110010111
1101000010111100
11000100
1111111010000110
1111111111000100
1000011000
1101101001011100
1111010000001110
1111100000110111
1111110110010001
1110100011
1000101010111
1000101100100011
1110100011101000
1001110011101
10101101010
1100101110111001
1111110011100010
1100001111011101
1010101011111
1110110010101001
