0000010000110001
1111101011111110
0000011011010111
1111101011111111
1111111100110110
1111110010101111
0000010011101001
1111101010011101
0000001011010100
1111101110000000
1111100010100010
1111111011000000
1111111110011001
0000010011011000
0000000111010010
1111101100101000
1111101101000111
0000000000011101
1111100000011111
1111011111011001
1111111100000110
1111110111101110
0000010011011110
0000000111110101
1111111110111011
1111101111101000
1111101111011101
0000001001111001
1111110101110010
1111101110010011
0000011011111111
1111111011110100
0000011010001110
0000010100110001
1111101101111010
1111100100010001
1111100100111010
1111110111001101
1111111110101011
1111110000100100
0000011001100101
1111100000000011
1111111100001000
1111100101001001
1111110111110011
1111110101111100
1111100001101110
0000010011011000
1111110111110001
1111111111110010
0000010110111101
1111110000001001
0000001111100111
1111100110011001
0000000110110010
0000000100111011
0000001111100101
0000000000100110
0000001000110010
1111100110000010
0000001010000110
1111101111011111
1111100010110111
0000100001000010
1111111011111001
0000001110011101
0000001000111001
1111100100110110
0000010010101001
1111111010110010
0000010110101110
0000010011101010
0000001101011000
1111111101100110
1111101110011010
1111101000010100
1111100100110111
1111100000100010
1111101011001011
1111111100111000
1111101111011110
0000010100001111
1111100011101101
1111111011111101
0000000111000000
1111111010100100
1111111011000010
1111101111110001
0000001001011101
1111110100011100
1111100111000010
1111101010011101
1111100100101110
0000100000011001
0000010010111100
0000000011111010
0000100000010011
0000000101101101
1111101001000111
0000010001000101
1111100010111100
0000000110001001
0000000111111100
1111101001000111
0000011111101011
1111110100010000
0000000111001011
1111111111101101
0000011111110011
0000011011111110
1111101011010001
0000011000111011
0000011110101000
1111101110111011
1111110000010100
1111100111100101
0000001101101101
0000001011011100
0000001000110101
0000011110001101
1111101110000001
0000001111111101
1111100100001110
1111101111101010
1111110010101001
0000000010101101
0000011101000100
0000010001001000
1111111100100100
0000001101001110
1111100010111100
0000001111010000
1111111110010100
1111100001000010
0000000000000101
1111100111111100
1111101110000000
1111101111101100
0000011100110101
0000001000001110
1111100010101111
0000000000010110
0000011111000010
0000011010111101
0000011000011100
1111111011001001
1111101000111101
1111101101001111
0000001101101110
0000001011111110
1111101010111101
1111101011101010
0000010001011101
1111110001011111
1111101010100011
1111111100000001
0000011010101010
1111110001010101
0000000010011111
1111100010010010
1111111111110011
1111111100000101
0000000100110101
0000010001111001
0000011111000001
1111100110010100
1111110010011010
0000011011100010
0000100001001111
1111110100000000
1111100001000000
0000010001000001
1111111110011111
1111011111001110
0000010100100110
0000000010000111
0000010001000000
0000010100011101
0000011101000001
0000011110010111
0000010100001101
0000010000100111
0000011100001011
1111101111100101
0000001100000101
1111101101110100
1111100100110101
0000010111110110
1111101000010000
1111011111000110
1111100110100010
0000010100010001
1111100110000111
0000010010000001
0000001100110110
0000011111101010
0000000001100110
0000010010010111
1111100101110101
1111100101000100
0000011011001001
0000000001001110
1111101110101011
1111101101000110
0000010100011101
1111101111100000
0000010011000001
1111101011110001
0000000011010000
0000100000110001
0000000101001111
1111111101100001
0000000000000110
0000001011001100
1111111110011000
0000000011011111
1111111010110010
1111110010010000
0000011001111110
1111110000010100
1111110111000110
1111100110000101
1111110001101110
1111110111000101
0000000001000101
0000001100100010
1111100010101100
1111011110111111
0000001101011000
0000001100000100
1111100001110000
1111110010000111
1111110101000001
1111111101100001
1111110100111111
1111111011101000
1111111001010111
1111110111011100
0000001111110101
1111111000010011
0000001011111010
0000001111100100
0000010101001101
0000011001010011
1111111100010110
0000000001101100
1111101001011000
1111110001010001
0000001010110111
0000001001001000
0000000010010100
1111100110011010
0000010110010011
1111101110110101
1111100011111000
0000000111110111
1111101000011100
0000011000010111
0000000111000111
1111110101000110
0000001001001110
0000011111110101
0000001100100010
1111011110101000
0000011001000111
0000000111011011
0000000111101010
1111111010101100
0000000011100001
0000010100001101
1111101001111110
1111100110101100
0000100000110111
1111100011011100
0000000110101011
1111100000000000
1111100010000100
1111100000111011
0000010010001011
1111101000000000
0000011111110011
1111111100010110
0000001100011011
1111111000110001
0000010100110101
0000001011010001
0000010001010101
1111101001000001
