1111101001111001
0000000011000011
1111100101110111
1111110011101101
1111011111100101
1111110010001110
0000001100111110
0000011100010000
0000001001110100
0000011111111100
1111101001001000
0000000111010110
1111100001001100
1111011111110110
0000011100111011
1111101001110101
0000000011110001
0000010010000111
1111110111100000
1111100011000011
0000011001101110
0000000001100010
1111100110000011
1111110000110000
1111110001010110
1111101110101000
0000010010101001
0000010001011101
0000011100110101
1111111001110100
0000000101010000
1111100001010110
1111100000101001
0000000101001100
0000010001010111
1111011111111010
1111110010001010
0000010011100011
0000100001000001
1111110011110101
1111101010011000
0000001010110111
0000011110111110
0000000111011101
1111100000000100
1111101000100011
0000000001101010
1111101010011010
1111101100110110
1111111010110001
0000000001011110
0000011010010001
0000010100011011
1111111001011100
0000000110110101
0000010001011000
1111111010111010
0000000011111000
0000001010101000
0000011001110011
1111100110101011
0000000111101111
0000011111101000
1111110011110000
1111110111001100
0000000001100011
1111100111101110
1111011111010001
1111100011011000
0000011000101101
1111110101110011
1111110100110001
0000000000011111
0000001100010010
1111100111110011
0000010111011100
0000010100011100
1111101111010101
0000000010010100
1111011111000101
0000001011110000
0000010111011010
0000001100110111
1111110010110000
0000010101001010
1111110011100100
1111111111010000
0000010100101110
1111110001000000
0000011010101101
0000011001110001
1111111011011100
1111110110000011
0000010110000101
0000010100001100
0000011110011001
0000000010000101
0000010101010001
1111100001000101
1111110010100110
0000100001010011
1111100000010111
0000011001110110
0000001101000101
1111101100100110
1111111111111100
0000010001000011
0000011010100010
0000100001001000
0000010111111110
0000001101110000
1111101011100111
0000011000010010
0000001111101100
1111110110000001
1111111001110010
0000011000100111
1111100010010000
1111111100111100
0000010110010110
0000001101010010
1111110000011010
1111100010110110
1111101010001101
0000011110110110
1111011111111010
0000100000001001
0000011101010000
0000001001111010
1111111101100100
1111100000101010
0000011011100011
1111110010010000
0000010010001010
1111100011110111
0000011010101011
0000011111100011
0000001101100001
1111101001110100
1111111000000100
0000010010100111
1111111011001001
0000000010001001
0000000010111110
1111100010111110
1111110011100111
1111100010010000
1111101010110001
0000011111011100
0000010101101100
1111101101101100
1111100111010011
0000001010011111
1111111011011011
1111101011001010
1111100101101100
0000000101100001
0000011111110001
1111110001001000
1111100010110110
0000010100011010
1111110001010110
0000001111011110
1111110011111010
0000000100100011
0000011100101010
0000000011011001
0000011011001000
1111110001001101
1111110001011100
0000001111111111
0000001111101101
0000100001010111
1111100110010101
1111111100001001
0000000010111001
1111101111101100
0000001100101010
1111110000000110
0000000010010110
1111111001110001
1111110010101111
0000011010011101
0000010111111110
0000001110110001
0000000110111110
1111100110110010
0000000101010001
1111111000010011
0000000101011111
0000011101100100
0000011000111000
1111100100110100
0000010011100111
0000001100110110
0000011110011101
0000001101001001
1111110001100101
0000011111010001
1111111011000010
0000000011110111
0000000110001100
1111111111001111
0000011110000000
1111110100010110
1111110111000011
0000000101100010
0000001101001111
0000011001011110
0000000011110110
0000010111110010
1111100000111000
1111101101100010
1111101001100110
1111100011001100
1111110110111111
0000001101000011
0000011001101101
1111110010111000
1111100100011111
1111101110001000
0000011010001100
0000100000100111
0000011011001100
0000011000010000
1111110110011000
0000011010100001
1111111111101110
0000000011110111
1111111100100101
1111100000110101
1111110101010011
0000011100011000
1111011111000101
1111111111110011
1111100010110101
1111110000010011
1111100010001111
1111101010001001
0000011100101011
0000011110011110
0000100000110111
1111101000011011
0000001001001101
0000011111000011
1111111110011111
1111110110010010
1111111110101111
1111100100111110
0000000000110100
0000000010111111
0000010011100001
0000000100111110
0000010110101001
0000001101001000
0000001110110001
1111100111101010
1111111101000010
0000010011011010
0000001011011111
0000011011001001
0000000000011001
1111101110110101
1111100011010011
1111100001011101
0000010110001001
0000011101010100
1111101011010110
1111101100111001
1111100111000000
1111111011011000
0000000111001100
1111100110101001
1111110010000111
0000001111000001
1111110010100000
1111111100001010
0000010101000001
0000011001011111
1111101000010010
1111110111011100
1111100110010100
0000010001100100
1111111010110010
0000001111111000
1111111110011010
1111110010000111
1111101111100001
