0000001100000010
0000010001000010
0000100001000000
1111111100100100
1111111010011001
1111100001010000
1111111011011111
1111111010110101
1111111110011011
0000010101101011
1111111011011111
0000010101100110
0000001001000010
0000001010101110
1111101000000100
0000000110011011
1111101011000110
0000011010000000
1111110001101000
0000001000101010
1111101010001111
0000010011101001
0000000010110110
1111101101110001
1111111101110000
0000001111100000
0000011000000111
0000011000110010
1111101011111111
1111101111001110
0000001000110011
1111111001111100
0000100000110110
1111100000110110
1111101010100001
1111110011101100
1111110000000110
1111100001110010
1111100001101000
1111100100110111
0000010010010011
0000011111011110
0000001000100110
0000001001011001
1111100000111100
0000000001111101
0000000110111011
1111111010011000
1111111100000010
0000001000100111
0000010101011110
0000010100010100
0000000100111101
1111111001010001
0000001010100110
0000000000000001
0000011010011111
0000001011011101
0000011000001110
1111011110110011
1111101111010000
1111110101110100
0000100000111010
0000001011100011
1111101111110000
1111100100000100
1111100000000110
0000000100101110
0000000110010011
0000000100011011
0000010100111010
0000011000101110
1111101010111011
0000010011010110
1111100000101010
0000011000000111
0000010011101010
0000010010010101
0000010111100011
0000010011111001
1111110111100100
0000001100110011
0000000011011111
0000010000110100
0000000001000001
1111100011101100
1111110011011011
0000001000001001
1111011111000111
0000011010101110
0000001111011111
1111111111100001
0000011111001101
1111100111010000
1111100111010010
1111100001010010
1111101011001100
0000000100011101
0000001100111101
0000000011001100
0000000110101110
1111100001010100
1111100110101101
0000010111101110
0000010011010000
1111101111010100
1111101001011010
0000001110110101
1111100001010000
1111100100001000
0000001001101111
1111100010101100
1111111101001110
1111100111001001
1111100011011001
0000010101011111
1111110101111011
1111101011101100
1111100100111100
1111101001110110
0000011100001011
1111111110111000
0000011011101000
0000000010101001
1111101000001101
1111111010101110
1111110110101001
1111101111000101
0000000100101100
0000010100100000
0000000101000100
0000001011110111
0000011001001011
0000010110011110
1111100110011111
1111100101110010
0000010000011011
1111101100101101
0000001101011101
0000000100110101
1111101001100111
0000001010000001
0000010111100110
0000011010101110
1111101100101100
1111111100000011
0000001011101110
0000000111111010
1111111110011100
0000001101010101
0000011010111100
0000100000110001
0000011100010000
0000001101111110
0000001101110010
1111011111110100
1111111010000111
0000010001110110
1111111010111000
1111111011100011
1111100101100010
0000000010010010
0000011011110011
1111111000010010
1111100100111001
0000011001110110
1111110011111000
1111110110011110
0000100000001100
0000000000110110
0000011111001100
0000011101111001
1111110111000010
1111111110000110
1111101101000010
1111110001111001
1111110001110011
1111100011101100
1111110100110001
1111101000001011
1111011111101111
0000010011110001
0000010111011000
1111110000111111
0000100001000001
0000011100011100
1111101100100100
0000000011100111
1111100011110011
0000001101111111
0000011101110101
1111100111001100
0000001000001010
0000011110000011
0000011100000001
1111111110010011
1111100011110100
0000001101100101
0000010111111001
1111110011001001
0000000011110011
0000000001010110
0000000000100001
1111100110001100
1111100100001101
0000011010000111
1111100101111111
0000010011001010
0000011011010000
0000001100011100
0000001001110000
0000011110000111
0000010000110011
0000000001110101
0000001011110010
0000010101011111
0000000001100000
0000011000011110
0000011110110101
0000001100100010
1111111111000100
0000010011000000
1111111001110110
1111100000101101
0000010010001011
1111110100000111
0000000111011000
1111111111100110
1111111111000100
0000001000101100
1111111001001101
1111111110111100
0000001001000000
0000001010001001
1111101011100100
0000000011011001
0000011010011001
0000001111110001
1111110001110010
0000000011110000
0000010011001010
0000011010010000
1111111110110111
0000011001000000
1111100011100110
1111110000101011
0000001101011111
1111110110011110
1111011111110011
0000001010100001
0000000000100000
1111101110111010
1111011111000001
0000001100110101
1111111011011011
1111100010111010
0000010000101010
0000011111001110
0000001001101110
1111100111011110
1111100011010110
1111111111000011
1111111110011101
1111110101000110
0000000111111001
1111101000000000
1111100100010011
0000001111110010
1111110001010101
0000010101111011
0000010010010100
0000001100010110
0000011010110000
1111110000010100
0000001100100010
1111101110111111
1111111010001111
0000010011011111
0000000010101101
1111101111000110
1111110010011110
0000100000011101
1111101011100001
1111101010000011
1111111100011001
1111100110110110
0000011011000100
1111100001001100
