0000011110011110
1111110010011110
1111111001011011
0000010111010111
0000000111110101
1111100100111001
1111100010011101
0000000110101000
1111111100011010
0000000001101100
0000000000111110
1111101010010111
1111101001110100
1111111011001001
1111100010001100
0000011101000101
0000011011100000
0000001111110001
1111100100010001
0000011111101011
0000001000001100
0000010011001000
0000001010011001
0000000100001110
1111100100100101
0000010110101011
1111101011000110
1111111111010111
0000000111010111
1111011110110011
0000000111011111
0000011110001001
1111100001000011
1111111111000001
1111110000011111
1111110110001010
0000001101111011
0000011010001100
0000000011100110
0000010011110101
0000000010010000
1111110011111100
0000000111110010
1111110000110100
1111100100110100
0000000111000001
1111101011111010
1111100100100111
1111100110010110
0000100001010011
0000010111110100
1111100000000000
1111101000000111
0000000111001100
1111100110110100
1111110100011011
0000011111001001
1111100111100010
1111101111101110
0000001011111011
0000010011100100
1111100111001100
1111111100100001
1111100011011100
0000011101001101
1111101101111101
0000000100011110
0000001101110000
1111100110111100
1111100110011100
1111101010110000
0000001101000100
1111111010000000
1111110111111111
0000001111110100
0000000000010101
1111101100110010
0000011111100001
0000011110100111
1111110110101010
1111100101011001
1111110000101010
1111100010110100
1111111111110100
0000000111000100
0000000100111101
1111110000001101
0000001101100111
1111101111100100
1111110101100000
0000011110000010
1111101000000010
0000000110101101
0000000011101000
0000011110111010
1111110111010011
1111101111100111
0000010111010101
0000000001010101
1111101011110110
0000011011111110
0000011001100110
0000001001100101
0000001011110001
1111111000111011
0000000010110101
1111110011111010
0000001110101100
1111110010101100
0000000101000000
1111110001100010
1111111100010101
0000001001110001
1111111001000011
0000011101011011
1111110111000001
0000000110110000
0000010000010110
0000000011111101
1111110001000110
0000000101011110
0000000101001001
1111111100011000
0000001000000001
1111100110100000
0000000000110111
0000000010110001
0000000011010010
0000011110010000
1111101100111101
1111100000111111
0000011010110011
1111110010011110
1111110101101110
1111111010111100
1111011110111001
1111111010111111
0000011101011001
0000011001010011
0000010101110101
0000010000010110
0000000111001110
1111110111101110
0000011010101001
1111101100100101
1111011111010000
0000000111000110
1111110100111000
1111110000000011
0000011110011110
1111100111000110
1111111010101101
1111101100010111
0000000110011010
0000000100000011
1111110001111100
1111110011001110
1111100000011110
0000010000001001
1111110001011110
0000010000000100
1111110000110001
1111111001011001
1111100000111001
0000011001100010
1111110111000010
1111111101001000
1111100110101000
0000001110100000
0000001100001011
1111110100111000
1111101111011000
0000100001000010
1111110001001100
0000010100100001
1111110111101000
0000000100010000
1111101101101000
1111110011111101
0000000001101010
0000000100110000
1111111000111000
1111101100011011
1111110011000111
0000000110101100
0000000001101110
0000010001110010
0000000000010110
1111100011100100
0000010110011000
0000010110101001
0000000011001001
0000010110000011
1111110001001101
0000011001101100
1111111000110010
0000001010100101
0000011101110001
1111100101011100
0000011100001010
1111101110010011
1111100000001101
0000011011101111
0000000111011001
1111011110100111
0000010011100110
1111111000110011
1111111110011010
0000000100010111
1111111100000011
1111100111110010
1111111011001010
0000010001001010
1111111110101011
0000010110010001
0000100000101101
0000001001010110
0000011000100101
1111100011000000
1111111011010011
1111110001010011
1111110101101010
1111111010010001
0000000010010011
1111110010101110
1111101000011001
1111100011010110
0000011111010001
1111111110001011
1111110011010000
0000010100011010
1111100001100110
0000001110110111
0000010110101101
0000001100010011
1111110110101011
1111101011010011
1111101111011111
1111100101010001
1111110110010000
0000000010100101
0000000011101110
1111110000101110
0000010110100110
1111100001100000
0000011001100110
0000000100110100
0000011101100100
1111101011111110
1111100111011010
1111101001100000
0000000011101100
1111111001001000
0000000110100100
0000001110110111
0000010011001111
1111110100000001
0000010000011000
1111111011100110
0000011100111101
1111110110110100
0000001011100000
0000000011101010
1111101001101011
1111101110110001
1111101000011100
0000011001010101
1111100100100111
0000001001011000
1111100100010001
0000001011011111
0000010010110010
1111100100000011
1111101100111111
0000000101100101
0000011111010101
1111101100110001
0000001111100111
0000100000011011
1111101011110000
1111101010100010
1111111110001111
0000000011011101
0000000100001010
0000010111110101
0000010001010111
1111100110100100
0000010011001100
