1111101001111111
0000001101110100
1111101001000010
0000011011010100
0000000100010000
0000100000110011
0000000100110000
1111111101011010
0000000110001111
1111100110011110
1111100010100001
0000010110011010
1111011111000101
1111101100100111
0000011111011110
1111100010010001
0000001010111010
0000011100100111
0000011000110111
1111100100011100
0000000100001000
1111111100001011
1111011111001001
1111100001001111
0000011000011001
0000000000010111
0000001001100001
0000100000111100
1111111011100101
1111100010110000
0000011101011000
1111100000100111
0000010111010010
0000000010100110
0000100000010111
0000001011110101
1111101111001110
1111100110111100
1111011111110101
1111111101110000
0000011000101110
0000000000100001
0000000010101101
1111100000100011
0000011000100011
1111011111101100
0000010111001010
1111101011010011
1111110010011000
0000011010001011
0000011001000001
0000000101110111
1111100110011100
0000000010100110
1111111111011001
0000011100110010
1111110010001011
1111111101110100
0000001001000111
0000010110111101
1111111011110110
1111111110001010
1111111010001000
0000010100101010
1111100111101100
0000001000011100
0000011000100111
0000001001100011
1111101111110110
0000010101111101
0000100000100001
1111111100001101
0000010110000100
1111100101001101
0000001111110100
0000001110010111
0000011110111001
0000001111010010
0000100001000111
0000001101100101
1111110001001001
1111110100110110
1111110000000010
1111110000001001
1111110010010110
1111100100111101
0000010100001000
1111111001101100
1111110011000110
0000010000001100
0000010010100111
1111111100111100
1111100010011001
1111110101101111
0000010011010100
0000010000111001
1111111110000011
0000011110011111
1111110111101100
1111100111110001
1111100111101111
0000000101101011
0000001110011010
1111100101111000
0000011001110010
0000011001011010
1111110000000110
1111101000010001
1111111000111111
1111101000101101
1111100010100001
1111110111110011
0000010010001000
0000011000111010
0000000111100001
1111110010001100
1111100111101011
0000000111101001
1111111111100001
0000011010001000
0000011000100010
1111110110101001
0000010010111101
1111100010100000
1111100100001000
0000010100111111
0000011111011000
1111110010100001
1111101000110100
1111110111011110
0000010000100101
0000000000100001
1111110101001011
0000000010100010
0000011110110111
0000011111001010
1111101010000100
0000001110100011
1111100000111100
1111110001101001
1111101111001110
0000010100000011
0000001100100001
1111101111001100
1111110100010010
1111101100111101
0000001000001010
0000010100010001
1111011110111111
1111100000111101
0000011001101010
1111100011100001
0000010000000001
0000000100100101
0000001110001010
0000010101001011
0000011100010010
0000011010111110
1111110101111011
0000000100100100
1111110000000000
1111101000001100
0000010000010001
0000100000011111
1111110101110110
1111101010011010
1111111000010011
1111100101101111
0000000000001100
0000010111101110
0000010000010101
0000000010111010
1111101110010110
1111111101010100
0000001110110111
1111110111011001
1111101011000110
1111100000001000
1111100101001100
0000010100101011
0000010111110001
1111110001111000
1111101001010000
1111111100001100
0000011011111001
1111101110100101
1111110010010011
1111100101001011
0000000111001010
1111111010011111
0000011111100001
0000001000101111
0000010000010000
1111111001001101
0000010011111110
0000001111111011
1111101111011000
0000001110101111
1111111010110110
0000001000100001
0000000110110010
1111100100100010
0000010001011110
0000010100010110
0000010111000101
0000001100110110
1111101001000010
1111111101001001
0000010101101011
0000000101111110
1111110101111010
1111110000011011
1111100000010101
1111101110011110
0000010011110101
0000000110010100
0000011100101011
1111101110001001
0000001111001110
0000001110000010
1111101111100011
0000000111010101
0000001010011110
0000000001011011
1111100110000111
1111111010110101
1111100101011100
1111111011010000
0000010110011111
1111111101001101
1111101001111100
1111110100101001
1111100010000010
1111011111110000
1111110100011111
0000001101011111
0000100000010111
0000010100000101
0000001111110010
1111100101100101
0000010000001100
1111101011000101
1111110000100000
0000011000011111
1111100011011111
1111101010111001
1111111001111111
1111100011100001
0000010001111101
0000011110011000
0000001101010100
1111100101001011
0000010100000111
0000001010010100
0000000010111111
0000000010110100
1111110100010001
1111111100000011
0000001000000101
1111110110000101
1111110010111000
0000011101110100
0000010111101001
1111101111000100
1111110000001000
0000001011110000
1111011111101101
0000001010010101
1111110000110101
1111011111111000
0000010101000101
0000010000011100
0000010110011011
0000001101100011
1111100110000011
1111111010000001
1111101110111000
1111100111101100
1111111111111001
1111101010101110
0000010100001110
0000000110110011
1111100000101110
0000000010011101
0000011100001100
0000000010100001
1111101001000010
0000010101000001
