1111111010000110
0000011001100100
0000000101111000
1111100111110000
1111101010101001
1111101111011001
0000000110010100
1111111101001010
0000011110010000
1111111011100001
0000001011011101
0000000110000111
0000010100110001
1111101111001010
1111111001000011
1111101111110011
0000000110111001
1111110000000110
1111110100101011
0000000000001111
0000000101101110
1111101011111110
1111110011011011
0000001101010110
1111101100010010
0000100001010011
1111111010111101
0000000001010011
1111111001101011
0000000101111100
0000011101111110
1111110011010111
1111101011100110
0000001101101101
0000011010110011
1111101000110111
1111100110110000
1111101010111101
1111100101011011
1111111101010100
1111100010101010
0000001001000011
1111110100100101
1111100011011000
1111110010100011
0000000010110011
0000001101101001
0000011000011001
1111101111001101
1111111100000000
0000000100010110
0000010010111010
1111110010111010
0000001001111100
1111110110111001
0000001110000101
0000000011100111
0000001101100110
1111110010011110
1111101110001100
0000011001110000
1111100011101010
1111101100011010
0000001001001001
1111101101101101
0000000000110110
0000100000100101
1111110001000110
0000010001011000
0000010010000100
1111111110010100
1111101101010001
0000000100011101
0000010101011110
1111100010000011
1111101111001100
1111111100000001
1111111011000111
0000001110101010
0000011100100110
0000100001010000
0000001001001101
0000011111101101
1111100001001100
1111111011101010
0000010001110010
1111111010101001
1111101011011110
0000010111110011
1111110010100010
0000001010011011
1111110010001100
0000011010101011
1111110011000101
1111110011110010
1111101110001101
1111101000000000
1111111101101101
0000010111000101
0000001001010001
1111100001000001
0000010001111100
0000000111001000
0000000100111100
0000001001010010
1111110010010101
1111101111010001
0000011111000011
0000001111010001
0000000000001000
0000001101000100
1111111100101101
0000010000111110
1111110100010000
0000011011110100
0000001011001001
1111101111100011
1111100010000110
0000000111010110
1111101111101000
1111101000110110
1111011111000111
0000001101101010
1111101110001101
1111110000000111
1111111011101001
1111100001011111
1111110001101011
1111101111101000
1111110111000100
0000100001011010
0000001101010001
1111110010111001
0000010110011010
0000010010010111
1111101100010011
0000011100100110
0000011110110101
1111100000011101
1111110110101110
1111111111111101
1111111001010011
1111100011001110
1111101101100000
0000000110101000
1111111001000011
0000010111110111
0000011101110100
0000000101011000
0000100001001111
0000000110110001
0000000111101100
1111101100101111
1111110010001000
1111110101011100
1111011110101000
0000001001100011
0000001000100011
0000011010010001
1111110111010101
0000011100110001
1111101000111111
1111101000001110
1111111000110101
0000000001001010
1111101001111110
0000010100111010
1111011111000101
1111101010011011
1111101010111101
0000001000100101
0000001010000101
1111101100000011
1111111011000010
0000010111110100
0000010001100101
0000010010100011
0000010010011101
0000000111010011
0000010100110000
1111100000110001
0000010011110010
0000000110001111
0000001101000100
1111101101000111
0000010010100011
1111110010101010
1111111001010010
0000000101000111
0000001100110111
0000000011011000
0000011111001010
0000011010010111
1111110111001111
1111110000110110
1111100000111111
1111011111000110
1111110100010110
0000010101110110
1111110011001010
1111110110100010
0000010110001000
1111101010100111
0000010101000010
1111110011110100
1111100100101101
1111110010010001
1111101000100101
1111111111011100
0000010111111010
0000011011001101
1111111001011100
1111101101010101
1111101100001001
1111101011011110
1111101101000000
0000010100000001
0000011001000010
0000011001001110
0000001100111001
0000011011010111
0000100000111111
0000011000000101
1111100101010001
1111111100001010
0000010010010011
0000001010001110
0000010001110111
1111110100110111
0000010101110000
0000011000101110
1111100110001001
1111111001000100
0000011001000110
0000000111000111
1111110011111001
1111111011010010
0000001101010010
1111111100010111
0000011000100011
1111101000100100
0000000001100001
0000011001111111
1111101111100101
1111111000111100
0000000010101010
1111110000111100
1111111111100011
0000011101001110
0000001011011000
1111100000101111
1111101011000100
0000000000101100
1111100000111011
1111111010100011
1111111000111111
0000011111101011
0000011001100010
1111100110010000
1111100110001010
1111101100110010
1111110010011111
0000011110100010
1111110110100010
0000000001010111
1111100100001011
0000011010111101
0000011011111000
1111100111100101
0000010100110010
1111111000101001
0000011101101001
0000010001001001
0000011101010110
1111101100000100
1111100111110001
1111110001001100
1111100101110011
1111101000101100
1111110010100000
0000100001001100
1111100101100011
0000011110000101
1111111110011001
0000010100110110
1111100101100000
0000001001111111
0000000001101001
