0000011001010000
0000010011000000
0000010001111001
0000001100101110
1111101110011011
0000011011110010
1111111010111111
1111100011101101
1111101101001001
0000010011010011
1111110010011111
0000000100001101
0000011111000100
1111111000101001
0000010111000010
0000001000011001
0000001001101111
1111101101001101
1111101100000111
1111100110110101
0000010100100010
1111100110101111
0000010111101011
0000000000001101
0000011011110011
1111101000010111
0000001100010001
1111110111101010
0000000001101001
0000001011010100
1111111111101011
0000001000100001
1111101001101000
0000001011000001
0000001000111101
0000010110011100
1111110000010101
0000001101100000
1111111011110010
1111110101111011
1111100100101100
1111110110001100
1111100111100010
0000100000101100
0000000000011010
0000000011011001
1111101110110001
1111101000100101
0000001001101001
0000011000001010
0000000000110110
0000011101101000
1111101001010110
0000011010011110
0000011110111000
1111100101100100
0000000010100110
0000011110011000
0000010000010101
0000001010101010
1111110000011000
1111100101001110
0000000001000010
1111101100000101
0000010110010011
1111111100111111
1111110110111011
1111111101000011
1111100001011000
1111101010010000
0000011000101010
1111101001110101
0000010010000101
0000001110111010
0000001000001100
1111110011100001
1111111110000000
1111111101101000
1111110111011101
1111111111100100
0000001110000000
0000001001001011
0000010011100011
1111101100110101
1111111010111101
1111100110110011
1111110100000100
0000011100010001
1111100101010011
1111110100110111
1111101110111010
1111101001111111
0000011100011101
0000000110100100
0000000010111011
0000010111100010
1111110110000011
1111101100100110
0000001100001100
0000010011010100
0000000001100101
0000011100011101
1111111000110011
0000001100101000
0000000101001001
0000000010011000
1111111100000010
1111110010001110
0000011101101111
1111101110000101
1111110100001011
1111110101101011
1111110110010101
0000010110011101
1111101011010110
0000011011111000
0000010011000111
1111100000100001
1111110110110010
0000000000111111
0000000010000010
0000011100011001
1111111001001110
0000000010011011
1111110101101111
1111111100110101
0000001111101111
0000011100001110
0000001011000100
1111100000010011
1111110011100111
1111101000010111
1111101001000100
0000011110100111
0000010110100111
1111110101000000
0000001100100010
0000000010010111
0000001111010100
0000011011001001
1111100010011111
0000000100001000
1111100100101010
1111101000111101
0000000001111001
1111111110010111
1111111010111100
0000011001100100
0000010011111101
0000011101100101
1111111111101000
1111101001001000
1111110001010011
0000000111011110
0000011101110101
0000001001110111
0000001000000011
1111100100000111
0000000110001100
0000011000010100
1111101011100101
0000011100111001
1111101001100111
0000010101001110
0000011010010001
1111110011100010
0000001100101110
1111110111001010
0000000101011011
0000011010011101
0000011100100100
0000010001101101
0000001000001100
0000010100010101
1111101000101110
0000011001100011
0000100000001000
1111110000000010
1111101010011011
0000011011010111
1111100111101111
1111101111101101
1111101011001010
0000000110000001
0000001001100001
1111100111001101
1111100000001010
1111100110101101
1111111111111100
0000010101000010
1111101101110000
1111101111110010
1111100100010001
1111101111110110
0000001000010000
0000001010010100
1111111111011110
1111111011000001
0000011011011111
0000001111011001
0000001010001000
1111111101111100
0000000101100111
0000010001110011
1111110101111100
1111101110110110
0000000000100110
0000001111110100
1111101011001010
1111100111101000
0000011101110110
0000010111100010
1111101001001011
1111011111100100
1111101100000101
1111101100100010
1111110001110001
0000010100010001
0000000000011110
0000010100001000
0000011011110011
1111100100011100
1111111101110110
0000010101000110
0000010101011101
1111111100100010
0000011000111010
0000001000101101
1111111101100010
1111110001000001
0000010100101011
1111111110110000
1111100001011000
0000001000101011
1111111110100101
1111110011001101
0000001100011111
0000011101111111
0000000111110000
1111110100100111
1111101010011101
0000010011001011
0000100001000011
0000001101100101
0000011000001101
0000011011111111
0000010101000100
1111101101110110
0000010001111110
1111110111101101
0000001110110011
0000010100100001
0000001000001001
0000011010001010
0000011100110000
1111101010100110
1111111001010011
0000001110000101
0000001000101100
1111110010001101
1111110101111000
1111101000100111
0000010011001100
0000001110011000
1111101001111001
1111110001101011
0000000110100011
1111100100100110
0000011111101110
0000000010011100
0000001011001100
1111110100000011
0000010001110001
0000001001110010
1111101001100001
1111110100010110
1111100111111111
0000010110110101
1111100111110100
0000011000000000
1111100011111011
1111111110000011
0000011010011001
0000001010111101
0000010101110010
1111100100000011
1111111000110100
1111100001011011
