1111101100000000
0000011010000010
0000001101101000
0000010000000111
1111110011011100
1111100111010011
0000001000111001
0000100000110111
0000010011000110
1111011111111000
1111111110100001
1111110011001001
0000011010011011
0000000001010000
1111100110010100
0000011010001010
1111101011001100
0000010100001000
0000010111011011
0000011111011111
1111100010000101
1111111111101101
1111111001101111
0000011000010111
0000001010011011
0000010101001011
1111101111011100
0000011010100110
1111111101101110
0000000100100100
1111100100000100
1111100010001000
1111111101101111
0000011001010111
1111110101000101
0000001100110101
1111101001100101
0000011010111101
0000011111111110
1111101110010010
1111100000011001
1111110001011110
1111101101011101
1111101011100000
0000011111000100
1111110000110010
1111101111011110
0000001011111010
1111101000110100
0000010000000011
0000001110010111
1111101011111000
1111111110010110
0000011101001000
0000011000100101
1111110011001100
1111110101010100
1111111100111010
0000011000011111
0000010110100111
0000000000001100
1111101110011111
1111100001100001
1111101110001001
1111101011010010
1111110011000100
0000010000110110
0000011000100100
1111100100101111
0000011110000000
0000001000010101
1111111011000000
0000001101111110
1111110000110110
1111101001010101
0000010100000100
0000010100111100
0000001111011011
1111101010101010
1111101100101100
0000001110110011
0000010111100000
0000010101110100
0000011010100000
1111100101010000
1111011111011110
1111100111111011
0000000010111110
1111101010000011
0000011110001101
0000000111000100
1111110000100011
0000000110110111
0000011011111101
0000001001011101
1111100001010011
0000000011011010
1111110001101110
1111100000110000
0000010000000011
0000001101011011
1111101001110000
0000010101000010
0000001001110101
1111111101011111
0000011101010011
1111110101111111
0000011101000001
1111101010100100
0000010100100011
1111111100100000
1111101111010000
0000010001100100
0000001110110000
0000011101011001
0000000100010011
0000010100011001
0000000011001100
0000010001001000
1111111101111111
0000000101001101
1111100111001011
1111111010100101
0000011100110100
0000000011111110
1111110011001110
1111111010111001
1111111011110001
1111111100100001
0000001001000111
1111101110011101
0000000011011111
0000001100100100
1111110011001111
0000000001101111
1111101000110101
1111101110101000
0000011011111011
1111110101010001
1111100110100110
1111111110010010
1111011111111110
1111100011110100
0000100000001010
0000001001100100
0000011010100111
1111110000100011
1111111100110100
0000001011100001
1111111011111100
0000010110011010
1111111111000001
1111110011100111
0000000111010101
1111110011000011
0000010010111111
0000000101101011
0000001100100001
1111101000111011
0000000011111011
0000001010001111
1111100000100111
1111110110011101
1111101001001101
1111111011000111
1111100111000001
0000011010011011
0000000101101111
1111111100010100
1111110100100001
0000010000000001
0000000100010001
0000011110100001
1111110001001101
0000010100100000
0000001110101101
1111111111010100
0000000001100111
0000011010001011
0000011110001001
0000011110000110
0000010000110010
1111111011100100
1111101111100000
0000001010101001
0000011010100001
0000011110010101
1111101011011011
1111101000111000
1111101101001111
1111111100100011
1111100100110000
1111011111100010
1111110001011110
0000000011111001
1111110111010110
0000001000010001
0000000111100000
1111111000011101
0000010001111110
1111110001110010
0000011001000101
1111111101101011
0000001011000000
1111101110011100
1111111101001100
0000000000010001
1111101000110111
1111111001011010
1111101111000111
0000011111011010
1111101011100100
1111101001100100
0000011111000011
1111111100010011
0000000110111010
0000000000110001
1111111101011101
1111111000111000
0000010100101011
1111101001011011
0000001101101100
0000100000011100
1111100110010010
1111100010101010
1111111111001110
1111100110010111
1111110100101110
1111011110111111
1111101110000101
0000001101101000
0000011000011010
0000010111000110
1111101101100010
0000001010011001
0000001101111110
1111111001110010
1111101110010001
0000010011000001
0000011101100110
0000010100100111
1111110110011010
1111111111111101
0000001101111100
0000001011011111
0000001100010000
0000000101101100
1111110011100011
1111111100111000
1111101010101011
0000011111111100
0000001011100011
1111100001111111
0000001011110101
0000000110010100
0000100000100111
1111110001000001
0000001111000000
1111101100010110
0000011100110010
0000001010111001
1111101101000100
1111101001010110
0000011111100111
1111111010100000
0000000000101100
1111101001001011
0000000111001100
0000010101010001
0000011100101100
1111110111101111
1111101011101010
0000000010101010
0000001101011010
0000001001010011
0000000100101001
1111011111001011
1111110000001110
1111110100010000
1111100000011011
1111100010010011
1111110111010010
0000010000110101
0000000110001110
0000010000000001
0000010000000111
0000011111011001
0000001110000010
