1111100111011101
0000000000010010
1111101010000000
1111101000010000
0000010111001100
0000011000111100
1111110101101000
1111110110111101
1111101110111000
0000001010011010
0000010000110111
0000001110100100
0000011001101111
1111100001110011
0000000100001101
0000010011011110
1111100100101110
0000000001011101
1111100111000101
0000010000000110
0000011111000011
1111100000010110
0000010001110101
0000001000100101
0000000100010110
1111101110010110
1111101110111000
1111111111011100
1111111111101000
1111110100100100
1111100011100101
0000001010001001
0000010111110000
0000100000011111
1111111101100101
1111100011011000
1111111011110001
0000010010011010
1111111101101010
0000001100001000
1111111111010101
0000010110101011
0000001101010011
1111100011100000
1111101001100010
0000011001101011
0000010010001000
0000011000101111
0000001011111011
1111110000111001
0000001100010010
0000100000001010
1111101001001100
0000010010100011
1111011111000110
0000010111111001
0000100000001100
0000010101101000
0000011100110010
1111110010100100
0000010011111101
0000100001001101
0000001000010010
0000000100110101
1111101111111101
0000011101111010
1111011111010100
1111111111101001
0000010100000010
1111101001111100
0000001110010001
0000011001001110
0000000011011010
0000010001001000
0000011011101010
0000001011111011
1111100011011111
1111100001011100
0000000101101100
0000000101110111
0000010111010000
1111110101111110
0000010011000010
1111111011101011
0000001110001011
1111100101000010
1111011110110101
1111100000100010
0000010010010011
1111100001111000
1111100011000101
0000000111011000
1111111111011100
0000011011100010
0000000010101101
1111111111001100
0000011110001111
1111100010111001
1111100101111111
0000011111010000
1111111000000010
0000100000000111
0000011011011101
1111110011011001
1111110000100110
0000011101110101
0000011110101101
0000001010010110
1111011110110100
1111110110001010
1111101010110010
0000010001101001
0000011001000001
0000011100100011
1111111010010101
1111110110101100
0000001000010001
1111101100001101
1111101011001000
0000001011110001
0000000110010011
0000001111010111
1111110001001011
0000011010000000
0000010011001100
0000010110111011
0000010100101111
1111111010111110
0000000000001101
0000001000101001
0000000000101110
1111101000010011
0000000010000101
1111110110000010
0000011011000111
0000010110101100
0000001110101000
0000001110101000
0000001111110111
1111101110010100
1111100100000000
0000001101111110
1111101010111011
0000000101101100
0000011111100110
0000000111110001
0000011001100001
1111011111110010
1111011111100111
0000001011000111
1111011110101011
1111100111100000
1111100101100011
0000001010001010
0000001011011001
1111101001110011
1111101010000100
1111110001101001
0000000001011101
1111101001110110
0000011001010101
0000010110101110
1111101000101101
0000010111100011
1111110100110100
0000000110010000
0000000100001011
0000010100100100
0000010110001010
0000000010111000
1111110100011011
0000011100010111
1111110000110011
0000000011001010
0000000000011110
0000000010000100
1111110111110110
0000010001011110
1111101010110110
0000000010110101
1111111011010000
1111100001001010
1111110011110000
0000011100110111
0000010100000110
1111101011111011
0000001010010000
1111100110010101
0000011001001010
1111100100111010
0000010100111100
0000001000111110
0000100001000101
0000011000001100
0000010010111101
1111111100111101
0000011000000101
0000010101100011
1111111111101101
1111111000011101
1111100011010011
0000011110100111
1111100110111011
0000010000101111
0000001001001100
0000011001000001
0000000111000111
1111111101110011
1111110101001010
1111101100001001
0000001110000111
1111101001110001
0000011010100011
0000010011001101
0000011101110010
0000010100101110
0000001101111001
0000010110011000
1111100011011101
1111101111001000
0000011010010010
1111111000010110
1111110100001000
1111101111100110
0000000110110010
1111110000001000
1111011111110001
0000010010010100
0000011101101011
0000001101010110
1111101011000101
0000001001000011
0000011111010011
0000011101111110
1111101011000100
1111101101000100
1111110100011000
0000010000111011
1111100001101011
0000100000101000
0000001100011110
1111110111011111
0000000101101111
1111111001100111
0000001001101110
0000001000011010
1111100110011010
1111101011101011
1111111000111101
0000010000010010
1111101100100101
1111101010001110
1111110100100100
1111011111100010
1111101100001001
1111101110011010
1111100111100000
1111111010100010
1111110001111101
1111100011000000
0000001010100011
1111111111011010
0000011000111000
0000001110001011
0000000011101000
0000011100100111
1111110100010111
1111101100010110
1111101011101111
1111011111110001
0000001000100100
1111101111101000
1111100110000111
0000001110111100
0000010110100111
0000011110111100
0000011100110111
0000000001011000
0000011110000111
1111110100010101
1111101111000101
1111101000010010
1111110101110101
0000011000101011
1111110011011110
0000010010110110
1111100101010001
1111110001000101
