1111110100001111
0000100000011010
1111111001010000
1111101001010010
0000011111100110
1111101101000011
0000010010000001
1111100011111000
0000011110001110
1111111111110010
1111100010011001
0000001010000000
1111111110001111
0000000000111100
0000000101010110
1111110001111100
0000000111010100
1111111001011111
0000001111110010
1111110100101010
0000001110110100
0000000110001010
0000011100000110
1111100110101111
0000000100110100
1111100011001011
0000000010110110
1111101100110000
1111111110011100
1111110111011111
0000010101101010
1111110010000111
0000001101001001
0000011100001000
0000011100110001
0000011011010011
0000011110111101
0000011101010010
1111111100100000
0000000110001000
0000000100001001
0000010100000101
0000000110000010
0000011001100111
0000000101010111
0000001011011001
0000001010011100
1111101101111000
1111101001000110
1111110101011101
1111110100001101
1111111111000111
0000011001111100
1111101101011110
0000010101111011
0000000011000110
1111111000100000
0000010100000011
0000011011111000
1111101010010110
1111111000001011
0000011100001000
1111101000100000
1111111000011110
0000010100100101
1111111100001011
0000000111010000
0000001111010111
0000011110001010
1111100101001011
0000010000110100
0000011110000010
1111101111000110
0000011111000100
0000000101110011
1111111010100011
0000000000101000
0000100000111110
1111011110110110
1111111010011100
1111110100111100
0000011000100101
0000000100000100
0000001111011010
1111100000001010
1111101001010001
1111100110111011
0000010110111100
1111100000111001
1111100110001101
0000000110001010
1111111000101100
1111101101110111
1111111101101110
0000000000011010
0000011000001010
0000000010101101
1111100101011111
1111101011001001
0000011111000110
0000001000101011
1111101111010000
0000011001110000
1111110101010001
1111100110111101
1111111011111101
1111111101111000
1111101000001101
0000000111001100
1111100000111101
1111111010101100
0000011001010100
1111111011001001
1111111000011010
0000000100111110
1111100010010101
0000001001111010
0000011010001101
1111101110100010
1111110000110111
0000000101001111
0000010110100100
1111111111001111
0000000000111100
1111111100110010
0000010100100111
1111100000011010
0000011011001001
1111110100111110
1111110100111101
1111110110000000
1111100101010000
1111101000101010
1111110110001101
1111101001001101
1111011111011011
1111011111101110
0000001100001001
0000100000001101
0000010101001011
0000100000110000
0000000111010010
1111111100101110
0000010000100001
1111100111011010
1111111110110000
0000011101110010
1111101000110010
0000000110100110
0000010000000010
1111101101100101
0000010101001101
1111110110101011
1111101010010110
1111101100111110
1111110101111110
0000010011011111
1111111111010001
1111101111001111
0000001110001000
1111101011111001
0000001101001001
1111100111110100
1111100111010110
1111011111100100
1111111000000100
1111111101100011
0000000111010001
0000001010000010
0000001100101100
0000010101101101
0000000010101001
0000000001011011
1111110000111100
1111110011110000
1111110001001001
0000100000001001
0000010100111111
1111110011100111
1111110000111001
1111100101001001
1111101100111001
0000010110111000
1111110010100011
1111111100011101
0000010011111111
1111101001110000
0000010101001011
0000010000010001
1111111011010110
0000000101000001
0000001011001111
1111100111110111
0000001010010000
1111110111010000
0000011010111010
0000000001110101
0000011111100001
1111111000001011
0000000111000100
0000001101100010
0000010011010000
0000010100010101
0000011111010001
0000001000000010
0000010001011100
1111110010101011
1111100101001000
0000001000101001
1111101000101010
1111100011010011
0000000000111100
0000000101100110
1111100101000000
0000010011110010
0000001100101011
1111011110101101
1111100001000101
0000011111001001
0000011111000010
0000000001100100
0000011110101010
0000011111101001
0000001001101000
0000001001101011
0000010001001000
1111111111100000
0000100001000101
0000011001001011
1111110010000010
1111101001110001
0000001110100001
1111101001110100
0000000010010100
0000000111001110
0000000011110101
0000010111011110
1111100001111100
1111101100011100
0000010011111000
1111101001111110
1111110110100101
0000011100001011
0000010100011100
1111100101011000
1111110001110001
1111110001101010
0000100000001101
0000010000100011
1111101101001100
0000010011011111
0000001011111001
0000010011110111
0000001010001110
1111110001111110
1111111001101110
0000011101110010
0000011101011011
0000000110011001
0000000011010000
1111101001101101
0000011011011000
1111100101101100
1111110010011011
1111011111001110
1111100010101010
1111110100101110
0000000101110110
1111111010111111
1111111111001000
1111011111000101
0000011011011110
1111100101111000
1111100101101001
0000011101010110
0000000100010110
1111101010011001
0000000001011101
1111011111110011
0000000110101110
0000001011001011
0000010100001110
0000010110100010
0000001010100010
1111101011010111
1111101101011100
1111101100000100
1111110110110110
