1111001110110101
0000010000001010
1111111100101001
1111110001010101
1111011000011100
1111011011010100
0000101001010000
0000101111100001
0000010000111011
1111101011100110
1111100111010001
0000011000000011
1111100110001010
0000001100101101
1111001000010100
0000100010011110
1111110110011111
0000011001111110
1111001101010101
0000100000000100
1111010110100100
0000010111111010
0000111110001000
1111100101101101
1111110111001110
0000000000010000
0000100111101111
0000101100010011
1111011000000111
0000010111011011
1111010101011111
0000001101000110
1111111100100011
0000110011100111
1111010001000010
1111101100010111
0000101010110100
1111111111010010
1111000101101001
1111100101101100
1111101101101011
1111110101111010
0000000110000001
1111110000110010
0000011011011110
1111111011010011
1111000101100011
1111011111000111
0000100001000110
0000111001100000
0000111110011011
1111000100010111
1111010010011000
0000000001000111
0000101000110000
1111011111110110
1111000001111111
0000011111101110
0000101001011011
0000001011011100
0000001010110101
0000101101100101
1111010011010001
0000010100101011
