1111100000011111
1111000001101101
1111001010101000
1111011100111111
0000000010101010
0000001101000011
0000001011010000
0000011010011100
0000111001101001
1111000011010001
1111100011001110
0000010010111111
1111001110001000
0000000100110010
0000001110101000
0000100010010011
1111100010000011
0000010100111101
0000101111011000
1111011010000001
1111011010110011
1111001010101011
1111110110001101
0000110101111110
0000101101100001
1111000000100101
0000001010011010
0000110111011100
1111110010011001
1111001001101100
0000011011011011
0000100100100100
0000111011001110
1111011100111001
0000011100101101
0000000100110000
0000010001011000
0000011010101101
1111001010000101
1111100011100010
0000110111100100
0000011110100100
0000011101001001
0000110011110000
1111010100001101
1111101111011001
1111101011101110
0000100101100110
1111001110100011
0000111000101111
0000111001100101
1111100000000000
1111000000011100
1111010100110101
1111110110011011
1111000111011010
0000100010010010
0000111100110010
0000001100001101
1111101010011000
0000000111101011
1111100111111110
0000001100000010
1111110000010001
