1111010010010000
1111111100110000
1111110110001100
1111101101010001
1111001001001101
0000001001000011
1111011001011111
0000111101111111
1111000101110101
0000111110111110
0000100111001011
1111110001000101
0000100010101101
0000000101101110
1111101101100011
1111010001010011
0000100010100011
0000110011100101
0000110010111101
0000010000110001
0000100011011110
1111111010110010
0000001111000011
0000111010110101
1111100101110101
0000011111000110
1111011100010000
1111101111011001
1111000110001010
0000101110000110
1111101011000110
1111000101110000
0000110110010011
0000011011000111
0000000010110101
1111101110001010
0000010001100011
1111011010101100
1111011010011111
0000110000000011
1111010011100101
0000010101011011
1111101011110011
1111111001100111
0000110101000000
1111001101101010
1111111101010011
1111110101101100
0000100100000101
0000101110010010
1111011100001100
1111101001001001
0000000101110010
0000001111100101
0000001110111100
1111111010001001
1111100110111101
0000111011011011
0000110110001001
0000011110010001
1111100001100001
0000000100100000
0000010100011011
1111100001010110
