1111111110111001
0000011100100000
1111110111001001
0000011111100110
0000011011101010
0000001100100010
0000000100101000
1111100000010010
0000100011000100
1111010111100000
0000001011101011
1111100010100011
1111100101101101
1111000000101100
0000001101100001
1111110110011010
1111001101100001
1111111000100100
1111111110011110
0000101010101111
1111110000100000
0000101010001010
1111100110111110
1111011000100111
1111001110010010
0000100100000001
1111010011101011
0000101001001011
0000001011000010
1111011010111111
0000101100010011
1111011110011010
1111101101111101
0000001010000011
1111101101100000
0000111011110101
0000101001011010
1111101001101101
0000100000100011
0000110111001100
1111110000111001
1111010100011110
1111010000111100
0000100111111000
1111101000110000
1111100011101111
1111001100110010
0000011111111010
0000100111011001
1111111000111100
0000000011010001
1111111011100110
1111011111010100
1111110101111011
1111010001000001
0000110001101101
1111000010001111
1111100111101000
1111001010100100
1111000010100011
1111010000111100
0000010010111011
0000000010111000
0000000010010010
