0000000111111100
0000110001101100
1111100100111101
1111000101010010
1111011100110110
0000101111000111
1111100101001101
0000001110010100
0000000111001101
0000001010100001
0000001011101100
1111101000111001
0000010110100010
1111111111110100
0000111011100111
0000001010110000
0000110011110011
0000000010010000
0000111011010101
1111010100111111
1111100010111001
0000000111001000
1111001110100000
1111011110010000
1111001011000110
1111111101100010
1111100011101001
0000000000011000
1111010010101001
1111100001111111
1111100010110101
1111101010101010
1111010110101110
0000111101111010
1111011111000000
1111000100011101
1111000100001001
1111010010000000
1111110010010101
1111101000011000
0000011100000100
1111100111011101
0000111001110110
1111100110011110
1111001100100111
1111101010110010
0000001000111100
0000100011010101
0000101000101011
0000000001111110
0000010111101100
0000011000111111
1111101101101010
0000011101010011
1111100001111011
1111010111010111
1111101111111010
1111011000010011
1111001111010001
0000111111010001
1111111100101111
1111110000110100
0000000111110111
1111000101101001
