0000100110100001
0000100010110010
1111001111111000
1111100010011110
1111110100001100
1111010100010010
0000101010110101
1111110010101100
0000001011000011
0000111010111111
0000000111111000
0000101110010101
1111010000111100
0000100000010001
0000111111111100
0000011000011111
0000000101111100
0000100011101001
1111100110001000
1111000000010010
0000100011100011
1111001110101000
1111001110100011
0000111110101100
1111011000011100
1111110111100111
1111010010101101
1111110000011100
0000101000100101
0000111100101011
1111111011011011
1111001011110010
0000010001111110
0000111111010000
0000101000010011
1111001011110101
1111000001011011
0000100111010000
1111111001010000
0000111110001001
0000001111101100
0000111101001011
1111100101000110
1111100011101110
1111100101110100
0000110110110110
0000110110011011
0000110011111111
0000010011010111
0000100100001101
0000000011011100
0000010110111001
1111111100110110
1111111001101010
0000010110100100
0000000001001001
0000111010100000
0000100111011001
1111001000011110
1111100000101010
0000001011011100
0000010001001110
0000001101001100
1111110100010010
