0000010111111100
1111100100110011
0000011101010100
0000111011111010
1111101011011100
0000010110111110
0000101110110010
1111010100011101
0000010000010101
1111001001010101
0000011100011100
0000011101001111
1111101001010011
0000111000011100
1111000001111001
0000110100100000
1111000111011010
1111010110001101
0000101000101000
0000101110011110
0000110011011101
0000000101011011
0000010110101010
0000011010101111
0000101010101101
0000011111110110
0000110001101001
0000111111100001
1111100111101000
0000000011101010
1111111101111001
1111101101010101
1111110001101100
0000101110011111
1111111000111001
1111010000001010
0000101111100010
1111000000101100
1111100011110001
1111001000010110
0000101101011001
1111001100011001
0000011000011110
1111110010110100
0000000011111001
0000001100010011
0000000100100001
1111110101011011
0000101111101101
1111011001010100
1111001011011111
1111010011010011
0000000100110010
1111101001001001
1111101000011111
1111110000011001
1111011001011110
0000001001100100
1111001001101111
1111000110001101
1111000101001100
1111001001100011
1111010001011110
1111000000101011
