1111101111000001
0000000000100000
0000110010110011
0000101110000001
0000101101100110
1110111111111010
1110101011101010
0000001101110000
1111110000011011
1111100001011110
1111000111011111
0000011001011100
1111111111100110
0001010100100100
0001011010011111
0001010101011000
0001000101101000
1111110100111001
1111010001110101
0000100111001110
0001010001110110
0000111110001111
0000011110000110
0001000011110101
0000101011000000
0000100110010010
0000001001111011
1111101011000110
0001010010111010
0000110111111000
1110101011000110
1110100001100000
