0000101010010111
1111100111010001
0000101001000110
0001001111101001
1111011110010000
1111100110111011
1111000001111001
1111000110111101
1111010010010011
0001010111101100
0001001110100011
1111000101010011
1111101001011111
1111101110010110
0000000111011111
1111111001101001
0000111111101111
0000010101000010
1110111010110011
0001010001100010
1110100111011010
0001010010001011
1110100101101010
0000001101111101
0000100101000010
0001010100011011
1111101110101110
0000110011011111
1111010100000100
0001000010011000
0000011101011101
0000111001001011
