1111011111000001
0000010110101001
1111100100011101
0000100111111001
0000100001011001
0000110100000011
1111010110001101
0000110011000100
0001001001101101
0000110011000000
1111001111001110
0001010100110111
1110110010010011
0000111110100110
1111010100111110
1111010010101101
1111010010000100
0000010101011101
1111001011001111
1111001101100001
1110100001100000
1110100101100001
0000011001011000
0000110000000010
1110100111100101
1110101001001111
1111111001001110
1111000011001101
0000001011101011
1111011011110110
1111101000000011
1111100100011011
