0000110000000001
0000010001001111
0000110011011011
1111010000111011
1111000111111111
0000100011000000
0000100010111100
0000011011110000
0000011110110100
0000010100010000
1111011101011001
0000011100100100
0000110011000000
0000101110111100
0000010101110111
0000100110010100
0000010010001000
1111100110101011
1111111011010000
0000001111010111
1111010111110101
0000000101001010
0000010000001101
0000010010110010
1111010000010000
