0000001111010010
0000000001000111
1111011101010101
1111011001010000
0000101010100001
1111110110001001
1111011101000100
0000011101010010
1111100001010111
0000001011000110
1111111011111001
0000001000111100
1111011111100111
1111100110101101
0000001010111111
0000001011000110
0000011010001000
1111110010000110
1111100011101011
0000011010001001
0000110011000010
0000000001111000
0000100011010010
1111010101001110
1111100111111100
