0000100100101100
0000100000010011
1111010001100000
0000010101101110
1111011000111100
0000010111010110
1111111110010011
1111011000111101
1111100100000101
1111110011101011
1111010110011011
1111111101110000
0000011110100001
0000101111000101
1111101000000110
1111101101001010
0000001100011011
1111111101000101
0000100011111001
0000011100101011
1111110101101111
0000001010010001
0000001101000010
1111110011110010
1111011111000100
