0000000101010000
1111110001100101
0000000100000110
0000011111101111
0000110101001011
1111010110010111
1111111011011001
1111011010010000
1111101100001001
1111011100010101
0000100111111110
1111101111111011
1111110111001000
1111101100100001
1111010010110001
0000011110011100
1111111000000011
1111110100100010
0000101000001001
0000010111000000
0000100110101101
0000011010100001
1111011011011100
0000110011000001
0000001010000011
