0000000000001100
0000001100100100
0000011000011011
1111110011101101
1111011011010010
0000001000101111
1111010011011000
1111111001111111
0000110000001001
1111011110001001
0000010001101110
0000001110010100
1111111011100100
0000010110000001
1111011010101110
0000101110110000
0000010011110111
0000011111010010
0000100001010100
1111010110011001
0000010110101001
1111100101001001
0000011010001001
1111010111011000
0000101101001110
