1111011111000111
1111001100011111
0000101100010111
0000011111101000
0000110111001001
1111110011001011
0000001110101110
0000100111101000
1111100000001000
1111111001110011
1111010011110100
1111010110011001
1111001110000011
0000011010001100
1111101100000110
0000110101101010
1111101001001000
0000001001011100
0000011010011101
0000100111101100
1111010011011101
1111110101011110
0000001000001110
0000011101100010
1111010111100111
