1111100111100100
1111100011001101
1111011101010101
1111100011100110
1111011000110000
0000100111111100
1111101001100010
0000011011001010
0000000011011110
1111100011001010
0000110011110010
1111111111110000
0000011000011110
1111011111101110
1111100000111000
1111010000000100
1111101011101010
1111101100011101
0000100100001110
1111100001110000
1111100111111111
0000110010110111
1111101010111101
1111010101111101
1111010100001110
