0000001010111101
1111001001010000
0000010111001010
0000101110000001
0000011001001000
1111010001111111
0000000110111110
0000110000111001
0000010100011000
0000101000101011
1111100000001010
0000010001100011
1111010111001011
0000110000110101
0000001001011010
0000010000001010
1111100111110010
1111111010100000
1111100111111001
0000100000100010
1111011110010111
0000011111011111
0000011100001101
1111110011001111
1111110111111001
