1111111111010101
1111011100001000
1111110110100010
1111111000110011
1111111111001111
1111001110101010
1111101001110100
0000101001011011
0000101111111011
1111111101001000
0000011001000000
0000001001101111
1111001111110110
1111100010100100
1111111111110100
0000100111011100
0000010011100000
0000110000100111
0000011011000110
0000111001110110
0000100010001001
1111110000001010
0000100011000100
0000000010001111
1111010010110100
