1111100110100000
1111011011011101
0000010010010010
1111111111111111
1111110000010000
0000000100111010
1111101110010010
1111100100110111
0000101111001010
1111100110100110
0000101010101000
1111011110010100
0000001010111100
0000100011110101
0000101001101001
0000010010000111
0000100010111100
0000001110111011
1111001101110110
1111101100010011
0000101111011011
0000101101011011
0000010000101101
1111011111110010
0000101000010100
