0000001100011110
0000101111111000
1111101011011110
0000100001010101
0000001101111111
1111101001110110
0000101100000111
1111001110111010
0000110001011100
1111101111010101
0000100010001011
0000010111000001
0000010000110011
0000000101111111
0000000111001110
0000011110011110
0000001011110011
1111100001110000
1111100110011110
1111001101100100
1111110101011101
1111001111001110
1111011010010100
1111011011101110
1111110001001001
