1111010000100111
0000000011100100
0000010000100011
1111011001111010
1111101011001001
0000100001101101
0000001000110111
1111101101110100
0000001001001001
0000001001001110
1111011001100101
0000010100000100
1111110100000110
1111111101101101
0000010000001100
1111001100011101
1111110010000010
0000100001101011
1111011101110110
0000011100111010
1111011000010101
1111010001111001
0000011000100011
0000010100100010
1111010011000011
