1111010001101100
0000011101101010
1111101010000111
1111011101100110
0000101111101011
0000001111101010
0000110001001001
0000110001100110
0000100101111010
0000011011011000
1111101110000000
1111010110101011
0000001101000011
1111100101111000
0000001001011010
1111111100011001
1111011011011011
0000000010100111
0000100101011011
1111100001011010
0000010101010010
1111010011110110
0000000011001110
1111100110000000
0000100001000011
