1111100010000100
0000000000100010
0000001010010100
0000100001001000
0000110010001111
1111010110001101
0000001110100011
0000100110010101
0000001110000100
0000010111100111
1111101110010000
0000011101001111
0000011000101011
0000110110110111
0000101000010011
1111111001000110
1111101000111101
1111110000010111
1111010111011010
1111011001100110
0000100000000001
0000101100010110
1111110000010100
0000101111101111
1111111011101101
