1111100100011000
0000101100101010
1111111100010001
0000110011100001
1111100110110110
0000101101001000
0000100001010101
1111100101111011
1111110001011000
0000011111011101
0000100011101111
1111011110100010
1111011010101100
1111010001011010
1111101101110101
0000101101001010
1111010011001101
1111101001000000
0000100101111100
0000011100100000
0000101001100011
0000010101000110
1111101111110011
0000011101000111
1111010010101011
