1111011111110001
0000011011100100
1111100011000111
0000110011110001
1111001010100011
0000010110110101
1111100001000100
1111011000001001
1111010011111011
1111001111000001
1111101110100010
0000001100011000
1111010111110101
0000110101011001
1111100101000111
1111110100000101
0000100100101110
0000010011011101
1111100011100100
1111111101110101
0000000101110000
1111100101011111
1111101001100001
0000000100000011
0000011010100111
