1111100101110001
1111110011001100
0000000101000010
0000101010001001
1111101001001100
1111101010011101
1111111111001101
0000110001011001
0000001101110010
0000101000110110
0000000111000111
1111010101010001
1111110001110110
0000101110111000
1111010011111001
1111010111001111
0000010110011101
1111111110001011
0000010000010101
1111010001001100
0000101011000100
1111101101100110
1111010111001011
1111101011000111
1111011110010110
