1111100111101010
1111110100001001
0000000010011001
0000101001100110
0000101010011010
1111001111100000
1111011010001110
1111010110111011
1111100010101000
0000101100100010
1111110101000011
0000110000010001
0000110100001001
1111100000010001
1111110111100000
0000001111001111
1111111000100001
0000011111101000
1111110010011111
1111010011111000
1111011101001000
0000010001010011
1111100111000010
0000001111100011
0000000110111101
