1111110010111000
0000010000011001
0000001110001100
0000011010100011
1111111101010110
1111011010111010
1111011111010000
1111111111110001
0000100000001100
1111111010011110
1111101000111111
0000101000101011
0000000011111000
0000011100000011
0000011100110000
1111110101011111
1111011111111110
0000100101111100
1111110010110110
0000000100110010
0000110000011100
0000100101110011
0000011101111111
1111010111110000
1111010011111101
