1111100110001110
0000011001010101
1111011111101010
0000110111111110
0000010110001101
1111010000101010
1111101110010010
0000110110010010
1111100010011101
1111100110001011
0000101101110100
1111011101111110
1111101100100101
0000100011101011
0000010011000010
0000101110000101
0000001101010101
0000011011110101
1111011101011100
1111001110000000
0000001011001001
0000101000100101
0000001010000011
0000010010100000
1111100010110000
