1111100101011010
1111101110011001
1111100111011001
0000110010011000
0000001000000111
1111101110010010
0000101010010010
0000110000001011
0000010101100011
0000110100100011
1111101001000101
1111110111010111
1111101100010010
1111010001010111
1111110000101110
1111011100001000
1111111000010011
0000101111111011
0000110000111010
0000001101000010
0000001100110011
0000011001001001
1111100000001011
1111110001011001
0000101110001101
