0000101100100011
1111101101111011
1111110110010101
1111110100011111
1111110111100011
0000000001111110
1111111010111100
1111011011100110
0000100011101101
0000011001010111
0000101100110000
0000010001000010
0000001001111110
1111101110001111
0000000111010000
0000101011111110
0000000101011111
1111110111011100
0000001100011001
1111011010100011
1111101011001101
0000010000011110
1111100101011111
1111011100010100
0000101110111011
