0000100000111000
1111100101110010
0000010110001010
0000100111111101
1111010110001001
1111110000011110
1111111101000011
1111110010011101
0000100001110001
1111001110100101
0000110010001011
0000000001110111
0000001100111010
1111111100100001
1111011000100101
0000001001110111
0000001110100011
1111010010010011
1111111100111000
0000010100101010
0000010110010010
0000101010000100
0000011111010001
0000110100110111
1111101100001000
