1111101101111001
1111110101010001
1111010101111111
1111001101011001
1111101100011110
0000101001101101
1111100001000001
0000010110001000
1111110000110100
0000101011110010
0000001001101111
1111011011101010
0000011110010001
0000011000000000
1111111101110100
1111011110010110
1111111000011011
0000011110101000
0000101001111010
1111111000111100
0000010001011000
0000011000111001
1111111011000001
1111111111010011
1111010011101000
