0000000111111001
0000000010011111
1111100011011110
1111100011100111
0000100100000101
0000011010001101
0000001110111011
1111110101001100
1111100011011100
0000010100010001
1111011100111001
1111110100111011
1111100101100011
0000101100011010
0000001000010000
0000101001110011
0000010100000101
0000001111000011
0000000100001101
1111010111100001
0000100011001110
0000010111001000
0000110100000101
1111101001011100
0000001011100110
