1111100011001001
1111101100101011
1111010110000001
0000100100001011
1111101000100000
1111011010100010
1111011100110000
0000011011110001
0000001100010011
1111110001110001
0000100000101010
1111010111111111
1111011110000101
1111110100010101
0000100001000111
1111010000001001
0000010101001001
1111011010000011
1111011101000101
0000010001100011
0000010100101001
0000011101011000
1111010111010100
1111100010001000
0000000010010101
1111100110000000
0000000110100100
1111111110110011
0000001111010000
1111100000010110
1111001011100100
0000001001101110
0000100110110101
1111110101110000
0000011010000101
0000101000010101
0000100001011100
0000011100001111
1111011110100111
1111110110110001
0000010101110101
1111110101011000
0000000111111100
0000001011111010
0000000001010111
0000011001000110
0000100010010111
0000000100011001
0000010011001010
0000100101010001
1111111011010110
0000010011001010
1111111101110101
1111011010111011
0000010000101000
0000010010010010
1111101011110100
0000010001000011
0000011100000110
0000001100111101
1111011010100011
1111101000011011
1111011000000110
0000001110010011
0000100111100001
0000010011011000
1111100100100110
0000010011010100
0000000011110011
1111011010000100
1111111001011110
0000000101111010
0000001011010000
1111111110000011
0000100010010011
1111110010010000
0000000000001010
1111110101000011
1111100011001001
1111011111110010
1111011100100110
1111010100010111
1111100000100001
0000001111101100
1111011000100000
1111101010101001
1111100000100011
0000001100011011
1111010000100001
0000010001011000
1111011100001100
0000000110010111
0000001110110111
1111011111101100
1111111101101111
1111101000000111
1111010110100101
1111111100001011
1111100001101000
0000001110000011
0000100010100111
0000001001110011
1111110001111101
1111011000001101
1111001101010000
0000010101001000
0000000100111010
0000000100101010
1111100100101000
1111011000111100
1111110001000101
1111110011011101
1111110100000111
1111111100011110
1111101011010011
0000000111000111
1111101110110011
1111110111010000
0000100001100011
1111011110101001
0000011000010101
0000010100111010
1111110010101101
0000001101111111
1111110100000001
0000001100001000
0000011000000000
0000100010111111
