0000101101001101
0000100111100100
1111011110001101
0000000101001111
1111101111100110
0000010011001100
1111111010001001
0000000100110111
0000010101111001
1111011111011011
1111110111011011
1111100111100000
1111100110010000
0000000100111110
0000001110000100
0000001110110010
0000001001010000
0000001101001011
1111111001010110
0000101011101001
0000100110111100
0000100000011111
1111110011100110
1111100010001000
0000011010100111
1111110100001100
0000010110010000
0000001100000110
0000011111000101
1111111111000110
1111100100111000
1111110100101101
1111100111010100
0000001110001001
1111100000111000
1111110001010000
0000100000000001
0000101101111000
0000100110101110
1111100001001110
1111011101111101
1111110010011111
0000100010110001
0000110000010000
0000000000111001
1111111100110001
0000100111111111
0000100101111111
1111011001010100
0000011010111010
1111100010001110
1111010010101010
0000101011111010
1111110101001001
0000011100100111
0000001001001110
0000101010000011
1111110001101111
0000001000001110
1111110010111000
0000010011100000
0000000101001000
1111100011110000
1111110000000011
1111100000110011
1111011001011111
1111111001110010
0000001111101110
0000001010100011
0000000011110011
1111101000101110
1111111000010101
1111111001101110
0000100010001001
1111110110000100
1111111100101000
0000001110101110
1111100001000100
0000010010000110
0000010100000111
1111101101011011
0000010011001001
1111011101001010
0000110110000100
1111110111000110
1111100001000101
0000101010000100
0000010011010111
0000101101101101
1111101111011101
0000010100111011
1111011111100001
0000010001011111
0000000000011010
1111100110000100
1111111101110111
0000001110010110
0000011111111111
0000010011001001
1111010110100101
0000010001110101
0000010011001101
1111101011100011
1111111000111000
1111100000010000
1111111100111001
1111101011011011
0000001111011000
1111100100100110
1111110010100111
0000000111110100
1111100000000100
1111010111001000
0000001011111101
0000011101000110
1111010110010111
0000010010010010
1111110111101011
1111110111011000
1111111101100001
0000000001010101
0000011101001011
0000100010010010
0000010010001110
1111101111110110
1111101111110001
0000000100011010
1111110001000110
