0000100000111100
1111010011001010
0000100111001100
0000001101111010
0000011101000101
1111100001010000
0000010010101001
0000100001110001
1111011100001101
0000001000100011
0000000110110010
0000100010100011
0000101010010111
0000000111100101
0000100101111010
1111110000000010
0000100110111100
1111101011100110
1111110111000111
1111101010110011
1111110111100000
0000000101000110
1111010010101101
1111011100101101
1111001111011111
0000101000000101
0000001010110011
1111010010000111
0000001110010010
0000000110101010
1111010110101111
0000000110011111
0000001110010010
0000100001110100
0000001101110000
0000101010100000
1111100011011001
1111100110010111
0000010000100111
0000001000000111
1111100000010001
0000101100100010
1111011001110010
0000100000010111
1111110000000110
1111111000010001
0000101100100111
0000100010111111
0000010110110100
0000100100101010
0000011111101010
0000101011001110
0000001011100101
1111111001010011
0000000110100001
0000000010101001
1111110110011110
1111110110000001
1111101001001001
1111101001111111
1111011001000010
1111100101100110
1111101111011110
1111100101100101
0000000111000011
0000100001100001
1111010100111100
0000010011011001
1111100111111100
0000001101101100
0000100011010011
1111111100110110
0000100000101100
1111111110010111
1111100111010101
1111100011011110
1111011001001100
0000001001101010
1111011010111101
0000001001111000
0000011100011001
1111111110000001
1111110001101110
1111100000001101
0000100100101010
1111100110011001
0000001001101001
1111011001010111
1111011010110101
1111100111011001
1111010111100110
1111101010000010
0000010000100100
0000100100100001
1111100100001000
0000100010111001
1111100100110011
0000001111011101
1111110100110101
1111101010111000
1111111010010000
1111100111000001
1111100001000011
1111101011100100
0000000100111011
1111100110100110
1111101101110100
0000010010110000
0000011000000011
1111111000100101
0000101101100011
1111111101000000
0000001100100010
1111110000001101
0000011110011101
1111101111011001
1111010101111110
0000011011001101
1111101000110101
0000010100000100
0000001110101011
1111100010000111
0000000101000000
0000001011001000
1111011010010010
1111101100000001
0000011001100101
0000011101110011
