1111100011111101
1111100101000011
0000011110101011
1111100100111110
0000000101010010
0000010010010000
0000000010000101
0000010110001100
0000010100001001
1111110000101101
1111111111100001
0000011100111101
0000010001100100
1111011110110000
0000011011100001
1111100010101111
0000001001100101
1111011111011010
0000000001001000
1111100011010101
1111011010010000
0000001000000101
1111111010111110
0000000110001001
1111101010101011
1111101011011100
1111011100100100
1111001011001110
1111100000001001
1111110010110111
1111111100111111
1111100010111100
0000101000010101
1111100000011000
1111101001111110
1111010101100000
1111011111110010
1111101100010010
1111101100000001
1111111010110110
0000100100101100
0000011101101100
0000001001001000
1111110001011110
0000001000000001
1111001110101111
1111101011000111
1111011001101101
0000001011111000
0000011111000001
1111101000000010
0000001010011110
1111100101010000
0000001000110111
1111111111011111
0000001001100111
1111011110000010
1111101100000000
1111011111000011
0000001011011100
1111101010000010
0000001011111111
1111101000110110
0000100000001011
1111101110110011
1111101001110100
1111101100100010
0000101011001110
1111110101000111
0000100011011001
1111011110100011
1111101110010000
0000100100111011
0000000011101101
1111111010010111
1111101000110111
0000001011110001
0000100010000110
0000000000010110
1111100000010000
0000000000110011
0000010111010111
0000001001001001
0000100110001001
0000001010110100
1111111100100101
1111111111110100
0000010011000001
1111011101000101
1111001110010101
0000001001110001
1111110110111100
1111001101111110
0000100000111100
1111011011101111
1111110110010011
1111101011101110
0000010111001111
1111011100110001
0000011101001010
1111101011011100
0000011010110010
1111110101110010
0000011011011011
1111011011101101
0000100011110001
1111011011001010
1111110010011011
0000000011000111
0000000010100000
0000000001000001
1111011001011101
0000011110101100
1111001101111110
0000000010110111
0000011000101111
0000100110111011
0000000001001001
0000101010001111
0000011011001111
1111110111001011
0000001011011010
1111100100010010
1111110110111111
0000001100100001
1111111100111101
0000100100110110
1111011110001111
