1111110001010001
0000000000011000
0000010011111100
0000100011000110
0000001101011111
0000011000101011
1111110011011011
1111111001110100
0000001111010001
0000101001010111
1111101010100101
0000000001011100
0000100011000001
1111111101110100
1111100000010010
0000010011111100
1111111001100001
1111010111110101
1111110100110110
0000000001101001
0000011111010010
1111101001110101
0000001101011101
0000100001000001
1111010110011101
1111100001010011
1111011100100000
0000010001011110
0000001100110110
1111110001000000
0000100111000010
1111101011001110
0000100100111000
0000010100100101
0000001001010110
1111011110100100
0000001100100011
1111101111110010
1111110101001011
0000010101101000
1111010101000101
0000000000111100
1111101101000101
0000010011101101
0000001101000111
0000010110011111
1111111011110101
1111011001000111
0000010101101010
0000100001100000
0000100101010000
1111010100001110
1111011011101010
1111100001011000
1111010101111111
0000010000100010
1111111100000010
0000010011111101
0000100011011100
1111011010111001
1111110100100101
1111010010111111
0000001100110011
0000100011100111
1111010111100010
1111100010111010
0000100001001100
1111100000011100
1111010010000001
0000000110011101
1111111000011000
0000100100010001
0000010010011000
1111110101011000
1111110010111011
1111101011000011
0000100001100100
1111010111010101
0000001001110010
0000011110010011
0000100010001101
1111011000101001
1111010100110001
1111100110111101
0000001001100110
1111011001001010
1111101111010101
0000010000000111
0000000110101111
0000100110101010
0000100100001000
1111100011101001
1111101100011001
1111111011001010
1111101011101001
0000100110010011
0000100000111101
0000011001100101
0000101010000110
0000010001111111
1111111010010010
1111100100010110
0000010010010101
1111101110001001
1111111101010100
1111011000101000
0000000100111000
1111100000001110
1111011110101100
1111111101110110
1111100110111111
0000000101111000
0000000010001011
1111010100000101
0000011000110111
0000010001101101
0000000110100010
1111111000101001
0000011101100011
1111111110011001
0000000100101111
0000010101010000
0000010010010001
0000001101001001
1111101111110011
0000010110010110
1111101111001110
0000000111101110
