1111100100011000
1111110001110101
0000010110101010
0000101010111111
1111110110100101
0000001100110111
1111011110000011
1111111100011000
0000100100111100
1111111101111111
1111111101000111
1111100100000100
1111010001101010
1111110010111000
1111011011110001
0000010110010101
1111111011000010
0000000110001101
0000010010001011
1111101111011111
1111101101000101
1111010000010000
0000000101001011
1111100001001111
1111110011111101
1111111010101000
1111101111011011
1111110101100100
0000011100000010
0000010000000110
0000000110000110
1111011001010001
0000100111110010
0000000101011110
1111100100011100
1111110011111011
1111101101010111
1111010010010111
0000100100110011
0000001000101111
1111111111110101
1111001100000101
0000011000111100
1111011110010010
0000011000101001
1111111110111101
1111101001001101
0000011110001010
1111110100001001
0000000010101011
0000000101110110
0000001100110110
1111111111101011
0000000101101100
1111011111111011
0000001001001110
0000010010101110
1111111100111111
1111100000000001
0000010100110110
0000001010111110
1111110010010010
0000100001101111
0000010110010111
1111110100000000
0000010111000011
1111110010101100
1111110010111110
1111011010110011
0000010001010111
1111011110101110
0000101011001100
1111100100100100
0000010010110101
0000010001110100
1111110111111010
1111011010000111
0000011101011010
0000011001111101
0000000101001001
1111101011110000
1111111000001011
0000010010110110
1111111001001011
0000001111010110
1111110110101000
1111110001100101
1111111000101110
0000010111111110
0000011000010001
1111010011101110
1111111000001110
0000001001101000
0000011010000000
1111100011001001
0000000011101110
0000001011111111
1111101101100010
0000100110001010
1111110011000100
1111100010000000
0000011001110000
0000001011011100
0000000101010101
0000010011000001
1111010110111010
1111111101001100
1111010011100110
0000100110001010
0000100011011111
1111111110010000
0000100101111001
1111011111001000
0000100011011001
0000011110101011
1111101000111001
0000011101011100
0000011000110100
1111111010111111
1111101001100100
1111010111010000
1111110110111111
0000000111001011
0000000000001001
1111110011001010
1111001111001110
0000001101111100
0000000000011101
