1111110100100000
0000001110100111
1111111101110010
0000100011011101
0000001100000011
1111010001011101
0000001110101001
1111010010110000
0000100011101000
1111010000101101
1111011010110110
0000010100011011
1111111010010111
0000010100010010
0000010100100000
0000010001001001
0000010110101101
0000011010101010
1111011101010110
0000010100111010
0000001111000011
1111100110110011
0000011101011010
0000001001010111
0000100111011101
1111100111011000
1111111100100101
1111111100010100
1111100101011111
1111100010111010
0000101011000111
0000101010001110
0000011111000010
0000001011100000
1111110111101011
0000101000010010
1111101111001011
0000101001011000
0000001000100100
1111101011010111
0000100000101111
0000000110010100
1111110110111111
0000100001010100
1111111111110000
1111100000011000
0000100110001101
1111010110110101
1111110100110010
0000011000000011
1111110000010011
1111101110110010
1111110110101010
1111010011101110
0000100100100000
1111100011101001
1111100100111110
0000011100000111
0000001001111010
0000011001011100
1111100100100011
0000011110000011
1111010101011111
1111010111101101
1111111001100100
1111100000001110
1111111100111000
1111111101001101
1111010000110110
1111100000101110
1111110101101001
1111111100000100
0000011010100000
1111001110110011
1111011010100010
1111010001000110
1111111111110010
0000001101000010
1111010100110101
1111010100101100
1111010100000000
0000001110100101
0000011110010000
0000100010100000
0000101010010111
0000010101111000
1111011011000110
1111101010000111
1111011111001101
1111100111000111
1111010100110001
0000000110110001
1111110001100010
0000010011101000
1111011000010010
1111110000110101
1111011011000001
0000011101011110
1111010100110100
0000011101010111
1111101111100000
1111100110101011
0000011100101101
1111010010011111
1111011100000010
0000101000111000
1111110001010111
0000001011010011
0000000110110000
1111101010100111
0000000000001010
1111110000001011
0000100001011011
1111100101110000
1111110011011101
1111110001100011
0000100010001010
1111011001110110
1111110100101010
1111011100000101
1111100000101011
1111101111010100
0000100000011011
0000100000011011
1111011010100101
1111110101110011
0000010001111110
0000100100011010
