1111110101100100
1111110100110111
0000010001001101
1111010111000001
1111110011011010
0000001010111001
1111011001110001
1111101010110101
1111011111111000
0000100011100110
1111100010000100
1111111101101110
1111110101001001
0000011000010011
0000000000001010
0000100000101011
1111101000010100
0000010001001111
1111011100011011
1111110010011111
1111111100001110
0000100100000110
1111101110011101
0000011110100110
1111111111110001
1111101101110111
0000001001010010
0000010010001101
1111010001100110
1111110100111000
1111110110111101
0000001111100110
1111011111010101
0000011100000101
0000001111110111
1111100001100010
1111111000111001
1111010100110001
0000101101100110
0000100011011001
0000100010010010
0000010010110011
1111100010111000
1111100010111111
1111111111011001
0000100010001001
1111101111010110
0000011000001011
1111111010001011
1111101011110011
0000010110111100
0000011111101000
0000000000110010
0000000100101101
1111110001010111
0000001101001000
1111111101100011
0000000001001010
1111101100001000
0000011010000100
1111011100101011
1111011010001001
0000110000000110
1111001000001110
0000001001100100
1111011100010000
1111100110011011
0000010110110000
0000101110101011
0000011000111010
1111111101111100
0000010000010110
1111110101010000
1111110110010101
0000101101000000
1111111001011011
1111100001101110
0000011011110111
0000100111010011
0000010001100010
1111101000001010
0000001101001101
1111101100110101
1111100110111010
0000001011011101
1111111001011000
1111110010100011
0000100001111110
0000011101100001
1111100110010111
0000010010100000
1111111101010100
1111010011010011
0000011011100010
1111100010110001
1111011001111010
1111101101011100
0000001111101001
0000001110101001
1111100111110010
0000000101010001
1111010110001011
1111110001001111
1111011001110110
0000101000110000
1111101110001111
1111111101000101
1111001110000010
0000011111101100
1111110000010011
0000011011111000
0000011000101100
0000101101010101
1111101000111010
0000010100101011
1111010110010000
0000010111100001
1111101100110010
0000010010110110
1111111001011010
0000010110101001
0000011001111110
1111101001000011
0000001111001010
0000101101000110
0000100100011010
1111100100100111
0000001001001100
