1111100011010100
0000100110110010
1111111000111101
1111111111101101
1111111001110011
0000000110010011
1111010011001010
0000000110111101
0000000011010101
0000011101100100
1111001111110010
1111101110010010
0000010001111001
0000011111010100
1111100101001000
0000100101000101
0000011010011000
0000001100110001
1111110001011011
0000011110000010
0000000011000100
0000011100000000
0000001111001111
0000110101111010
0000010100101111
1111100110000111
0000100111001111
1111111000101110
0000010000001100
1111100100101000
0000011111111001
0000100010011001
1111100001000101
1111110101010000
0000010011101000
0000000101011001
0000010101110011
1111011010101101
1111010000011101
1111111110000111
1111101000000111
1111111110111100
0000000000010110
0000100010010110
1111101010110100
1111111000000000
0000101100101101
0000110001111001
0000001101100111
1111110110011100
1111100101011100
1111011001011110
0000010101000010
1111101011101011
1111101100100101
0000001111101111
1111101101010001
1111111011101100
0000000100010011
0000001010101100
1111110010001110
0000000100110100
0000011000111001
1111101000110100
1111101101111110
0000100001010011
0000100000001101
0000011001110001
0000000000000110
0000000111101100
0000010010111111
1111010110001010
0000100011010110
1111011110011100
0000011111101101
1111100000111001
1111101100100110
1111111100100011
1111101001100011
1111100101100111
1111011110010010
0000100010001100
0000001111100111
0000000110101000
1111010111000010
1111011011011100
0000001100110110
0000000110111101
1111010011001001
0000100111011010
1111100010011100
0000010111111010
1111111100010000
1111111010010101
0000010100011010
1111010001001011
1111111010011110
0000101011100001
1111010111010011
0000010100001110
0000010010000101
0000011111000111
1111101110111000
0000000000000001
0000101010000011
0000010011010111
0000100010111111
1111111110000011
1111101101111000
0000001100100001
0000000011010111
0000000100010110
0000100001100000
1111110110111100
1111011110100000
1111101101011100
1111010101110010
1111111111010011
0000100100010001
1111111110010110
0000010110100011
1111100100001110
1111011110011110
1111110001001001
0000011000110101
1111010011010010
0000001010110101
0000000101010010
