0000010101010011
1111010110001001
0000011011110100
1111110001000001
0000001000011111
1111111000010100
1111111101101000
1111011001111100
0000011000011000
1111110101101110
0000001100110000
0000001000001000
0000000101000101
1111100100101101
0000000011111001
0000001000101011
0000001100100111
0000011100001100
0000001001011011
1111111100000010
1111100000011010
1111011110101110
1111010011100001
1111011110001010
0000011110110111
0000000100100101
1111110111011111
0000010000000101
1111110000111111
0000100011100100
0000010111110010
0000011000110001
1111100011100110
1111110001111100
0000010011010110
0000100001011101
1111110111011000
0000001010011101
0000011001011110
1111110011101110
1111110010101111
1111100011011011
0000001001001011
1111110110011010
0000101010111101
0000010110011010
0000101111000000
1111101111011101
0000010010111010
0000100101100010
0000000111101010
0000010101010000
0000101011100101
1111110011101100
1111011111001110
0000000100101001
0000010101000111
1111110101101110
1111110010110101
1111100011010110
0000000011011011
1111110111010111
1111110001001100
0000001001111110
1111111001110111
0000011010011011
1111011101111010
0000101100011110
0000000011111100
1111011111111000
0000011000100100
1111100111100111
1111111001011101
1111111110000111
0000001001101110
0000010011011000
1111110111111001
0000000101100100
0000011101101101
1111110110010101
1111001111011101
1111100011101100
1111011100000110
1111010110011000
0000011001000000
0000010010111110
1111100111000000
0000000111100101
0000001100101100
1111001111001101
1111010010110000
0000101101000011
1111100011100010
0000101001000110
1111110111101010
1111010101001001
0000010111110011
1111110111110100
0000101011111110
0000001011110101
0000011011110111
0000010010100110
0000100100000001
1111110010001110
0000101101011010
0000000011001000
1111101101110010
0000011001010001
0000011101000101
0000101001110110
0000101101011100
1111101111100011
0000100101010010
1111011100111111
1111111111111011
0000000000000111
1111001101011011
0000001110011100
0000101111111010
0000011011001010
0000011111001110
0000000110111011
1111101001011110
0000101001010110
1111111101110110
1111100000011000
1111100100011011
1111011011000011
