0000001111100101
0000100111101101
1111111010001110
0000110000101001
1111100011001101
0000101110101010
1111100000111101
0000001010100111
1111011100010011
0000001000010010
0000001100101000
1111100011101110
1111110111011111
0000011100000000
1111011101001010
0000101001000010
0000001101000000
1111011000100111
1111101111110101
1111111010111010
0000001010110110
1111100001010010
1111110101111101
1111011010001000
0000010100000100
1111011001110011
1111100000100000
1111110100110110
1111111100000001
1111110011011010
1111111111111011
1111110110100001
1111011101011001
0000001011000110
0000000100101101
1111010011111101
1111100000100010
0000000101100010
0000100000001011
0000001011001011
0000000101000001
0000010100110001
0000001000001011
0000001101011110
0000101110000000
1111110111111000
1111110001101111
0000001011100110
1111101001111101
1111110110100011
1111111001101100
1111110000001100
0000011110011111
0000000101100001
1111100001000111
1111011011100001
1111101010000110
1111011111010110
1111100010100110
0000100010110011
0000000000100001
1111111000110011
1111110111100101
1111111101011100
1111100000010010
0000100110110010
0000001110100100
0000101111001101
1111100111001011
1111111011101110
1111111000001111
0000010010001000
0000011110100001
1111011100011011
1111111111010110
0000001011100011
1111110001010001
1111110111010111
1111101111010101
1111101001111111
0000010001010000
1111101100011001
1111110110101100
0000000100111110
0000011001110110
1111111011011111
0000000010100011
0000011010010101
0000010100110101
1111010111100001
1111111011101101
0000010100110111
1111100100100111
1111100000000100
1111010100111101
1111011100001100
0000010001001011
0000001001000011
1111100011000000
1111101101011101
1111101000010000
0000101011010100
1111011001100110
1111100110001110
0000100101010100
1111110001111101
1111110101001001
0000000110110011
1111110100001010
0000101100010010
0000101101100111
0000100010111101
1111110100010100
0000010000001010
1111010101010110
0000010001101000
0000100100001101
0000101000010010
0000001011111100
1111110101010011
0000101111000011
0000000111000011
0000011010111111
0000001001100010
1111110000010010
0000010100110101
0000001101110110
0000000111010111
