1111010001000001
1111010001001100
1111011100000011
0000000000001010
1111001010101000
1110111110101000
0000001011110010
0000101011101001
1111110101100101
0000011100011000
0000001000001010
0000011100111000
1111100100111000
1111010000100100
0000111000000100
1111010111001110
0000000010111101
1111010011111001
0000011000011011
0000010100000111
0000010110110111
1110111010110000
1111101010111010
1111010011011100
0000101001111011
0000110100010101
1111100000010010
0000100100011011
1111110111101001
0000010000111111
1111110110110000
0000101010011001
1111101101010100
0000001101011001
1111100101010111
0000011111010011
0000000011000110
1111101101111111
1111111000000101
0000001110001100
1110101110010111
1111110010100111
1111010110001111
1111100110011101
0000111000111101
0000111110101010
0000111101100010
0000110110100000
0000110010001010
1111001111110011
1111000000111110
0000001100010100
1111010111000101
0000101010000000
1111100001010001
1111000101010101
1111111010100110
0000101000111110
0000001011100000
0000010101011010
1110111001010000
1111101011101101
0000010011000110
1111001110100110
