1111111001110110
1111101010100111
0000111100101111
1111000011101101
0000101111100001
1111110001010110
0000011101111011
0000000000010010
0000101011010101
1111100001010101
0000010111101011
1111010000101010
1111001011010001
0000001100101000
1111101100011011
1111101001101001
1111001100100010
1111010000110100
0000101010011010
1111001010010101
1110111100000010
0001000011010111
0000010000100010
0000100000001011
1111001111010111
1111101011111000
0000010000000001
0000011101110001
1111001011101100
1111110111010011
0000011010010100
0000010100100000
1111010101000010
1111001010100000
1111000011110101
0001000100111001
0000110101000101
0000000101100101
1111111010111110
0000001110001111
1111011010111111
1111000001011110
1111100001000110
1111010100101111
1111000000100010
1111100010010001
1111101100010111
1111010101100111
1111110110100000
1111001000111101
0000101101101001
1111001101100100
1111110001010011
0000001100011011
1111000010100000
0000001001000110
0000011010101001
1111101011111000
1110111011110101
0000110001110111
1111011011001111
1111101000011011
0000110101011011
1111001111100111
