11111100
11111111
10010
10111
110101
10011
11
11
10
1110
1101
10111
10
11101111
11111011
10
101
10110
11111110
1110
10
1101
1001
100
10
11110111
1
11111111
0
10000
10
0
1
1000
11111010
11111111
11111111
11111110
101
0
1
11111010
11111011
1100
11111110
11
11111010
11110101
11111101
11111010
110
11110111
11110011
0
0
11111001
111
11110100
11100011
11110100
1
11111010
11111110
11110111
11101010
11110111
11111001
1
11111101
1010
11111001
11100110
11111001
10011
1111
1
1100
11111111
11111100
11110010
11111110
0
111
11111
10000
10100
10110
1111
11
10
1100
11
11111001
11101100
111
11000
11111
1100
10
1111
1001
1110
11111101
10010
11111011
11111011
11111100
11111110
11
10001
1
110
1110
11111010
11111111
100
100
11111001
11111111
11111000
11111101
11111111
0
11111010
1110
10100
1000
10
1000
11110101
11
11111100
11110110
11111101
10
0
1001
1100
0
1110
1000
1
110
11111010
11101011
11111010
1110
10001
110
11
11111011
110
1101
1110
1101
1100
11111111
11111110
100
11111000
11110110
11100011
11101000
1
11111100
0
11111100
1000
11
