10
11111111
0
11101100
11100110
11100000
11101110
11110110
11110110
11
101
11111001
11111110
1
11111010
1
0
11111010
0
11111011
11110011
11111101
11110111
100
11111101
10000
11110101
1010
10001
1000
1111
10110
11
0
11111110
11111010
11111101
1010
10
11
101
1011
1010
10011
101
11111101
0
10
110
11
11110110
10100
0
1001
11111101
100
11
10001
1010
11110110
1010
10001
11110111
0
11110
10001
11111111
1001
110
11111000
1111
10010
11111101
11111110
11110110
11100100
11001101
100
10101
11111111
11
1001
100
11100
10000
11110010
11111000
11111101
11110101
11100101
1001
11
11111100
1
11111101
11111111
11111000
100
11111101
100
1010
1100
110
1100
11000
1010
1010
11111101
11101100
11110000
11111101
1001
1001
110
100
0
1
10011
100000
10010
10100
0
11110101
11111001
0
1000
111
0
101
11101100
10101
101
101
0
11111010
11110110
11110110
1110
1111
0
1
11111110
11100110
10010
10010
10
11111111
1100
1011
10001
11000
1100
10010
11111111
11111101
11111011
10
10001
10
10010
10010
1101
10110
1001
10011
10111
1100
110
1000
