11111111
1111
100
100
1010
10000
11111
10100
0
11110001
11101100
11110000
11110110
10
1101
1100
1100
10001
11101
10001
10111
1000
11
11111101
11111100
11111110
11110100
0
11111001
0
11111011
100
1001
11001
11
100
1
11101110
11110110
11110011
111
1001
11111100
11111101
0
1
1100
11
11110010
11111111
11111010
1
11111110
100
101
11111001
100
11110110
11111000
11111011
11110011
11111111
0
11111001
0
11110110
0
11110111
1
11110100
0
10010
10110
0
1000
11111100
11111101
110
11111010
11110010
1000
11111101
11111000
10101
110101
11010
1010
11111101
11110001
11110011
11110101
1100
0
11110010
11110111
11110010
111
10110
11
11111010
11101111
11110110
11110101
11101110
10101
11110101
11111111
11111011
11111111
11110110
10
1
11110010
11110101
10
10
11110101
1110
1001
10011
110
11101001
11101110
11110011
1001
11011
1100
101
101
11111001
11010
11000
1
1110
11110111
11111000
11111000
1000
11111110
1010
11111100
11111101
10000
10001
10
110
101
111
10101
10
0
11111101
1010
100
1011
111
11101011
111
1010
1110
10011
11010
10010
1000
1100
11111101
111
11110101
11110111
