0
10001
10010
10001
11100
10101
111
11111110
11110010
11101111
1
1100
1100
11111101
1101
111
1110
1101
1110
10011
1010
11111001
11111000
11111111
110
11111101
11111010
11111110
10000
10
1001
1100
100
11011
1111
10
10
11110100
11111000
10
11111111
11110111
0
111
11001
11010
10100
11
11111111
11
11111101
11101101
11110110
0
0
11111010
1100
11111010
11100
1001
11111110
11111011
100
10
10
11101010
11110100
11101101
110
11110011
11011001
11110001
111
11111101
1111
0
11110111
11110111
11101010
11101100
11110110
100
11101110
11100101
0
1011
11111011
111
11110100
11010101
11110110
1001
111
11111010
11110111
11110100
11111110
1100
11111010
11101000
11101101
11110101
11011111
110
11
1000
11111010
11111010
11111100
101
1010
11110100
11101111
11111101
11111000
11110111
1000
11110101
11110100
0
11
11110110
111
1010
11111111
1111
10000
110
111
11001
101
1110
10011
110
110
0
10
1100
11
1010
1110
111
10001
10
1010
1011
11111111
11111001
1100
1111
1011
100
110
101
11111101
1111
1000
11011111
11101110
0
1000
10110
100100
11011
11111100
1100
1000
10
100
