11110011
11101100
11101101
11101011
11110101
11011011
11011111
11010011
11101110
11110110
111
1101
1100
11110111
11011100
11110010
11111101
11111110
0
11111111
0
100
1010
110
1011
100010
1010
11111010
11111110
100
10
1101
11111101
10
1100
1001
1010
10010
11100
11111101
101
1000
10
0
1100
11110111
11100111
111
11
1100
10100
100000
11100001
11111100
11101110
101
1111
10101
11011101
11011111
11
11111101
11101111
1001
10100
11110111
10
11
1
1110
100111
11110010
11111110
10
1
0
11101111
0
1
11110110
11110111
0
0
10
11111110
11111010
10
1101
10000
110
10
100
11110111
11111011
11111000
11110110
11111010
1100
10001
10
111
1000
11111110
11111111
0
11111010
111
11110101
11111010
10011
1111
1100
11111011
11111110
1
1010
11111
11101011
11111111
11110101
10
0
1
0
11110111
11110101
11111011
0
11111111
11
11110101
11101001
0
11
1
11111100
1000
110
11110111
1000
1
10100
11111010
1001
11111001
11111000
11111100
1100
10000
11
10000
1001
111
1011
11000
11110101
11111100
11110000
11101001
11111000
11110011
11101000
11110000
1101
0
11111111
10
101
1111
