11111011
11111111
11111100
11110010
11111101
11110000
11101111
11111101
10100
11110
10011
0
11101011
10
11
1100
10
10
1000
1
11111100
11111110
110
1
10
11111101
11110101
11111100
11111111
11111110
1101
1110
1101
10110
1101
10
11111100
11111111
11110101
0
11111000
100
110
11111101
1001
111
10000
101
11110111
11110111
10
0
0
11111100
11111010
1010
111
1111
110
11110100
1001
100
0
0
11100111
1001
0
10001
11110
11100
100010
1110
11111
100110
10001
11001
1100
11011110
10010
10011
10110
1101
1011
11110010
11111001
10000
10011
110
10100
1010
11110011
11101111
11101100
11111101
11111100
101
11111010
11101110
11111100
1000
0
11110110
11110101
11100010
11101111
11101001
11111100
1011
1111
11111111
11110111
0
11
110
11110101
0
11101101
11101001
11111011
0
11101010
11101111
11101110
11111000
11110110
11111100
11
11111001
11101000
0
11110000
11101111
11110111
11111111
11110110
11111101
1000
11
11111000
11111010
11110000
11111010
100
11111100
11101100
11101111
11111011
11111110
1000
1001
10011
11111110
0
11111000
11111000
11111111
10010
10000
1
1101
10101
1010
11110101
1100
1000
11111100
11111001
1011
11111011
