11111011
0
11001
10001
10010
11100
10110
1011
11111111
11010
10101
1100
1000
11
10
0
11111001
11110110
10
11111011
11111001
11
1
110
10111
110
111
11101011
11101110
11111100
0
1
101
10
11110101
0
0
1010
10111
11110101
11100100
0
11110111
11111110
111
1111
11
11110011
11111011
10
0
11111101
11100000
11110010
1
1011
110
10010
1111
11111010
11101011
11110001
0
11111010
1010
0
11111010
111
1000
1000
111
10111
10010
11101011
11110111
101
11111111
11111000
111
1001
10
10010
11110110
1100
1110
1011
11110111
11110011
11
11110110
11111000
11111100
11110100
11111011
101
11111011
11
11011
100
11110010
11110011
1100
0
11111100
101
11110011
11111000
1
11111100
101
11000
11
11110111
1100
0
100
110
0
11110111
11111101
1
11111101
1011
10101
1011
11
10010
100
101
100
11111100
0
11101100
1
11110111
1
11111110
100
10001
1001
101
1001
10001
1
101
11110110
11110100
11111111
11110001
11
11111111
100
110
10001
110
1011
11111100
11111111
11111100
10
11110111
11110101
11111011
11111101
10
10100
11001
110100
10001
