11111111111111110011010011111001
00000000000000001101110110000010
11111111111110110101011010110101
00000000000010101101010000000110
11111111111111010111110110101000
00000000000010000100110001011000
11111111111011000011011010010001
11111111110100100010100011100000
11111111110001101011110111011110
11111111111000111001010000101010
11111111111101100101100100111000
11111111111110000011000110010100
00000000000000010001101000101110
00000000000011100101001110111100
00000000000100111101100111010010
00000000000010001101110010011110
00000000000101001001100101010110
00000000000101011000001000101001
00000000000010110111001100111010
11111111111101101001000010010110
11111111111110000100111000110000
00000000000001010101001010100010
00000000000100010110010111000110
00000000000000011011001000110001
00000000000011000111011110101000
11111111110111001101111001010010
11111111111100010001001000100100
11111111110111100000101101111111
11111111111110001001101001000010
00000000000011011011100111001111
00000000000010100110110101001010
00000000000111010001000000000001
00000000000100101101010111010110
00000000001000111011011100011110
00000000000110100000000010001010
11111111111111010000110001010101
11111111111101100110000011010001
00000000000001111100000111100001
00000000000111011110001011011000
11111111111000100100010011110000
00000000000001101010010100111101
00000000000001110111111101110110
00000000000001101010000011100111
00000000000010101110100000011101
00000000000011111110010000101110
00000000000110111000011011101100
00000000000100110111101111000110
00000000000001110010001000010010
11111111111110111100000111101100
11111111111110001000111000100000
11111111111100000101111100011111
11111111111110001010100001111100
00000000000100010110111100111110
00000000000010110100111001100010
11111111111110110111101101001011
00000000000011000001100110011101
11111111111110011101010110100101
11111111111011101000111110010001
11111111111010010100001110100100
11111111111000010110101001111110
11111111111111111011011110110111
11111111111111101010101100101011
00000000000000110100001000010001
11111111111001011000110001100000
00000000000000001001000111111000
11111111111001011111111100110100
11111111111011101111001001010000
00000000000001011110111011111010
00000000000000110001111111011000
11111111111101100110101011011011
11111111111100100001010010000011
11111111111001111110010000011001
11111111111111100011001110000101
00000000000001011010100000010010
11111111111111000111011100010000
11111111111111110111111101111001
11111111111011111010110001110111
00000000000010010010100110101001
11111111111100100011000101001001
11111111111110011011001000000000
11111111111111111111101111101000
11111111111101101100000000101011
11111111111111001101011011100011
11111111111110000101100001001010
00000000000000100100100011101010
11111111111100101010110000101110
11111111111111100100101001000100
00000000000000111100000010110110
11111111111100111110011011011100
11111111111100010000000001110100
11111111111101110110001101101000
11111111111101100010101110110111
00000000000001010010000101111110
11111111111110100011001011110011
11111111111111110110011010110000
00000000000001000001011101110001
11111111111111101001111110000000
11111111111101011100011110111110
11111111111101111010010110010000
11111111111101101100000100010101
11111111111011110100111011110101
11111111111101111111001010001101
11111111111111001001011011011110
11111111111110110110101010110101
11111111111110111101000011100001
00000000000100011011100010111001
11111111111111011001100111011110
11111111111110110101011011011101
00000000000000001111001100001000
11111111111111110010110100101001
11111111111100010011011110100011
00000000000000001011011100110110
00000000000000010010001100101111
11111111111100011010100101101000
00000000000000000100000110101010
11111111111011110000010010001101
00000000000010011000000101100010
00000000000000111100000110111110
00000000000001010101010110111110
00000000000001110000000111001100
11111111111100001101100101111110
11111111111100000100010010010100
11111111111111011001011111111100
11111111111101001011101010101011
11111111111101001110000011010101
00000000000001011000110110111001
11111111111111110111000111000110
00000000000010001111110111010011
00000000000010111010010111000000
11111111111110011111000010000010
00000000001000001101011101000100
00000000001011110101100110001101
00000000000101001001000100110100
00000000000010001100000000101000
00000000000001110111001101111011
00000000000010101011011111000111
00000000000011011010111100010011
00000000000011010010110010001011
00000000000000101000000101100011
00000000000010011010100001111001
00000000000100000010111110011111
00000000000010101110110110010100
11111111111011111011110111011100
00000000000111011110001010011001
00000000000110110100100001011000
00000000000101101111000100101010
00000000001000110010000010111110
00000000000110101100001110001100
00000000000101011000101011100101
00000000000011000011011110101111
00000000000010011101110010100101
00000000000100011100000001001000
00000000000001110111001000010100
11111111111111101101010010011111
11111111111111111001100101000000
11111111111011100001110010010100
11111111111110110110100110101101
11111111110100101101110100101100
00000000000001111110010110100000
11111111111110100111010111010101
11111111111111101111011101100001
00000000000010101000101110001100
00000000000010101000110000110110
00000000000001101010110110100001
00000000000000000000111000010101
00000000000011011001000001001101
00000000000010011111000010110101
00000000000001100011001010100000
00000000000001101000000000010110
