11111111111111101000010110000111
00000000000000001101001000010101
11111111111111011001001001001010
11111111111111111111111101011100
00000000000000100111110011011010
11111111111111011111110101111010
11111111111111111110101101010001
11111111111111100111110010100101
00000000000000000111010100110110
00000000000000010111101110101010
00000000000000001011011011110101
00000000000000001001010011110001
00000000000000010010100011011111
11111111111111011000011100001101
00000000000000100000111010111111
11111111111111010111000111001110
11111111111111100010010101110001
11111111111111110101000000010001
11111111111111011010000110100100
00000000000000100000100011101111
00000000000000001100000111101010
11111111111111111011010110001101
11111111111111110110100110111101
11111111111111011010111111100101
11111111111111101100001011100001
00000000000000010100001011000001
00000000000000100010010011001001
11111111111111101011011111010011
11111111111111111101001100111011
00000000000000010001001111011000
11111111111111010100100010011001
11111111111111100110101000010101
11111111111111010000001001011111
11111111111111111101011100000110
11111111111111111100010101110111
11111111111111101010011111111101
00000000000000000001000000110100
11111111111111011011110001001110
00000000000000100001110001000111
11111111111111111111000111011110
00000000000000011110010001100111
00000000000000010011101101110000
11111111111111110001001101011110
11111111111111001100101111111111
11111111111111111110110111100000
00000000000000001111111101010011
11111111111111100000000011110000
11111111111111111000011100010111
11111111111111000101011011011110
11111111111111011101110011001110
00000000000000000111110111110010
11111111111111100010100011010000
11111111111111101100101001011111
00000000000000000100000111011101
11111111111111010010101011000011
11111111111111010111110001101001
11111111111111011110011010010001
00000000000000000110111011010000
11111111111111001101000100100011
11111111111111000110100101110000
11111111111111001110000010011000
11111111111111000100000111001110
11111111111111110101100001100100
11111111111111001100001011011000
00000000000000001010111010000101
00000000000000001000111101011100
00000000000000100101101000011110
11111111111111111111010101110010
00000000000000010011011000110010
11111111111111001100110011101011
11111111111111111100101000001110
11111111111111110111011100110011
00000000000000001010011101101101
11111111111111101111011111011101
00000000000000000001001000001010
11111111111111110100000101001001
00000000000000001111010101110110
00000000000000001000100000001100
00000000000000010001000100100011
00000000000000001111101010010001
11111111111111111111010011011111
11111111111111101100111000000010
11111111111111001011010100100000
11111111111111110001111000000101
11111111111111101100000110100010
11111111111111001111000001011001
00000000000000010010111110100100
00000000000000001111011110001010
11111111111111000111000001101001
11111111111111100110111011111010
11111111111111010111010011010100
00000000000000001110110011110110
00000000000000001000111000001111
00000000000000001011011110101101
11111111111111010101100011011010
11111111111111110010010100000010
00000000000000011000001110010111
00000000000000001011100101111111
11111111111111111010111011011110
11111111111111010111110010100000
11111111111111100001101011010001
00000000000000010110110001000011
11111111111111010010111101011011
11111111111111101101101011011011
00000000000000010010001010001001
11111111111111011110011110111100
11111111111111111011110000111110
00000000000000000011000010010010
11111111111111110011111111010010
11111111111111110110110111110011
11111111111111100010100010100101
11111111111111010101100001001111
11111111111111101001100001010100
11111111111111011010011011100000
11111111111111111010101001010110
00000000000000001100011101110010
11111111111111001010101101000100
11111111111111011101100110000101
11111111111111101110011001100100
11111111111111110001100111111101
00000000000000000110101011100010
11111111111111110111010110000111
11111111111111001111101000000110
00000000000000000001100100000110
11111111111111110010101001100010
11111111111111100100111000011100
00000000000000010100100001010011
11111111111111001011011011110101
11111111111111011101111110010010
00000000000000001100000100011000
11111111111111001011010010101100
11111111111111011100101000011001
11111111111111100000100101011101
11111111111111101010010101111001
11111111111111111110110111001111
11111111111111100010111011111100
11111111111111011111110101100010
11111111111111000101000001011010
00000000000000000101110010111001
00000000000000010100110111111100
00000000000000001000111110110001
11111111111111010111001000100000
00000000000000000101100101011110
11111111111111011101111111000010
00000000000000100101000010110001
00000000000000110111000011000111
00000000000000101111000111010101
11111111111111110101001011000100
00000000000000001111100000101011
00000000000000001000000011111000
00000000000000000100011010010001
11111111111111111001000010111101
11111111111111101001101100110101
11111111111111111000000001101001
11111111111111101010001110100010
00000000000000100010010100010000
11111111111111100010110100011110
00000000000000011001100110011001
11111111111111011111111011000001
11111111111111111100100011111111
11111111111111110001001101111010
11111111111111101111000111100111
00000000000000011101011111001000
00000000000000010010010111011011
11111111111111111110010010000111
00000000000000000110011001101011
00000000000000011001001111100001
11111111111111011101011111110100
11111111111111011010010110000011
