00000000000000000100100000000001
11111111111110101111101111001010
11111111111100111001100111110111
11111111111010110010100100110011
11111111110101011100000011110110
11111111110110101010000011101101
11111111111100011001100100010111
00000000000110100100010011111000
00000000001001110100111011001011
11111111111100100101000010001101
11111111111000100100100000010100
11111111111100011001010001010010
11111111111111000000000111110100
11111111111111101101000100101100
00000000000011110110101011010011
11111111111010010011010011111110
11111111111001011000010001100011
11111111111110111110010101011011
11111111111011110101001101101100
11111111111100100000001010011011
00000000000000001011101010010101
00000000000001100110011001001100
11111111111110101000100110010010
11111111111111001001110001100000
11111111111010000101001100011110
11111111111110111110001010110111
11111111110110010110101000000111
11111111111001100111000010100111
00000000000010101011110010001001
00000000000001100000100000111101
11111111111111100110111010101111
11111111111001001011100100010010
11111111111111011001010011011110
00000000000001100110011111011100
00000000000001111001010100111011
00000000000000100110111101010110
11111111111011111100010110000000
11111111111110001111011000000101
11111111110110001011100001101101
00000000000011101011001001101000
00000000000001101000110000101010
00000000000001100000111110100101
00000000000001001011011100010110
00000000000000110100000100011101
11111111111011110111000100000110
11111111111101000110101011011101
11111111111110011110001001110100
00000000000010101000001000011110
00000000000011011010100100110110
11111111111110000110001110001111
11111111111011110010011100010010
11111111110100011111011111001010
00000000001001101011010100001101
00000000000010000110111110000001
11111111111011111111001000100110
11111111111101110111011000011011
00000000000010100101101100011100
00000000000010000100101000101010
11111111111100010011111110110001
11111111111010001010111110101010
11111111111111011011110100001010
11111111111110100000101110001111
00000000000000010110111001010111
11111111110111111000011000110000
11111111111100000101001110001111
00000000000101010111110010110010
00000000000001000011111001000111
11111111111000100010110000111000
11111111111001010100000110010011
11111111110101000101100001000010
11111111111001000110011110100111
11111111111100011110100111100111
11111111111100001110011101101111
00000000000000011010011001010011
11111111111111101110001101010111
11111111111001110001110110000010
11111111111000101010100110101011
00000000000111101011000001000010
11111111111101010011010110100100
11111111111001010100010101010110
11111111110110101100000001111100
11111111110110111011101011100011
11111111111011011011101011011110
11111111111101111000100011011100
00000000000000000011111100001100
00000000000001001011110111010100
00000000000000011011101110110111
00000000000000010110000011101111
11111111111111010101010110011100
11111111111101000011111110001110
00000000000100101000100111111111
00000000000101011000101100100001
00000000000010000000100110010101
00000000000111011011010000100100
00000000000100011101011010001100
00000000000100101010011110110110
00000000000101110101101000010110
00000000000010110110000000110011
00000000000010010101010011101110
00000000000100011000000011001011
00000000000010000011000010001000
11111111111110010101100001100010
00000000000000101011100110010100
00000000000011101101110000110111
00000000000110010111101000100010
00000000000100101111101101100011
00000000000110010111000001100101
00000000000011011001000001110001
00000000000000111000101010101110
00000000000101001010110011100001
00000000000011001010001011100110
00000000000000001010010110000011
00000000000011001100110011011111
00000000000011001111101110000000
00000000000000101000111111011111
11111111111110000110010100110001
00000000000001100110101001000101
00000000000000011111110011011001
11111111111111110000101111000101
00000000000001001110101101110101
11111111111101000010100100111111
11111111111001111101101000001111
11111111111001000000000011010100
11111111111110010110111001110011
00000000000011110001101100010111
00000000000101000100111111010111
00000000000010110000111101010110
11111111111100100110001100000010
11111111110100100100000110001100
11111111111111110011010000001101
00000000000011110111001100111100
11111111111000111000000000010010
11111111111111001100011100000111
11111111111101101100101111011100
11111111111100011011010011110011
11111111111101001000000010110110
11111111111100011101011011000100
00000000000000001000101110001010
00000000000010110101000011000011
00000000000001000000011000001010
11111111111110000111101110111001
11111111111101011010110111110010
00000000000000100010111100100011
00000000000100011000000010101010
11111111110111110010000001110111
00000000000000010111010100100110
00000000000001100110000001001100
11111111111110001011010011110010
11111111111110100000111000001010
11111111111011101111010000010101
00000000000011000100111101110001
00000000000011011001110010011111
00000000000101000001010001000011
00000000000010010111001010111101
11111111111101100000010100010111
11111111111110110001111101010000
00000000000001000000111100010110
00000000000011001010110000010101
11111111111111000111001110000101
00000000000010100101001101010111
00000000000000001100111010011110
11111111111111101110010001010111
00000000000001100000010010101110
11111111111110101110101110100011
11111111111111001010011111111111
11111111111011111110001010111100
11111111110111010101101011111111
00000000000001100000000101111101
11111111111111001010110111110000
