11111111111111100001101100111110
11111111111111010011000001110110
00000000000000100101101111001101
11111111111110110110100001100100
00000000001001001000000010001101
00000000001001100001111101100111
00000000000101110011010101001000
00000000000100110101111100110110
00000000000010111010111001111100
00000000000110011000110111111011
11111111111111101100001001011010
00000000000010000001111111000010
00000000000000001000100010010001
00000000001000101110000011111011
00000000001010011000101100111000
11111111111110000100000011110010
11111111111100101110100111010111
00000000000001111111011000110000
00000000000100011100100100100000
00000000000100011010000100110000
00000000000110101100111010100011
00000000000001001010010000001100
00000000000001001110000011111010
11111111111110100011011011101100
00000000000000010000110100000101
00000000000010010011100111011110
00000000000100010100110111110100
11111111111110000111111100100100
11111111111010101110001000011010
11111111111011000100111001000010
11111111111110010101011111000001
11111111111101101110010110110011
11111111111011101000011110111100
00000000000011101000000011101011
00000000000010010111011001000111
00000000000000000010111010100001
11111111111110100011101011010010
00000000000000010110000101110110
11111111111111011010111010100111
11111111110100110110010110001100
11111111111011001011100000111111
11111111111100100010111110001110
11111111111110000011100100010101
11111111111011010111011110110000
11111111111101111100111010011111
00000000000100011011000000110001
00000000000111101110011101010100
11111111111111000110011111110100
11111111111011001000011100101100
11111111110101001111110111001110
11111111110101001100010101000011
11111111111001101000100111010001
11111111111010010000010010011110
11111111111100100011010011000010
00000000000100100011011110001101
00000000000011101111010010110100
00000000000010011101001100101010
00000000000000010001111110101001
00000000000011011001101011010010
00000000000001101000000101100001
11111111111100010010000000101100
11111111111101001101000100100101
11111111111001100101110101111111
11111111110110011101001101110000
11111111111100000111011110111000
11111111111011010110111101010000
00000000000011111110010100000111
00000000000011111010101000011000
00000000000001010110111110100000
11111111111110101000100000100000
11111111111100100011100001100110
00000000000000111011101100000000
00000000000010100010001111100101
11111111111110110111110101100101
11111111111111111100011111001111
00000000000000100010011010100010
00000000000000000011000010001000
00000000000010010011001000100010
11111111111011101010000110101011
00000000000010100100101101011111
00000000000000011000111010101111
00000000000101011010100000011101
00000000000000111110011100000111
11111111111110110100000101011001
00000000000110001101011110101011
11111111111110101011010001011010
11111111111100011011011010101100
11111111111011011110111001010111
00000000000010011011101001101001
11111111111010100001001101011101
11111111111110011111010011000110
11111111111001011111001010110110
11111111111110110000111111011001
11111111111100110000001110010000
00000000000100010011000000101101
00000000000100000000110010011110
00000000000101011111100111110100
00000000000100101111010001010100
11111111111101011011111010001101
11111111111110001001000010000000
11111111111101010011111010110000
00000000000000010001111000111110
11111111111110110000011110011001
11111111111010111100010110011000
00000000000110000101000010000111
11111111111100011100011000110101
11111111110100111010011011010110
11111111110111100100111101010000
11111111111000010000100000110010
11111111111011111100100001000011
11111111111111100110100101111100
11111111111110111011101001000101
00000000000000100111011110000010
00000000000000101001000001110011
00000000000001000101101010001100
11111111111101110110101011110100
00000000000000110101001111010010
11111111111100100001000111111100
11111111111000001000011001010000
11111111110110101110111111011110
11111111111110000011000001101101
11111111111000010100100111111101
11111111111010110010011111000011
00000000000010111110101110101010
11111111111101100110010000011100
00000000000001001010111001001101
00000000000100110011101001000001
00000000000000100100011110011001
11111111111111000001100011010001
11111111111111100111000101011101
00000000000100000000001110000001
11111111111110010000101001101010
11111111111001110000100010111001
11111111111111100010000000100011
00000000000001011110011001110011
00000000000010100100011100101100
00000000000010110100100011100101
00000000000001000101110110000011
00000000000001010111000100101101
00000000000110110101110111000000
00000000000000101001001100011110
11111111111010111111001110010011
11111111111100101001011000110101
00000000001001010101111110011100
00000000000000010110110001001110
00000000000011110000010011101001
00000000000100010011111010111110
00000000000100001110101100111011
00000000000011100110011010101010
11111111111110011001111011101010
11111111111110001011101011011110
11111111111101010001111001001001
11111111111111011011110100111011
11111111111011101111000100001111
00000000000000000100000010011000
11111111111111111001011110001000
00000000000010100101011101000111
00000000000001110011001111101111
00000000000101011111111101111001
00000000000100000100100010011101
00000000000010001010000101011100
00000000000000100100000011010001
00000000000011100010110100011010
00000000000010101100100011100111
11111111111111001100110101100111
11111111111010111101000110111101
11111111111111001001011011001101
11111111111100110010111101101010
11111111111110001111001111010011
