00000000000000100010001110001001
00000000000000001010000111011010
00000000000000000001001000101100
11111111111111111011100100010011
00000000000000001101001101011111
00000000000000011111111011111000
11111111111111110001101100101110
11111111111111010111100110010110
11111111111111100011110000001010
11111111111111101101100011011110
11111111111111111111010100010000
11111111111111011010101111000101
11111111111111101101000010010100
00000000000000100000101101111111
00000000000000010101111110110000
11111111111111100010111101111001
00000000000000100000100111100011
11111111111111011010101011110001
11111111111111101000011111110110
11111111111111101110100100010111
11111111111111010111110010011000
00000000000000000100010110000000
11111111111111110010101011000011
00000000000000010011000010101110
00000000000000100110110100001010
11111111111111010111111110100000
00000000000000100010010110011010
11111111111111101000000011111000
00000000000000001001001001100000
11111111111111100010101110010111
00000000000000100101100111100101
11111111111111100011111001110101
11111111111111011100100001111011
11111111111111100000010011110100
11111111111111011111100011110100
11111111111111010101110100000000
00000000000000010101000001101101
11111111111111101001000000111010
00000000000000001110010100001110
00000000000000000000011111100101
00000000000000010110101100100011
11111111111111100101111110110110
11111111111111011010001100001100
11111111111111111101100000010011
11111111111111100101100001101111
00000000000000011111011010011101
11111111111111101110001010100001
11111111111111101010101101100100
11111111111111101101101110111101
11111111111111011100100011111011
11111111111111100001011111010011
00000000000000010000110111001001
00000000000000100001010100010011
11111111111111101011100000011100
00000000000000011110011010000101
11111111111111111011000100000110
11111111111111111111111000110100
00000000000000011001100111001000
11111111111111100010110101001110
11111111111111110111001110110010
11111111111111110100000101011110
00000000000000000101111000111001
11111111111111111110101110100001
11111111111111011010101111111010
00000000000000000000100100110111
11111111111111100100011001100011
11111111111111101101101011101111
00000000000000011111001011110001
00000000000000001101110011110000
11111111111111101011101110111111
11111111111111111010011110111110
00000000000000010001010101100110
11111111111111001000100011100011
11111111111111010111110001110100
11111111111111110110101000001110
11111111111111111100010001110110
11111111111111110111101101111011
11111111111111111000011010111111
00000000000000011101011000111111
00000000000000000011100000111010
11111111111111100111000001001000
11111111111111110010111010010101
11111111111111101110110000000100
11111111111111011010110010111001
00000000000000001011101001001100
11111111111111110001100011000000
11111111111111100100101011011001
11111111111111111011001001011101
11111111111111110111011010001100
00000000000000011101110011111000
00000000000000011100000011110101
11111111111111011101010111010110
11111111111111101100011101001101
11111111111111011101111000111010
11111111111111100111110110010001
00000000000000010110011011100100
11111111111111001110011101111000
11111111111111110101000101001010
00000000000000000111010001101111
11111111111111100110010011101100
11111111111111011011100110001110
00000000000000011110001110101111
11111111111111101010010011011001
11111111111111101000111100000111
00000000000000001110111111010000
00000000000000010011001001001011
11111111111111111010101100000000
11111111111111011101110010010100
00000000000000001010101110100010
11111111111111110101101110010101
11111111111111010001101011000000
11111111111111001110101101101010
00000000000000000111001101111101
11111111111111011010001011111110
00000000000000010001011001111001
11111111111111110001010010100011
00000000000000001100100011000011
00000000000000011011001111111000
11111111111111011110101100010010
00000000000000010011101101110010
11111111111111100011010001101000
11111111111111010100110011001011
11111111111111110000010100111011
00000000000000001010101011011001
00000000000000001000011101010101
00000000000000011010000010011110
00000000000000100010100110110100
00000000000000010001001100011110
00000000000000001000010101001101
11111111111111100110110100000011
11111111111111011001010000001111
11111111111111110011001000110110
11111111111111111011101011000000
11111111111111011011111100010110
00000000000000001100000101011010
11111111111111110011110100111111
11111111111111001101101110011011
11111111111111100101110010101111
11111111111111101001101101001100
11111111111111111011001010010100
11111111111111111010100100101110
11111111111111011100000100101110
00000000000000010111111111000111
11111111111111101100010000000111
11111111111111011111000001000010
00000000000000100010011011111001
00000000000000000110100011110110
00000000000000001000000000000101
11111111111111001001001011110011
11111111111111011111001101000110
00000000000000000010101010100110
00000000000000001101110101101100
00000000000000011111001011111010
11111111111111101111000010111000
00000000000000010111110010101000
00000000000000100101110110110011
00000000000000001001101010110111
00000000000000010010010001100000
11111111111111010111111100000010
11111111111111010111100010110101
00000000000000100100010101111001
11111111111111011011010000101111
11111111111111110101101100000000
00000000000000000001100110111010
00000000000000010000001100001100
00000000000000011110001101010101
11111111111111100100111101001110
11111111111111111010001101100010
00000000000000001010001000110010
