00000000000000110010011100000111
00000000000000000110010100111011
11111111111111001011011011110010
00000000000111010001011000001000
00000000000100110000100001101010
11111111111000100111111001000100
11111111111101111000101000110000
11111111111110111000110010101001
11111111111001110111001101111100
11111111111110011110110101000100
11111111111110010001101011110101
00000000000010110100000010111010
00000000000011000011111111000110
11111111111111000101101011110100
00000000000110000001000110001111
00000000000101001111000010010110
00000000000100100110101010000010
00000000000110100110001100111110
00000000000111011110001001100110
11111111111110111101000110111011
11111111110111110111101101101000
11111111110110000111100101110000
11111111101111000011101001010000
11111111110100110000011100100000
00000000000010011101001101101100
00000000000011000001110100010111
00000000000010100000101011100111
00000000001011100001111001010011
00000000001010101100101011100111
00000000000111110010100110100101
00000000000111000101101001100111
00000000000110101010110101011011
00000000000001011110100010111111
11111111111010110101100001011111
11111111110110111100000100000010
11111111111001001001011011011011
11111111110010010010101111111101
11111111111000111000011001000101
00000000000000101000100011000001
00000000001000110100101011000100
00000000000111000011111100001100
00000000000111010100110010111100
11111111111110100011110111001000
11111111111100000010110000111010
11111111111010001111101101011100
00000000000100011101001110100010
00000000000000010101111100011001
11111111111011101010111000010010
11111111111000100110000110100011
11111111101111011011100001111000
11111111110101110101000111011011
11111111111100100110110101100001
00000000000000110100110011101101
00000000000000111101000111111011
11111111110000101110110001111011
11111111110001111111111010011000
11111111111010000100001110101001
00000000000000101001101000101100
00000000001011110001101010100000
00000000000001100011101100010010
11111111110111101110000000111101
11111111110111001010110010100010
11111111110110010000111110001111
11111111111111111010000101101000
11111111111111101001100111001001
11111111111110000000000000111110
11111111111101111101010101000101
11111111111001001110001011110110
00000000000011000010110010110100
00000000000101011111101000111101
00000000000110000010101000000011
00000000000100101101101110101111
11111111111010110010101010100110
11111111111011000000111010111111
11111111111011000100111010111110
11111111111011111001000011011000
11111111111100010111000111111010
00000000000101010110001110100111
11111111111110001001101100111011
00000000000000011101100110000111
11111111111111101110100110110110
00000000000110011111111000010111
11111111111101001110101010010100
11111111111111010111001010001100
00000000000001010111001001001101
11111111111101111101011100100011
00000000000000100010001100110111
00000000000000101001000001001010
11111111111110000010011101011000
00000000000100000111010010010011
00000000000011100010110110110101
11111111111111110101100101111110
00000000000000110001001100001011
00000000000000011100011010001100
11111111111101011000010101001001
11111111111001111001001111100111
11111111111011100001101000010110
00000000000010100100101100010011
11111111111110000011111000110011
11111111111010100111011111111010
00000000000000011000000010001111
11111111111110101000100110001010
11111111111101111100101110100001
11111111111111001010111010110010
00000000000010101111000011000001
00000000000111001110001011010010
11111111111111000001110110110001
00000000000001011100111001100100
11111111111110010011111010100011
11111111111011101011001111110010
00000000000000001000010101010000
11111111111010110110111110101000
11111111111101101110111000001010
00000000000001001101100010110111
00000000000011101010011010011100
11111111111111111010001101010000
00000000000010001010110100101011
11111111111100101011101110010001
00000000000010011100000000100010
00000000000001101100110111010100
11111111111111110111011101010110
11111111111111011110111101000110
11111111111110100011000000100110
00000000000000000010101001100100
00000000000011110110011011100101
00000000000011010010100111101100
00000000000010001100010100000000
00000000000001011101110000111010
11111111111011011111001001001100
00000000000011010010001110001010
11111111111110100000100110011001
00000000000100001100100110001101
00000000000001101100011010011011
00000000000001111111010111001000
11111111111111111000111000101000
11111111111111101100010100011100
11111111111110011100110111111011
11111111111110001110100100111100
11111111111110101011110101110111
00000000000000010000101100110000
11111111111100100110101110110011
00000000000010110100110110011100
00000000000100010000100010111111
00000000000001011010011101100010
00000000001011110111100100100000
00000000000001000100001100111111
00000000000001001000111100011101
00000000000001000110001000001100
00000000000010101100010111010100
00000000000000010000100011100111
11111111111111110011110000101000
00000000000000100001011011010001
00000000000001110000101110001100
00000000000000000111101111111100
00000000000011110001010111011100
11111111111111110110101101100011
11111111111111101111111000101101
00000000000011111001011100111000
11111111111100111010100000101010
11111111111100000010110010110010
11111111111110010001001011110010
11111111111110111111001111010011
11111111111111001100101111010100
11111111111110010000011101000100
11111111111101010001001011111000
00000000001010111101010100001001
00000000000100100011100000001100
00000000000001010110110100100101
00000000000011101000001000011100
