11111111111111011010011010010011
00000000000000011101101101110100
00000000000000000001010011010010
11111111111111011110101000111011
00000000000000001110010000110000
11111111111111100010000011000011
11111111111111110111000111110010
00000000000000010010111111100001
00000000000000001010101111100000
11111111111111001010011110011001
11111111111111111111010101000010
00000000000000001000101101011110
00000000000000011000111001111100
00000000000000001000010000110011
00000000000000100110011011101111
11111111111111101111100010111000
00000000000000011011100001111100
11111111111111100101111000111010
11111111111111110010001001100101
11111111111111010101000000111101
11111111111111110101010110010101
11111111111111011110100111100000
00000000000000010110011101011001
11111111111111100001110101100000
00000000000000000010001111110000
11111111111111100111100111000100
00000000000000100101110001101011
11111111111111110010110011110100
11111111111111101110111100010010
00000000000000001101010001101110
00000000000000010000110111000010
11111111111111100111110011110100
11111111111111100011101011001010
11111111111111101001110010000010
11111111111111111110011100111111
11111111111111110011101000111000
00000000000000001111000000000001
11111111111111011010010101100000
11111111111111011011000100010110
00000000000000001101001000110111
11111111111111111000101010001011
00000000000000001101100001101000
11111111111111111000010110101101
11111111111111100100100000010100
11111111111111001011000000111100
11111111111111101110111000000001
11111111111111111001011001011010
00000000000000000010010111110001
11111111111111010100111010111100
11111111111111101110010011100100
11111111111111101001001000111011
11111111111111111011111111101011
00000000000000011001100110000010
11111111111111110011101000100010
00000000000000000011100111100011
11111111111111101110110011000111
11111111111111010001101001101100
00000000000000010000001101000001
00000000000000000011010110000001
11111111111111111111111101011100
00000000000000001011101110000111
11111111111111100111100000110011
11111111111111111101011100010011
00000000000000000010101110000001
00000000000000001101000001001010
11111111111111110101001111111100
11111111111111111110100000111010
11111111111111111110011001101001
11111111111111101000110000011111
11111111111111111110000001101001
11111111111111001010111101110011
11111111111111010101111010001010
00000000000000001011010010100010
11111111111111001010001100100100
11111111111111110010110100100001
11111111111111110101111101001111
00000000000000001110000111101111
00000000000000010000001001011101
00000000000000010000111000110111
11111111111111101000110010011010
11111111111111111010010011000110
11111111111111110011001000110111
11111111111111001000100101011000
00000000000000000101011101101010
11111111111111001100110001000111
11111111111111011111010010000000
11111111111111011111011101011101
00000000000000001101100111011101
00000000000000000011000000000110
00000000000000000111001101110000
11111111111111111001001011111110
00000000000000110110100010011111
00000000000000010000110100011111
11111111111111010100010111101100
11111111111111001101100100001000
11111111111111111000011010101101
00000000000000010100000000100111
00000000000000000110100111100110
00000000000000001110101101001101
11111111111111111111100000010001
11111111111111111111011010001111
11111111111111100101111111010101
00000000000000000010011011000100
11111111111111110110111011110110
00000000000000101010001111001101
00000000000000110111000101101010
11111111111111011101001110110011
11111111111111100111100101011011
11111111111111101011001110110110
11111111111111111011001010011111
11111111111111111001000011101010
11111111111111010001001100101001
11111111111111001101000101100001
00000000000000000001110011101000
11111111111111111000100011110100
11111111111111100110101000110101
00000000000000110001011101010011
00000000000000100100110010111110
11111111111111100010101011110010
00000000000000010010010001110111
11111111111111000110000100111010
00000000000000011000010010000110
00000000000000000011010100011100
00000000000000000110011100010011
11111111111111001110101011101010
11111111111111111100001111001001
11111111111111111000111110000011
11111111111111100100011100001011
11111111111111110110101101001111
11111111111111111000100110111101
00000000000000101111101000011111
00000000000000001001001110001000
11111111111111010101100111000101
11111111111111100001000101001000
00000000000000000011111110001111
11111111111111001001111101110000
11111111111111110110100000110101
00000000000000001011110101001000
11111111111111101000001010010000
11111111111111010111000110110000
00000000000000000000111100111010
11111111111111101001010000000011
00000000000000101101111110110000
00000000000000010000111010111010
00000000000000001011011101000010
11111111111111110111001011111000
00000000000000001101010010111110
00000000000000001001110010110111
11111111111111011110000100000010
11111111111111110101111101110110
11111111111111011001010011000111
11111111111111010000010101111001
11111111111111011011110001111001
11111111111111010101111000010000
11111111111111001000111110011111
11111111111111011110111100111001
11111111111111111000010001011001
11111111111111010111110001010000
00000000000000001101101111111010
11111111111111001000101000101011
00000000000000011000010010111101
00000000000000000110011000100000
11111111111111101000010011110000
11111111111111100110010111000010
11111111111111111001111111010110
11111111111111111000001110110100
11111111111111100011111100110011
11111111111111011000010101101110
11111111111111100111101000110001
