11111111111111100001100100111110
11111111111111011010000110010001
11111111111111101000011110101010
00000000000000011001101011101100
00000000000000100001100110100000
00000000000000011110011001100000
11111111111111011111100010010010
11111111111111110101101100010000
11111111111111100011101000011111
11111111111111010100001100011110
11111111111111111110110101011111
00000000000000000011001101100011
00000000000000100110001101101001
00000000000000001110111001000010
00000000000000000111110111000100
00000000000000001101000011101011
00000000000000011010001111110011
11111111111111010101110110010110
11111111111111001011011101100000
00000000000000000101111110010111
11111111111111101010101101110000
00000000000000001000010110111101
00000000000000010010111111100111
11111111111111100100100101111000
11111111111111101100100111000011
11111111111111101111010011111111
11111111111111101111111010000101
11111111111111011111011110011111
00000000000000100100011001101000
00000000000000001010101010001101
11111111111111010101000010101100
11111111111111101101100010011100
11111111111111010110111000001101
11111111111111101000101110110110
00000000000000010010111010100000
00000000000000010100011001000100
11111111111111001011100111000101
00000000000000001011011101001100
11111111111111011000010000001001
00000000000000001011000110110010
11111111111111110100111010100011
11111111111111111001110111000001
11111111111111100111110100101100
11111111111111110011011100001100
11111111111111011011100010111011
00000000000000001001011100110011
11111111111111110111101000011011
11111111111111101001010010010010
11111111111111000110000111100000
11111111111111101010001111000000
11111111111111011001000100011011
11111111111111011010111011011101
00000000000000001000011101101011
00000000000000101011011001001101
11111111111111101010101111010110
11111111111111100010100011001010
00000000000000001111100011000111
11111111111111011000100101001011
11111111111111001110111100000101
11111111111111011010100101100101
00000000000000010011000011011011
11111111111111110111101101111111
00000000000000010001000101111001
11111111111111001100100010111010
00000000000000010111111100001001
00000000000000010110011111001111
00000000000000001110011100011100
11111111111111011001111011010110
11111111111111011011101000110110
00000000000000001010111001111010
11111111111111101101011111001001
11111111111111010001111111000000
11111111111111101010011011010110
11111111111111111011000100010000
11111111111111110101011111010001
11111111111111110011000011100001
11111111111111101011010001110100
11111111111111111101111011101011
00000000000000000110110110110000
00000000000000001011001010111111
11111111111111001101010101100111
11111111111111101100010110000110
11111111111111101010100111011111
11111111111111000110110000100001
11111111111111111110101001000110
11111111111111000100000001000101
11111111111111010110000101001010
11111111111111011110010011000001
00000000000000000111101100010011
11111111111111101010111101100000
11111111111111100010001110110100
11111111111111001001100011001001
11111111111111111000001011100000
00000000000000000110001001101100
11111111111111011101100001111100
11111111111111011111001001111111
11111111111111101010110001111111
11111111111111000101011101000000
11111111111111011011001110101010
11111111111111110110110101111111
11111111111111101100110010011111
11111111111111010000000100110100
11111111111111000101111010010011
11111111111111001101110111111011
11111111111111100110001000010001
00000000000000000100110101100100
11111111111111001110000110011100
11111111111111110011011100110010
11111111111111011111100110100000
11111111111111011011110101111011
11111111111111100101011101110111
11111111111111001010111000100110
11111111111111110010010011100111
11111111111111001100101101101101
11111111111111110010001010010100
11111111111111100001001110100010
11111111111111101111100100111000
11111111111111111011000000001101
11111111111111100111111101011001
00000000000000001100000110100001
00000000000000001101000011100101
11111111111111110100110001001000
11111111111111011110001010111110
11111111111111001100011010010101
11111111111111111110110110000110
00000000000000010010010101110001
00000000000000001110101100111100
00000000000000010000101101010101
00000000000000000110011110111100
11111111111111110110010010000101
11111111111111010101001001010010
11111111111111111101011010011100
11111111111111111110011011000011
11111111111111011001000101011111
11111111111111000011000001001001
00000000000000001100010011111110
11111111111111010111011001101111
00000000000000010000010110110100
11111111111111101111100111101111
00000000000000000000100001000110
00000000000000001111000101110011
00000000000000010100001101110011
00000000000000011011101000101000
00000000000000000000101001011000
00000000000000100000010110101011
11111111111111111111101111110010
11111111111111111010111001100110
11111111111111010010010010111111
11111111111111011010000111001001
11111111111111001110101001100110
00000000000000010001110011010101
11111111111111001001010010001100
00000000000000000011101010100110
11111111111111111000000001000111
11111111111111010110010111111100
00000000000000100100101010000000
11111111111111110101000011110010
11111111111111011000111111110011
00000000000000100010100010110001
00000000000000000110100110001101
00000000000000101001010111100111
11111111111111111011011010000100
11111111111111001110100010101110
00000000000000000101101001111001
11111111111111110001100101001010
11111111111111010100001011101010
00000000000000000000010110101001
11111111111111001111111110100010
11111111111111110110100101001010
