11111111111111111010011010010111
00000000000000001001111100111010
11111111111111111101001110100110
11111111111110000111101101000011
00000000000111001111100011111000
00000000000001001001110001000111
11111111111000011111011110010100
11111111111101110000101000101000
00000000000000101001110010111001
00000000000001110101000100100010
00000000000010011011010100000110
00000000000001000101001101110010
00000000000000100001110011100001
00000000000001101101010111000111
00000000001010100111001001101001
00000000000100111011010001100000
00000000000000100100000011010111
00000000000111111101111010000111
00000000000101110010110001010001
11111111111111101101010011101010
00000000000010111110101111000001
11111111111101101100111000000011
00000000000010000100111000011101
11111111111110111010111111110100
11111111111110100100010010011000
00000000000010100000010101011010
11111111111111110001010010000000
00000000000010110100001101000111
00000000000011001101111111000011
00000000000101111100110110110111
00000000000011111010100110110000
00000000000001000001001111100001
11111111111111000101111001100100
00000000000010111011000101000001
11111111111101000100100010001001
11111111111100001011101000001010
11111111111111001111110110100000
00000000000000100111111010111100
00000000000011111111001111110100
00000000000100110101101010100100
11111111111011000110010010101011
11111111111100110010101110110001
00000000000001010001101001011011
00000000000010101011001110101000
00000000000010001111111000001111
00000000000010101011010100011010
00000000000100000101010110010010
00000000000001011001110101010100
00000000000000001000010101001010
00000000000010010011001001110010
11111111111110110011011101110111
11111111111101011010010000101110
00000000000011011101000100001110
11111111111111001011011110001011
11111111111110011011001000100100
00000000000001101001110100100010
00000000000100001000101001010010
11111111111110101100110111111010
11111111111000111100011001100010
11111111111101000110100111100000
11111111111110010111100111010010
11111111111111000000000000110010
11111111111110100110001010010110
11111111111001111100111011100100
11111111111101101100010001010100
11111111110101110111101111000110
00000000000001001101000111110001
00000000000010000100110100000010
00000000000100011110000101111010
00000000000100101100101110001000
00000000000110101001101000011011
00000000001000000101101101110110
00000000000101001111000111110001
00000000000010111000100000010000
00000000000000001000110001011100
00000000000000110101011101010000
11111111110101101110000001101011
11111111111011000011010011010000
11111111111001010101111001001010
11111111111000110011011010110110
00000000000000010010111001001100
11111111111111101101101100010011
11111111111100011110000110000000
00000000001000110111010111101001
00000000001000011111001000000010
11111111111110010010010110011000
11111111111110100010011110110010
11111111111101100101000001001010
11111111111100010110000100100110
11111111111001111011000101101100
11111111111101001111001010101110
11111111111001100011001101010111
11111111110011000011011011110000
11111111110110101101010010011100
11111111111001111000101000111111
11111111110111110100100000010011
11111111111100100110000101101010
11111111111111100111100111101101
00000000000010010010111111000100
00000000000011001011101011111010
11111111111100110100111000110000
11111111111110000100100111010111
00000000000010111010010110110010
00000000000101110010110110110010
00000000000000101001111111000100
11111111111001111011110011011010
11111111111100110001011101011100
00000000000000000101111101101011
11111111111101011001111110011100
11111111111000100010010001000001
11111111111001010000100100001111
00000000000001000011000000100111
00000000000010111000100001010000
00000000000011100101100101000100
00000000000001001111000100000101
00000000000000001000001010100001
11111111110111011110010011011001
11111111111100011011110001000010
11111111111011010110100000000011
11111111111101010000110011001010
00000000000011100110101100001100
11111111111110101000100001000001
11111111111011111110010000110000
11111111111001111000000111000110
11111111110100111010000011001000
11111111111111000000001101010000
00000000000001100010110111001001
00000000000000110001111111110001
11111111111110110010011101001011
11111111111001010000001000100010
11111111111101100101110100010010
11111111111110111000111110010111
11111111111111110000001000010011
00000000000001010011100001100000
11111111111011000011001100010100
11111111111111011111101100100001
11111111111101011000001111001011
11111111111110101010100101100010
11111111111110001001000011010110
00000000000001101110000101101111
00000000000001110110010011011001
11111111111000000001100101111010
11111111110100110111011111100101
11111111111110110101101110110010
00000000000000110001010011011001
11111111111110000111001101010000
11111111111110100000101000011100
11111111111101110001011001010001
11111111111111011001000110110011
11111111111111101110111010000100
00000000000000011100011111011101
00000000000001001111111110110010
00000000000001111101101110100100
11111111111101101110101101010100
11111111111000011110111000101110
11111111111010001110000000100000
00000000000000000110000000000011
11111111111011110101001111000011
11111111111111011110111001111000
00000000000000110011110001101001
00000000001000110010100000010100
00000000000001001110111011001101
11111111111101101000100101011101
00000000000001100110011100001011
11111111111101001010100001011100
11111111111000011111110011101110
11111111111010001010110000100000
00000000000001011000101101001110
00000000000000100011110110100001
