00000000000000010000011010101000
00000000000000100000000011001111
00000000000000000001011000000100
11111111111111010110111010011111
11111111111011100000011010000100
11111111111011001101011010111000
00000000000101000000110100111101
00000000001000111111011011001010
00000000000110011101101101000010
11111111111100010110000000100011
11111111111101001110101010010011
11111111111101100000110001001110
00000000000001010101000100000101
11111111111111111111101001001010
11111111111000000101001011011100
11111111111010011110001111001011
00000000000011010101101010001110
11111111111101111011101010000110
11111111111110001111101111011001
00000000000001001100001110000010
00000000000111010111111000000011
00000000000110001111110000110011
00000000000000111000000100111111
00000000000110111101011000101100
11111111111111111010110010100101
00000000000001000000000100011001
00000000000101111000001111100101
00000000000010011011101100000001
00000000000010111011111011011010
00000000000110010100111011111001
11111111111111101101001111110101
00000000000001001011011101000010
00000000000010010100100011011101
11111111111101010101111000100100
00000000000000010011011011010001
00000000000001000100101000000101
00000000000100001110010010001010
00000000000010001000010010000011
00000000000001010011111110011101
00000000000111011101111101101111
00000000000010110101010111001100
11111111111111000101100101011011
00000000000001010000101101010101
11111111111111100101100011111111
00000000000011001110100000100000
00000000000011100110010110011110
00000000000001101010111101000111
00000000000011000100110010010101
00000000000100001111100101010101
00000000000011101101010011001110
11111111111011110110100100110110
11111111111111100010010010001111
11111111110111101101101111010110
00000000000101000000010100110001
00000000000010000011101000111010
00000000000001100001111011101000
00000000000001011001001010110000
00000000000110001111001001111110
00000000000101010000111000100010
00000000000010111100001001001010
00000000000000001101001010001100
00000000000010001010000101010111
11111111111111110000001100101111
00000000000001000101100111000111
11111111111011110010111110100010
11111111111001100101010011011100
00000000000010011110000110000101
11111111111110101001000110001001
00000000000000000100000100011100
00000000000010001011110100000000
00000000000011000111101110110100
11111111111100000100100100000101
11111111111000111110011101101100
00000000000001101110101000000111
00000000000000001011111010010000
11111111111011010011110111010000
11111111111011110100110101001111
00000000000000001111111011111110
00000000000110101000000110000000
00000000000011010010100001100110
00000000000100000001110111101101
00000000000110010000011011010011
00000000000011010011011000010001
11111111111000011100000011000000
11111111110101001000001101011001
11111111111000000111101000010111
11111111111011010100111001011010
11111111111100101111010001110011
11111111111101001010100100010101
11111111111100000111110111101011
11111111111110100100110111010101
00000000001010100100101110001111
00000000000101111001000100010000
11111111111111000000000011010001
00000000000011001101100010111000
11111111111101000010010110110100
11111111110110011010100100001101
11111111111110010000110111011111
11111111111101110100011110011000
11111111110111101110111110111100
11111111110110110111100101100000
11111111111011111101100111011001
11111111111111011011000000011001
11111111111110001000111000011110
11111111111111010011010101010010
00000000000100001101101011110100
11111111111010010111111010110000
11111111111011011111011000101100
11111111111100110011101011111010
11111111110110111100000101100010
11111111111011110000101110001000
11111111111101100011111000111010
11111111111001010000111100110011
11111111111100101100000110000011
00000000000000000100001100011011
11111111111110101000101011111101
11111111111111100001010110000011
00000000000000001001110010010100
11111111111100111011000010100101
11111111111000010101010011100000
11111111111000111011110001100100
11111111111100010111001110000110
11111111111110001011100101111011
11111111111111110100000101111000
11111111111110101101011000100101
11111111111100101101100110010011
00000000000001010100111011011110
00000000000011001111110001010110
00000000000001001111111111001111
00000000000110101001010011000100
11111111111100011001011111011111
00000000000001101111011011101000
11111111111110000000011101111001
00000000000011110111010000111011
00000000000101110111001111011001
00000000000011001000000101110111
00000000000100001000100111100111
00000000000100000001000001010011
00000000000100000011010001011111
00000000000011100111010101011010
00000000000100100101100000000011
00000000000011111011000101001011
00000000000000111111010001001001
11111111111011000011110111000100
00000000000010110011101011101110
00000000001000101010011011001110
00000000000000110101111110000110
00000000000011101110101111100000
00000000000000110000100011001110
00000000000011000010111010011101
00000000000011111011100000011011
00000000000101000110111000100001
11111111111110100101101110011110
11111111111110010011001111000100
11111111111111111011110010101001
00000000000000010100000001101011
11111111111110100101011011110001
11111111111011100001100000111110
11111111111110100001000101001101
00000000000110000101010101111100
00000000000011000111110000001011
00000000000010101010001001010101
00000000000011100001000000110010
00000000000000011011011110010100
00000000000100001011001011010011
11111111111011100010111111101010
11111111111110011101101011100101
11111111111001010010101011010111
11111111111101100011001110010011
