00000000000000010000111111100111
11111111111111101011001001101010
11111111111110111010101100111110
11111111111111011111100111001011
00000000000000100110000110011110
00000000000011101100111100111100
11111111111110111000010011011011
11111111110000010111001000110000
11111111110100011001110100100010
11111111111101001100100111010110
11111111111111010100110111000000
00000000000000010000011110011111
00000000000000001100101111101010
00000000000011010011101000111000
00000000000000111100000110001111
11111111111101010011100101001011
00000000000110101110110011110111
00000000000001100011011100101011
00000000000010111101011001100111
00000000001001101110110110001110
00000000000100111001000110001111
11111111111110101100110000010111
11111111110110101000001111111100
11111111110011111011111000001101
11111111110111001000111110110011
11111111111100111010101000111110
00000000000010001001111100011001
11111111111100110000111000111101
00000000000000101001110100011101
11111111111110011000101000000110
11111111111101011010111010000010
11111111111011100000111001100111
00000000000001000101101001101111
00000000000101011000101111001100
00000000000110011100100101010010
11111111111101101101111100111010
11111111111111000110100010110010
11111111110100111101101100100000
00000000000000011110110001011000
11111111110111111001010111010010
00000000000101110110010010100001
11111111111010111111110111001111
11111111111000000010111011001110
11111111111001011011000101000101
11111111111001000001010011010110
11111111111101111100101000001010
00000000000100100100110101001111
00000000001001111111100110110000
00000000000010000011100001111101
11111111111011110110101001001111
11111111111010110001011010110111
11111111111101011010100001101100
00000000000011110101010010101110
11111111111111000111100010011100
11111111111001011101001110010000
11111111111100110011110001110100
00000000000000101101101100001111
00000000000000000010111110101100
00000000000011010111100000010100
00000000000010111101010011001010
00000000000100011010100101111110
00000000000111001101001011110010
00000000000100111011110011110010
11111111111011111011010011110110
11111111110101011010001010100001
11111111111111101111011000100000
11111111111100000100111110101001
11111111111110000001111001001000
00000000000010110010100100100110
00000000000011111010011010100100
11111111111110011111000010100111
00000000000011100010000100011100
00000000000001010011101100010010
11111111111101111101111101110100
00000000000111101000111101110110
00000000000100011111001011010011
11111111111100111000110101110101
11111111110100010111110000010010
11111111111111100011111111010101
00000000000011011000100101101001
11111111111110111000001001001001
00000000000010000111000100101001
11111111111110101010000011000000
11111111110111011000110011111011
00000000000000000101101010111100
00000000000011100010001111110010
11111111111111100001100000111000
00000000000100001100001001100011
00000000000001100101101011011100
11111111111001011001111010100110
11111111110110010010100111100010
11111111111000110101111010101110
00000000000010111000111011011000
11111111111110110111010111100010
11111111111110111111011011111011
11111111111110010011101101011100
11111111111110001110000010111110
00000000000010111001011111001110
00000000000000100010110010001111
00000000000010111101001101100000
00000000000000011110111000100010
11111111111110011010110010001001
11111111111101001000110111010001
11111111110011100111011110111001
00000000000011000001011011101011
11111111111011100000011010001100
11111111111101110111000100110001
11111111111111100000101100011100
00000000000010010010011000001001
00000000000001001100101111101000
11111111111010110111101001010011
11111111111100100001011001001011
11111111111110010111001011100010
11111111111100101101100000000011
11111111111110111110001111101001
00000000000001100001111000000011
11111111111111111000100000101001
11111111111111111001101111011011
11111111111100100110110000100010
00000000000010011111100111110101
00000000000000011111011011110101
11111111111111010011011000101100
11111111111001110010010100101110
11111111111101011010110010101110
11111111111101100100001101111000
11111111111110111100100111000010
11111111111111100100110000011100
00000000000100001000110100010111
00000000000100000110101000001100
11111111111000111001011001111100
00000000000111110110011111011100
00000000000100111101011110001101
00000000000100010110100110111111
00000000000000111011101111001010
11111111111010101011100101111000
11111111111101111101010001101001
00000000000001100100001001000001
00000000000000001010000100110011
00000000000000100010100000001111
11111111111110000000111101001011
11111111111110111111110001111000
11111111111111011010101110111010
11111111111110110101011011011010
00000000001001111110111011100100
11111111111001110111010100111010
11111111111111101001010100000010
11111111111110111001001011100111
11111111111100111100010000100010
00000000000001000111011010101111
11111111111101001110111101011010
11111111111101101100001000010011
11111111111110001110000010100001
11111111111000001011010001111010
11111111110011000011001011010100
11111111111000010000100010011000
11111111111000110110111010101010
11111111111111010100010101110010
00000000001000100010010010100110
00000000001010100111000111101001
00000000000011000001100110001110
00000000000100000100000111000111
00000000000000111011101010000111
00000000000000111010010010011001
11111111111111010011010101101011
11111111111100101111000011101001
11111111111110011100110100111110
00000000000001011100110100111000
00000000000000010101111010001110
11111111111101110111110111011100
