00000000000000011011010000000010
11111111111111100101101011010010
11111111111111010001001001000111
11111111111111100010001111100001
11111111111100010101101000101000
11111111111000100111110010000001
11111111110101011110110000001100
11111111110111000000010100111000
00000000000010010011001011010000
00000000000010110111100101111010
11111111111110010101101001111010
11111111111110100010110001101000
11111111111111110101101011100010
11111111111111101100010100101011
00000000000000011011101111111001
11111111111010011000010000010011
11111111110111011111010011000100
11111111110010011110100001011000
11111111110101101111111101001100
11111111111001010111001011011010
00000000000000100001100101000010
11111111111110111110001010001100
11111111111111111111111011010001
00000000000000000010101110101111
00000000000111011110000010110010
11111111111111000011010010100001
00000000000001111101101010010011
00000000001010000011011100001111
00000000000011100011000101010111
00000000000000011000000010010110
11111111111101101100101000101000
00000000000101010110000010101000
00000000000010001000101101111001
11111111111110110011010010111100
00000000000010101101111100011111
11111111111110110010010001001010
00000000000001000000111001100111
00000000000011011100001011100101
11111111111100011110101101011111
00000000000011011100000001100101
11111111111100101111101111011010
11111111111100110111000101110111
11111111111110011000000100000001
00000000000010010100001011101110
11111111111101011111100001110111
11111111111110110111111111101110
11111111111110010001000100111100
11111111111111011010010011010001
11111111111101110010001000000110
00000000000001000010110010001001
00000000000010010011000010011010
00000000000000101010000001110101
11111111111110110101101000001000
11111111111011001000110110000100
11111111111100100100010101001111
11111111111101110011001110001110
11111111111110001110101111011101
11111111111111110001001010101100
11111111111110111100110001010000
00000000000100011110001110100000
00000000000100000111000100111100
11111111111111111000101010011111
00000000000011111101100100111101
00000000000000011101000100010010
00000000000110010011100011001100
00000000000010011101000001100000
00000000000010010111001101000010
00000000000011000110110000101100
00000000000011000110011011001001
00000000000001101111001011000111
11111111111111011111100011101011
11111111110110110101000110101010
11111111111010110110100011110110
11111111111100110010100111010100
11111111111111111100110100101010
11111111111100110000000000111011
00000000000100111010111100101010
00000000000101000001110111111101
00000000000110110001011000011110
00000000000101110110100001000100
11111111111110000101011011111001
11111111111101100011111101110110
00000000000000110100100011001011
11111111111100101100101000111000
11111111111000010000000100100111
11111111111010110111010001010000
11111111111011011000110100011010
00000000000000110010000011010101
00000000000011111000100011101010
00000000000000101110110011111101
00000000000011001100100000001100
00000000000000010110010001000101
00000000000010111011111001011010
11111111111110110011001000111010
00000000000010000000110100100110
00000000001000000010111011001100
00000000000100100001001110001111
00000000000100101100000010001111
11111111111111100101011001111010
11111111111100011001011010110000
11111111111101111000011100000001
11111111111110001111101000011111
11111111110111100010011100110011
11111111111001100111101011000010
11111111111101001001011001101101
11111111110001011111000010010010
11111111111001010111101111111001
00000000000011110100011011011011
00000000000110110100001001011011
00000000001001101111011000001111
00000000000110111110101110111001
00000000000010000011011101100111
11111111111101010111000110010100
11111111111011100010001101100100
11111111111011011111011111110101
11111111111110001011100011010001
11111111111001010001111110110011
00000000000000100011101101110101
11111111111100010001011100111100
11111111110100111111001000001011
11111111110011110100000100010000
11111111110100011111000011000101
11111111111011101000011000101110
11111111111100001110000110100001
00000000000001111111001111001011
00000000000010000111111110111000
11111111111101010001101011110101
11111111111111000001110110100101
11111111111010010110010110011000
00000000000000100011001101010111
00000000000101111011010100000011
00000000000000110100101010111101
00000000000010011111111010001110
00000000000001001011110101011110
11111111111110111001001000111101
11111111111101100000100001001001
11111111111100010110101001100100
11111111111111100011010011111011
00000000000010100100110011011001
00000000000000010110000011011100
00000000000001100010010001101100
00000000000010100000000011110111
00000000000110001101101111011100
00000000000110110100100100010011
11111111111111000101110001000100
00000000000011010010010101000111
00000000000011010010100000010100
00000000000110010100010111010001
00000000000011100100110100111111
00000000000001111111010011001111
00000000000010110100000000001111
11111111111111010101111011011010
11111111111101101011111100101001
11111111111111011111111111110101
00000000001010001001000000011101
00000000000101100010111100101100
00000000000010100010100111110000
00000000001000010000111011000110
00000000000110010010000111010110
00000000000000000111100000110111
11111111111111000001100010010110
00000000000010101000000110001100
00000000000100100101101101100100
11111111111111000110011101100001
00000000000000000101101101100110
00000000000001100011110000001001
11111111111101011101001100010101
00000000001001100110101001111010
00000000000000000100100000000000
