11111111111111011101011110010111
11111111111111100111010010001110
00000000000000010110011110010000
11111111111111011011110001100111
11111111111111101011000000111011
00000000000001001010011001110001
11111111111111100001001001011101
11111111111111110100000000010101
11111111111110111100010001100001
00000000000000000100100010111100
11111111111111010000000110011001
00000000000000001011000101001001
00000000000000001000111011000101
11111111111111101111101100100001
11111111111111101110011010111011
11111111111111100110000010011011
00000000000000001110100001111011
00000000000000011011001111000001
00000000000001000000000000110011
11111111111111011001100100111011
11111111111110110010111010011010
11111111111111101001101100010100
11111111111111100011101010100100
11111111111111001111000111101000
00000000000000001001111101011111
11111111111111011100101110010110
11111111111111110101111010111111
11111111111110101110010000100001
11111111111111010101011000100010
00000000000000010001110011001001
11111111111111111000000000100101
11111111111111110111111100010010
00000000000000001111011101110110
11111111111111111010110010011001
11111111111111110000000100111001
11111111111111010000010001101001
11111111111111010010001010111101
00000000000000010001100000110000
11111111111111110100111010110011
11111111111111011000001010111000
11111111111111000011011111000011
00000000000000010110001010100011
00000000000000110010001011111000
00000000000000000100110110011110
11111111111110111110111010111101
11111111111111000011111000011100
11111111111111100111100111101011
11111111111111000100001011100001
00000000000000001011000111010000
00000000000000000111110101010011
11111111111111101011101010101110
00000000000000010011011110111010
11111111111111111100110101100011
00000000000001001000010110101111
00000000000000001101100110110111
11111111111111101101001100100001
11111111111110101011110001101000
11111111111110100111101100100000
11111111111110001100100100100010
11111111111110011110010001100001
11111111111110110010111000010001
11111111111111100110111010001101
00000000000000000110101110001010
00000000000000010010000010100001
00000000000000001000110110100110
00000000000000010110000001110000
00000000000000110001001101001000
11111111111111100001101100000010
11111111111110111101010000111111
11111111111111011000101110111010
11111111111111010000010000111000
11111111111110110100111111010110
11111111111110111011100011010000
11111111111110110110000111110111
11111111111110010100000011110011
11111111111111101110010011010100
00000000000000101010000110111101
00000000000000100111100001101111
00000000000000010100110011110100
00000000000000011010110001010000
00000000000000011000101100110001
11111111111111101011110111011010
11111111111110111110111111000010
11111111111111010110000010111100
11111111111111010010010100100010
11111111111111001001010101000001
11111111111110100000100000001001
11111111111101010011110011000010
11111111111111001000100111010110
11111111111111110001101000111011
00000000000000001100111100100110
11111111111110110100111010101011
11111111111111101011101110110010
11111111111111111111101000110000
11111111111111100001000010101000
11111111111111111001101001011101
11111111111111011111111111101010
11111111111111000010010001101110
11111111111111110001101101010101
11111111111111011010101001110100
11111111111110011111100100000100
11111111111111110000011001100000
00000000000001100000010111111110
00000000000000011010001000110001
11111111111111011100010011011100
11111111111111101110110100010001
11111111111111100010111011101001
11111111111110111111000010110000
11111111111111100100000011110010
00000000000000001010100010001000
00000000000000001110011000101101
11111111111110101000101110100111
11111111111110010000111100011101
11111111111110010000101000000011
11111111111111100001100000111101
00000000000000110001011101110111
00000000000000011100001101101100
11111111111111101011100011000000
11111111111111001011001110010100
00000000000000010100101111010011
11111111111111101110000111100100
11111111111111000110000000110001
11111111111111100011000100111101
11111111111111001111100111001110
11111111111111010111110110110011
11111111111110100010001011111010
11111111111111000000011101101011
00000000000000110011100011100111
00000000000001000111100001000001
11111111111111110100010000000010
11111111111111100011100111010000
11111111111111010000100101001010
11111111111111101111101110111100
00000000000000001111010000111100
11111111111110111001111011101001
11111111111111110000111001110101
11111111111110111011100100011101
11111111111111011111111111001000
11111111111110110011011100110001
11111111111111111010101101101011
11111111111111110010100111001110
11111111111111010000111110001001
11111111111111100011111100110000
00000000000000011110000100000001
11111111111110111100110010011000
11111111111111011010111101110111
11111111111111000011000111110111
11111111111111010001001010101000
11111111111111010001100000011010
11111111111111110110100110001100
11111111111111101101001111101001
11111111111111110011010001011111
11111111111111101000011110101001
11111111111111001100111010001110
11111111111110100001111000011000
11111111111111000010011010011000
00000000000000011110010110110111
11111111111111011101001000100000
00000000000000100001011011111001
00000000000000110100011000010101
11111111111111010110101110011100
00000000000000001000001010000011
11111111111111011111011111001111
11111111111111010101100101101110
11111111111111111111011000100101
11111111111111001001110010100011
11111111111111010101100001000011
11111111111111100000001110010010
11111111111111001000000111110000
