00000000000000010111010110110111
00000000000000010001001111110101
00000000000011001111001100000100
11111111111111100101001101010111
11111111111101011011101001101010
00000000000001000001111000101010
11111111111000100111110011100100
00000000000011110100110100100000
11111111111110000000010010010100
11111111111111111011100001001100
11111111111000011011011111010101
11111111111001101010011100101010
00000000000000000110100110011001
11111111111001000001100101100010
11111111111000011101111111010000
11111111111111010011001101101001
00000000000010111110110111000010
11111111111111000100101111100101
11111111111010101100010011010111
00000000000001011010101011010111
00000000000000000101110010011010
00000000000011001011011100101001
00000000000001110101010011011001
11111111111000000000001010110110
00000000000000110011110100101111
11111111111010001110101110111101
11111111111001111011010011110001
00000000000000010011000110100011
00000000000000101011001101011000
11111111111010011001001001000110
00000000000000111011110000101101
11111111111100011001101000001010
11111111111100100111011011011010
11111111111101110001111000100111
11111111111000101101010010001000
00000000000010110001100101100010
11111111111011000000110111011110
11111111111111100001100001110100
00000000000010000100101101101110
11111111111101111011010111000111
11111111111001010011100001101110
00000000000100011100011100100000
11111111111110001000110001000010
11111111110101101010101110011010
11111111111111000101000011100010
11111111111011001111001111110011
11111111111000000011110110100110
11111111111110011010111101010111
11111111111111110101001001010001
11111111111111101010010001110111
11111111111101010100110001111111
11111111110000011100001110100011
11111111111111100101101101100101
11111111111001110110110001011010
11111111111000010110111001101000
00000000000001001111010001110011
00000000000010111011111000011101
11111111111011011011001000101100
00000000000011101100111010100100
00000000000000001101001011000111
00000000000000000100001000110110
00000000000001101101101100111011
11111111111011001001111001110101
11111111111111110111110111110010
