00000000000000111110011101001001
11111111111111111000100001001100
00000000000000101000101100011111
11111111111111000000100101001100
00000000001000010110000011010110
00000000000000011100101000011011
11111111111011010011100011111100
00000000000100000000111000011101
00000000000011001100000110111011
11111111111110101110011100000010
11111111111011001000001101000101
11111111111111101101101001101011
00000000000001000000010011100011
11111111111100010010011000010011
11111111111100001111110000000000
00000000000000111001011101000110
00000000000100010000110011111011
00000000000010100111001010111100
11111111111101011100111000101100
00000000000001100111010011010111
11111111111111110011001010000001
00000000000101001111000110011111
00000000000011110101111101101011
11111111111111001110101011100010
00000000000000110101011100100010
00000000000000000010010010001000
11111111111100110010100111111010
00000000000001111010101110111001
11111111111101100011001110001010
11111111111010110110110111000110
00000000000000110100010110101000
00000000000000010011001100010111
00000000000001011101010011110011
00000000000000000010100100010001
00000000000000111001101001100011
11111111111110000110111000001100
11111111111100000000101011000110
00000000000010100010010101001101
00000000000101000111001001000000
00000000000000111100100000111111
00000000000011110100010110101000
00000000000001100110011001010101
11111111111011010000010110001011
00000000000011010100000100010111
00000000000001010011110111100111
11111111111011000100110011001100
00000000000010110001000101000011
11111111111111101110101011000011
11111111111111101000000010001000
00000000000000010111011110101101
11111111110011000100111000100010
11111111111101001101010100011001
11111111111111100101100100111001
11111111111111101101010101111100
11111111111101100101101010011001
11111111111010111110001110111110
00000000000010011010111001111101
11111111111110110101000110001111
11111111111101001111101000111110
00000000000010101101110001110110
00000000000000100010010101111110
00000000000001000011100110011110
11111111111001100111111010111000
11111111111101101000011101110100
