11111111111111111011011001101010
00000000000000010101110001001110
00000000000011011011100110111000
00000000000000001110001101011100
11111111111101011111111100101110
11111111111111110101000100010100
11111111111000101011010111000000
11111111111111110000111001100100
11111111111100110000001101001000
11111111111111011100000110010101
11111111111011001100010110010111
11111111111111000001110111011100
11111111111110100110100101010011
00000000000011001100100000100101
11111111111011111111100000111111
00000000000001000001001010000000
11111111111100010100011111000000
11111111111101001100111000000110
00000000000110100110111010110100
11111111111111111001010010000011
00000000000000010111110011011010
11111111111111110000101000101001
11111111111110101010000100111001
00000000000010101111010111111101
11111111111111111110001000110000
11111111111101101001011111111010
11111111111100101010001111111101
00000000000000100100010011000111
00000000000000000100101000101000
11111111111111101000000001011000
11111111111111100010100001111110
11111111111110000000011100011010
11111111111001010111100100011111
11111111111111110101011010001100
00000000000001100011101000010000
00000000000100100100101101100001
11111111111110100100100111010000
11111111111111110001110100101010
11111111111101000101100100110000
11111111111101100100001111000001
11111111111101110000101010101100
00000000000000011000100110111100
11111111111101011110000111110001
00000000000000010100101001001011
00000000000000010010000100010101
00000000000001000100010100110001
11111111111111100110101101111010
11111111111101100101111001010100
00000000000000010100000101000011
00000000000000101010011001101101
11111111111001101010110111110110
11111111111100101111100101011101
11111111111111101101111100100100
00000000000010011110001001011110
11111111111111001101000010111011
00000000000010101001000001100111
11111111111100110001001000100100
00000000000000100011110110110001
00000000000010000011000011110010
00000000000100101000011101010001
00000000000001101011011010101111
11111111111101110010110010111011
11111111111001101111111111010101
00000000000001001011110100111011
