11111111111111110011101011001100
00000000000000000001101110111100
11111111111011100000101001001011
00000000000000011101011100011011
00000000000010011100000011111010
11111111111111110100101101011011
00000000000010110001001111100100
11111111111111011101001100110001
11111111111110000011100110011101
11111111111111111100111011000111
00000000000001001011010010100101
00000000000001110011100000001001
00000000000011100101111010000100
00000000000000100001101111000000
11111111111100100100110011000111
11111111111111110101110010111010
00000000000011010010000110001100
11111111111110011011100001011010
11111111111001001111100100111010
11111111111000010101100101000111
00000000000000000101101000100100
11111111111100111111011111010011
11111111111101011100101100100101
11111111111101111000110000110110
00000000000000010011110110111110
11111111111100110111010001100000
11111111111110111011011111110010
11111111111101110001111010100111
00000000000010010011011110110111
11111111111111010001101011010000
11111111111110110111010100011110
00000000000000111110011101111000
11111111111111010001011001101011
00000000000001110010010110110111
00000000000000110010100110000110
11111111111011101111101100001010
00000000000010100010110010011101
00000000000001011101011010111111
11111111111101100001111111101000
11111111111111111000100000111001
00000000000100010001001101010111
11111111111111000100100010101010
00000000000100110100110001100011
11111111111001100010001000111011
11111111111000000101100001101011
00000000000011001111110011010010
11111111110111011100000000111100
11111111111010011100011010001001
11111111111111110101001011101001
11111111111111100010000000100100
00000000000010001100110010011010
00000000000011110010011101010001
11111111111111100111110001001101
11111111111110110000000010110011
00000000000011111100100100100011
11111111111100100100100011011111
11111111111001010101010010101011
11111111111101110110000101111010
11111111111111001010001011110111
11111111111011001010011000100100
11111111111111000000001001000100
00000000000001000001001010100110
00000000000111000110100111010001
00000000000010011111011010111011
