11111111111110111001111011011111
11111111111111100010100011001110
11111111111100110111101101000110
00000000000000100011001111001111
11111111110110100011100000010111
00000000000000101101101000011110
00000000000001101001101010101100
00000000000101111001100111111110
00000000000011010000111100110100
11111111111111011011000111100011
00000000000010101101110001011000
11111111111111101110011110011001
00000000000100001000011011011011
11111111111111100000101010011000
11111111111010000100111011100100
00000000000000001000111011010111
00000000000010001101010010101111
11111111111101011111110110011100
00000000000001010011000101101001
11111111111111111010010011001111
00000000000000101011011011100110
00000000000000001000110000011010
00000000000001011000110010101001
11111111111111110011101110111100
00000000000000000010101101101010
11111111111110110110100100000110
11111111110111010001000000011001
11111111111111010110010110110111
11111111111111010011110111101101
00000000000001100111001101110010
11111111111111010111110100101001
00000000000010001101100110110101
11111111111010111111110011001110
00000000000000101101100100111110
00000000000000111100001110111010
00000000000001101110111010111100
00000000000000000101101011111011
00000000000011101000011010111010
11111111111100010000001101011001
11111111110110110000111000101111
11111111111110100100101101101000
11111111111100110010010011110000
11111111111110011000100110111000
11111111111101000001011000011100
11111111111011100101100110000100
11111111111101110110011100001011
00000000000011000001001011110010
11111111111101011000100111011000
00000000000001000110010010001110
11111111111111011011100010011110
11111111111100100000100011000000
11111111111001001000011110011010
11111111111111110010111111111000
11111111111011101001100100101010
00000000000000011111000100001100
11111111111110101001011101111011
00000000000111100111011001011110
00000000000011011110001001001111
00000000000010100001001001101011
11111111111101001000101001011010
00000000000000010111101101100111
11111111111101001111111001111110
11111111111100110001101110000001
11111111111111111110110110011000
