00000000000000110010000010110111
11111111111111100001110101000110
00000000000000100001011000000101
00000000000000000000101111001001
00000000000001010011000001001010
11111111111111110110011001111101
00000000000100110110011111000010
11111111111001111101000011000110
11111111111100111010010010001011
11111111111111100101101001100011
00000000000101101001110001000011
00000000000000101100100000111010
11111111111111101001101101011111
00000000000001000001111011011011
11111111111010100000001001000110
00000000000000010001100111011000
11111111111101011101100110101010
00000000000001000000101001101010
11111111111100111110010010000011
11111111111001101011101101101001
00000000000000100111010111001010
00000000000001111000100001111111
00000000000010010111111101100001
00000000000001101101011011010100
00000000000000000110001101111110
11111111111110111011011010100111
00000000000010100111001110111110
11111111111101000111011011101100
11111111111011100101111111100010
00000000000000011010010000110111
11111111111111110111000110011100
11111111110110010011010101001000
11111111111011001011001000000111
00000000000010010111000110000100
00000000000010011011101111111100
11111111111111001110010010000100
11111111111100001000010010100100
11111111111100111111011101111001
11111111111100111000001111111101
00000000000001010101100101111100
00000000000110110010110010100000
11111111110111011111011010011111
11111111110100110101010111101010
11111111111001101100100101101100
00000000000010011101000001001000
00000000000000011110111001000000
11111111111111000011100110000111
00000000000000010110000001100111
11111111111111111110001110111101
00000000000000000010111101011100
11111111111101010110010100010110
11111111111101010011011111010101
00000000000000010100000101000001
11111111111100100000010100101110
00000000000000100100000000011100
11111111111111111111000000001000
00000000000001000100111101101100
11111111111010100000101111000001
11111111111010101111010111001110
00000000000010101110011001111101
11111111110111011001011100000100
00000000000010001000001111110111
00000000000100111010001001011101
00000000000010000000001000100000
