11111111111111100100000100000101
00000000000000001101001101011011
00000000000010111011001000101101
00000000000001000110101111111111
11111111111100111101110010010100
00000000000000011110111000000001
11111111111000101001000110000110
11111111111110101110111000001111
11111111111000010101100000111010
11111111111111111100000110000110
11111111110111010010000100000000
11111111111100010101001111110111
00000000000101010111100100001001
11111111111001101011111011010010
11111111111111000110110000111111
11111111111111011110110001101101
00000000000011010000001000110000
00000000000000101111000111101000
11111111111100010100101011101110
00000000000100101110110000111111
11111111111111010100011111011010
11111111111001101110010110011100
00000000000000101101000001011110
11111111111101100100000010010111
00000000000000101101000001010110
11111111111001001010101111000011
11111111111110110011001100100110
00000000000010101000111000011101
00000000000010110111101011101111
00000000000110000001100001111100
11111111111111111110001000001011
00000000000000001010010110100000
11111111111011010110101010100000
00000000000000000111000110110100
11111111111001010001111101111000
11111111111111111001111111001111
11111111111011010110010000110100
00000000000001011110001110011101
00000000000110001000001001110100
11111111111101111111011011010110
11111111111010111100100010010010
00000000000000101110000000100000
00000000000000111011001001001010
11111111111110100000011100110001
00000000000000100000111100100010
11111111110111001110000111000001
11111111111110101111011001000110
11111111111110010010011111110101
00000000000000110010100101110110
00000000000000000110110111100001
00000000000101000011110100001000
11111111111011001111001110110001
00000000000000001010011111011000
11111111111101110110100000001101
11111111111001101111001110101011
11111111111011111101110000101010
11111111111101100101010000110010
11111111111011010000110110010000
00000000000001001001010110011010
11111111111111011100100011011001
00000000000010101001000100000011
11111111111101110001010111011001
11111111111000111011001111110111
00000000000000111011111010111111
