11111111111111101110111100011011
11111111111111100101001001011100
00000000000011100001011101000011
00000000000000101110110110001011
11111111111111001001001110111000
11111111111111011001001000110011
00000000000010100011011100001000
00000000000010000010110001000011
00000000000000111101110000100011
00000000000000110101101010011001
00000000000001000111101101111000
00000000000010001111110111001100
00000000000010100100001111110010
00000000000000110111101110010001
00000000000010101000100111011110
00000000000000001101011000100111
11111111111110011010000101011110
11111111111011011100011111000101
00000000000010101111101001110111
00000000000001111101001100000010
11111111111111011010101001011101
11111111111011000011100100111110
11111111111110011111001111111111
00000000000110110011100111111110
00000000000000011010001010111010
00000000000010001111001011010000
11111111111101011101001111101011
11111111111110011010010010000111
11111111111101111010011110111001
11111111111111000011100000100000
00000000000000101010010111110000
00000000000000010100011101010001
11111111111100001101111110111010
00000000000001000101000100101001
00000000000101101110010111110100
11111111111100001101000110011000
00000000000001101110111011011000
11111111111010110011000010101100
11111111111111000000110001100000
11111111111100001111110010010100
11111111111111100011011001000110
11111111111010000110110011100100
11111111111000101110001011100101
11111111111100100000010100000101
11111111111010110011010011001010
11111111111010010101101010011011
00000000000000011101000000111000
11111111111011101000111101000110
11111111111111011101000011111101
11111111111111001101100001100100
11111111111111011000110000101111
11111111111101001101011111110111
11111111111111101011111001101001
11111111111011011011010001100001
11111111111101000011001111000000
11111111111101011101101000011101
00000000000010100011100100111101
11111111111111010100001100010011
11111111111110100100000011011111
00000000000000110000000010111110
00000000000001111001001100101111
00000000000001100010010010111001
11111111111111000100100000111011
11111111111111111010111111100100
