00000000000000110101101010000100
00000000000001010101000000001000
00000000000000011111101010110110
00000000000000100011111000010110
00000000000001001101110100101111
00000000000001100001001100000111
00000000000000100110010100010000
00000000000000111101010100110100
00000000000000000111110100111010
00000000000000001111011010010100
00000000000010010010011101000001
11111111111101100111101000111011
11111111111101111010111010100011
11111111111110001110100100011110
11111111111110001001000000111000
11111111111111111010101001111011
11111111111111100011000000011100
11111111111101010001010111000100
11111111111011110111010010101100
11111111111101101100011001100101
11111111111110111000111011101101
11111111111111011010111110110000
00000000000001010101011111011010
11111111111100101010011000010100
11111111111001111111000000000000
11111111111110010000010111011101
00000000000000110100111011011000
11111111111101011100011010111010
11111111111110000100100000000101
11111111111110000010011100010011
11111111111111100110111010001000
00000000000000011110000111000001
