1111101000010111
1101001000
1111011001001010
1111111111111110
100111110011
1111011111110110
1111111110101110
1111100111110011
111010100
10111101110
1011011011
1001010011
10010100011
1111011000011101
100000111010
1111010111001000
1111100010010110
1111110101000001
1111011010000111
100000100011
1100000111
1111111011010111
1111110110100111
1111011011000000
1111101100001100
10100001011
100010010011
1111101011100000
1111111101001101
10001001111
1111010100100011
1111100110101001
1111010000001010
1111111101011101
1111111100010110
1111101010100000
1000000
1111011011110010
100001110001
1111111111001000
11110010001
10011101101
1111110001001110
1111001100110000
1111111110111000
1111111101
1111100000000100
1111111000011101
1111000101011100
1111011101110100
111110111
1111100010100100
1111101100101010
100000111
1111010010101100
1111010111110010
1111011110011011
110111011
1111001101000101
1111000110100110
1111001110000011
1111000100001000
1111110101100010
1111001100001100
1010111010
1000111101
100101101000
1111111111010110
10011011000
1111001100110100
1111111100101001
1111110111011101
1010011101
1111101111100000
1001000
1111110100000110
1111010101
1000100000
10001000100
1111101010
1111111111010100
1111101100111001
1111001011010101
1111110001111001
1111101100000111
1111001111000010
10010111110
1111011110
1111000111000010
1111100110111100
1111010111010100
1110110011
1000111000
1011011110
1111010101100100
1111110010010101
11000001110
1011100101
1111111010111100
1111010111110011
1111100001101100
10110110001
1111010010111110
1111101101101100
10010001010
1111011110011111
1111111011110001
11000010
1111110100000000
1111110110111000
1111100010100011
1111010101100010
1111101001100010
1111011010011100
1111111010101010
1100011101
1111001010101110
1111011101100111
1111101110011010
1111110001101000
110101011
1111110111010111
1111001111101001
1100100
1111110010101010
1111100100111001
10100100001
1111001011011100
1111011101111111
1100000100
1111001011010011
1111011100101001
1111100000100110
1111101010010110
1111111110111000
1111100010111100
1111011111110110
1111000101000010
101110010
10100110111
1000111110
1111010111001001
101100101
1111011110000000
100101000010
110111000011
101111000111
1111110101001100
1111100000
1000000011
100011010
1111111001000011
1111101001101101
1111111000000010
1111101010001111
100010010100
1111100010110101
11001100110
1111011111111100
1111111100100100
1111110001001110
1111101111001000
11101011111
10010010111
1111111110010011
110011001
11001001111
1111011101100000
1111011010010111
