1100110
11100101000
1111101101101111
1110101001101011
100001000000101
1000100101101
1010001001000010
1010110001111000
1101111101111101
1110111111101011
1110100011001111
10011011001
1111011001010110
10110000001
1111111000011110
1100100001001111
1111000000111011
1010001100000111
1101000011000000
1000000000000000
1000000000000000
1000000000000000
1111001000
1011111000000110
100101111111111
11000010001111
10000101000
11111001100111
110000000000010
111111111111111
1110011101111011
10110000101001
11011101111001
1111100001010011
1111111100101000
1011111010011101
1110100001000010
1011101000111101
1000000100010011
10000011111
1000000000000000
1011101000110010
11101010010001
1111101110000110
101011001100110
1111110010110001
1010101110010110
100100110110
1111100010101110
1111010101010001
1011100111111
1100011010001010
11100111011001
1001111110111010
111111
1010100010101110
1110111001100100
1101000011011
11000110010
11111001110
10011011001111
11100001101000
1111110011111001
1110100111011010
1001001111010
1100101011011000
1100111010111010
1000000000000000
100011101001100
10011011110111
100000100011100
1111100011100000
10011000110000
11111100111001
10100010110010
1111001010100
10100101011001
10001100101100
101000011110
1000000000000000
1000000000000000
10101111100111
10111100101001
1110011100110010
1111111100101110
11111001110011
101100110100
1001010100100
100010001011000
1011011000011011
1111001100100100
1100111010000110
1100100110111000
1111011110100001
1101101010010000
1100111100101001
1101111110110111
1110001011110
11001101100100
1100011110001
1101001001101
1110000000011000
1110010011010001
1001000111011001
1010011011000101
1111100011011100
101111101110
1010001101001011
1110001001011101
1101100001100010
10110001111001
1111000010101001
1011100011010000
10100011011111
1000000000000000
1100101000111000
100100001000
1110100111110
1111111100110110
1000000000000000
1001011111101100
1001101101101001
110001111110100
1010100100110100
1001011101110111
1110000101011111
1100010001010110
1000101111000011
1000111010111000
111111111111111
1101100010100101
1101111001010111
1101011001001011
1110100000111100
101101101101110
11110111001001
1000000000000000
1000000000000000
1000000000000000
1110111111101011
1111110110111110
1011100001110001
100000100111000
1000001001101011
1000110110110
101100011010001
11100110100000
10100110111101
1010001011101
1000000000000000
1000000000000000
1000000000000000
1110100001111110
10011100000100
1111001111010001
1010111010001
1110011101101
101111110001101
10011111000010
111111111111111
100001100110100
110100110101
1001000010100100
1000111000101000
1000000000000000
1101001001010111
100000011011010
1110000101110101
1111010101101011
