000000000010111000111011
000000000001111110001011
111111111111011011110110
000000000001100010001011
000000000011111001100101
111111111111100110001110
000000000000101101111010
000000000110100000011111
000000000000000100010001
000000000100111010111101
111111110111011000111100
111111111010101110000000
111111111010001010011110
000000000000000110110111
111111111111011110110011
000000000001010001010100
111111111111111100011100
111111111011000101101100
111111111010010110111111
000000000001000011011000
000000000001101100011001
111111111111001111110001
000000000000100101111111
111111111100110001010010
111111111101011111110100
