000000000001001111111001
000000000000010110111011
000000000000011100100101
000000000010011000100001
000000000000100001101111
111111111101101010011001
111111111110010100001100
000000000011100100001010
111111111100101011010001
111111111100001110100110
000000000011100100011101
000000000100101000110111
000000000010011110110011
000000000101110101110110
111111111001001111100101
111111111011001011100111
111111111111011111110011
111111111010000011101000
000000000011000100011100
111111111010011101111000
000000000010001000110111
000000000010010000010110
000000000001000011010001
000000000000001100110011
111111111101111101001100
