000000000011101110111100
111111111110011001111000
111111111101110101011000
000000000000100001000010
000000000000101110101100
111111111101011000010010
000000000000010000000101
000000000011001001000001
000000000010011110011110
111111111111100110000001
000000000000100111100010
111111111101000011001011
000000000010101010001101
000000000011101010100000
111111111101000010000111
000000000000000110010011
000000000010101101000010
000000000000101100000101
000000000001010110100111
000000000010100111110010
000000000000100101001110
111111111101110000001111
111111111001001000111100
000000000001000010101111
000000000011011100110111
