111111111110101000011101
000000000000011010010001
111111111111100010011010
111111111101100000110001
000000000010000011111001
000000000000101111011110
111111111110011001111100
000000000000000111000001
000000000000011011010101
111111111110101010000000
000000000001101011000101
111111111101100100101101
111111111011110011011100
000000000101001110111100
111111111111011011101001
111111111111100000111010
000000000011111001101011
000000000000110101001000
111111111101101100110011
111111111110011110110101
111111111010001100111001
000000000101010000000101
000000000010110110001001
111111111010010100010001
000000000010110011100110
