111111111011010100101110
111111111001001010110101
111111111100111000101010
000000000001100000101011
000000000001100110000101
111111111010000010101100
111111111000011001010010
111111111110001101000000
000000000101000001101001
111111111100101010101110
111111110110101110101101
000000000000101010101011
111111111111011110111111
111111111111010001100010
111111111100111100101101
111111111001011010101000
000000000100010001101101
111111111101101000101011
111111111101010100111010
111111111101100100010111
000000000100001000100000
000000000000111110011110
000000000001010101111001
000000000001010011010100
000000000001010100101011
