000000000011101001100110
111111111110101010011100
000000000011101110011110
000000000000110101100001
000000000000001100000000
000000000001101111100011
111111111100101010101100
111111111111010010010000
111111111110000001111010
000000000011010100100011
000000000000010110111001
000000000000111011110110
111111111110010000010001
111111111011001000001100
111111111101100001001011
111111111011101110011111
000000000101001100010010
000000000100111111001100
111111111111011001101000
111111111111111011100110
000000000000010100010101
111111111011000000110100
111111111010011101010110
111111111010110100001100
000000000000101111010111
