000000000001000100110100
000000000010010111111101
000000000010110000111110
000000000011100111011010
111111111111011101011110
000000000001111110001010
000000000001001111110100
111111111110101110001011
000000000000010000111010
000000000000110101101110
111111111101001101101111
111111111100110001100011
111111111101001111001001
000000000010110000001000
111111111101101111110101
111111111101000110000101
111111111000000000111011
111111111001100101000110
000000000011011000110101
000000000001010110101010
111111110110011010100111
111111111100111110000111
111111111000101110000101
111111111010101100111010
111111111001111111100110
