111111111110101110100001
000000000000100111110011
000000000100000111110110
111111111110000000010110
000000000000011111000101
111111111010100110000011
000000000000000111001101
000000000100100010100110
111111111101001111101010
111111111001001010000110
111111111010001100010011
000000000000101100110010
000000000001101111110011
000000000011110010101011
111111111010111100100101
111111111100000111011100
111111111100111100001111
111111111101111011001111
000000000001000101001110
000000000000011000101110
000000000010001100011000
000000000000100100100000
111111111110111101001010
000000000000001011100010
000000000001100100010100
