111111111101101001010010
000000000110001011101101
000000000001110001000110
111111111001000010001000
000000000100000100101010
111111111111101001111001
000000000000000101001010
000000000100000101101111
111111110111110011000110
111111111101010011001101
111111111011101011011011
000000000000111001101110
000000000100000011000101
000000000000000100011111
111111110110101101000110
111111111100111101001110
000000000010110101011110
000000000010000011100010
000000000001101111001100
111111111001100111011010
111111111111010100000010
000000000000101110100000
000000000011000111001110
000000000001001100000110
111111111011110000100000
