111111111101101001100000
000000000000011000001101
111111111111101101010010
000000000001000000001011
000000000000110000111000
111111111111110111010010
000000000010111110011100
111111111110101110011011
000000000000100111010000
111111111111011110111100
000000000011010100000010
000000000000000000010100
111111111111010100010000
000000000001010110011000
111111111110101011111000
000000000000100110101010
111111111110000011011010
111111111110100001111111
111111111110001110011011
000000000010010000010111
000000000010011011100110
000000000010000000010110
000000000001101110101111
000000000010100011001101
000000000000110000000010
