000000000100111101111011
000000000000010101000001
000000000001001101000111
111111111110010011010101
111111111101011100000011
111111111011101011000100
000000000000111110100010
111111111110011100111101
111111111110011100111100
000000000001000010001110
111111111000011011110001
000000000000100101111000
000000000010111110010011
000000000101110100010000
000000000011001010110000
111111111100110000101011
111111111011000010110100
111111111111011111111100
111111111001011110011001
111111111100111100110011
000000000000111110110000
111111111110111110000001
000000000110010000010000
000000000010100000110010
111111110101001011100110
