111111111101110110101000
000000000001010110110100
000000000001110010101011
111111111110111011000111
111111111101011110100011
111111111010111011100000
111111111101110101011101
111111111110111000011001
111111111111000010100111
111111111110101100010111
000000000000011000000001
111111111111000000111110
000000000000100110010101
000000000000001110011101
111111111111100011010011
111111111110011111100010
111111111110101100011110
111111111110001000100001
000000000000101001000111
000000000010000001011111
111111111111110110010100
111111111110010011011001
000000000011101011010000
000000000101000011001010
000000001000101001001000
