111111111110111001011110
111111111101001111101001
111111111110011100111000
000000000001101101111101
000000000001111011100000
000000000000110110011111
111111111110110010000001
000000000010010001100010
111111111101111111100110
000000000000000101110000
111111111110010010000011
000000000000001000000110
000000000010100100011111
000000000001011100101010
000000000010010000010011
111111111110010100011010
000000000100010011001110
000000000001011010110000
000000000000111101101010
111111111000101101010000
000000000001110100001000
000000000011110111000101
000000000011000000011110
000000000001101110110111
111111110100100011001000
