111111111111111101001110
111111111111111101011000
111111111111001001100110
111111111100110001010000
111111111010010010111110
000000000011000011111000
000000000010111001100010
111111111111111111101111
111111111101100000101011
000000000000100111110000
111111111101000001111111
000000000100000101101101
000000000001011111101000
000000000010000001000110
000000000010111100000010
111111110100001110111111
111111111001011100110110
000000000000010111110100
000000000100110010111011
000000000011101010100110
111111111100010101100101
000000000000001010000001
111111111111001011000110
111111111110011111100101
111111111101111110010000
