111111111110011001111111
000000000100011110111100
000000000010000000111000
000000000000001001110100
000000000100011011000001
111111111100110001110001
111111111111010001000010
111111111100101000001100
111111111100110101010000
111111111111011001111000
000000000010011000101000
000000000000110111011101
111111111110110000100010
000000000001011010110010
000000000001111010101010
000000000001111100000011
000000000000010001100001
000000000000110011110101
000000000010111110110000
111111111101011011000001
111111111111101011001010
111111111111111110000111
000000000100100011001011
000000000001101110001001
111111111110110100000111
