111111111010101000110101
111111110101111011001101
111111110010111100000000
111111110100001100001101
111111110110111101110100
111111111110111111001110
111111111110010010010110
111111110101010101010111
111111110111100010100010
000000000000011101101100
000000000011001001011000
000000000011010100101011
000000000010011010001101
111111111100101010111000
111111111110110101100110
000000000000111011101101
111111111111001010010000
000000000010110101001010
000000000000001011110100
111111111101100010011011
111111111110100101010101
000000000001000111010001
000000000011001101011001
000000000000110010011110
111111111110000011000111
