111111111110111010111010
000000000011001011011000
111111111101001101100111
111111111101110011111111
000000001000001100111110
111111111110100001101100
000000000010110100001100
111111111100000101010010
111111111100010101111000
000000000010110101000101
111111111111111000111011
000000000011110010011001
111111111011111101100110
111111111100000111101111
000000000100001000010010
111111111111111010011111
000000000010010011111010
111111111101011000100000
000000000000000011111100
000000000010001010100001
000000000001010000011101
111111111101110011110001
111111111100010000011100
000000000010011100101010
000000000001001100011011
