111111111000100110110011
000000000000101011001101
111111111111101100010100
111111110111101110101110
111111110111111001000100
000000000011001110111011
000000000000100001011011
111111111111000011101111
111111111110101000110100
000000000110111010101011
000000000001100101101010
000000000001010011001111
000000000000111100100011
000000000001001101000001
000000000100100110010001
000000000010101000110101
000000000000001010011001
000000000001011100101100
111111111100101110010111
000000000000011001101011
111111111101000101011101
000000000000001001010111
111111111111100000011101
111111111101101111010101
111111111101110000111111
