000000000001001010001101
111111111001100010111101
111111111010100000011010
000000000000011011000111
111111111101011111010011
111111111111100010010000
111111111000111011111101
111111111110010001111101
000000000010101010011100
000000000000100101010010
000000000010111011001001
000000000011111111000011
000000000011110001101011
111111111111100100011110
000000000000010000000111
111111111111001100010110
111111111110011111101011
111111111100010110010000
111111111111010001011000
111111111110001010110010
111111111110011011101101
000000000001011111101001
000000000011111001000001
000000000010111101100100
000000000010001010111100
