111111111110000111110110
000000000001000100010011
000000000010100100011111
111111111100100101111111
111111111111100111100000
000000000010100100100111
000000000000000010100010
111111111111100001110111
000000000000101011100011
111111111101100010010111
000000000010110100100100
000000000001001100100111
111111111100110100010001
000000000010000001111011
111111111101011111111000
000000000000110011111000
000000000011010010010111
000000000001101110001101
000000000000100111101111
000000000111010000100011
111111111001010111001110
111111111101000011100011
111111111000001100100000
111111111010101010001100
111111111111110110010111
