111111111101111101101101
111111111111101111111111
111111111111110000111101
111111111100010110111001
111111110011111101100100
000000000010000101110100
000000000011111110000100
000000000011000111111000
111111111110101000111010
111111111000101010101100
000000000000011000000010
000000000000110111001011
111111111111000101000110
111111111100111001011010
000000000000010111101110
000000000010001000010010
111111111111001111101011
111111111101101111001000
111111111110001101011000
111111111110011011100001
000000000000001110001000
000000000000010000100001
000000000010111100101111
000000000001110101001000
000000000010111000111001
