111111111111010111000000
000000000010010001000000
000000000001011100110100
000000000001111110110111
000000000011000101000011
111111110110100110111111
111111111111100011010011
000000000000010101100110
111111111111100110110110
000000000010111100001101
111111110010010101111001
111111111111110101000101
000000000010100000100101
111111111101111110001100
111111111101101000000001
111111111100111010000001
000000000001001101001111
000000000000100010001111
000000000001011101011000
111111111101101100110100
000000000010001111100000
000000000010100010111001
000000000001001110001001
111111111101110110100001
000000000000000011000110
