111111110111001111000101
111111110110001110011001
000000000101000010111000
000000000111011011011101
000000000001110111111111
111111111010110010001010
111111111011011101110111
111111111111100100100100
000000000001010101010110
111111111100010011111010
111111111111111101110001
000000000001000110101001
111111111111011100001110
111111111111001100011000
000000000010011000000000
000000000011111001011001
111111111111001101010111
000000000001110011000100
111111111110101100001110
000000000000000100110101
111111111111000011100010
111111111110011010010111
111111111111010110010100
000000000000000011000010
000000000010100000010010
