111111111110110111001110
111111111111011111001100
000000000010001010010001
000000000000011011001001
111111111110111010010000
111111111100000010000011
000000000001000000101011
000000000000110110101101
111111111101101101110010
111111111101010000111011
000000000000001100001000
111111111110011110011001
111111111100001010000100
111111111101110000001111
000000000101111010000101
111111111101011111001101
000000000001100111100110
111111111111000010010010
000000000000010000111010
000000000011101110111101
111111111111110110010001
000000000000001101000100
111111111111111111001000
111111111111100111110101
111111111111011100110100
