111111111101011110111100
111111111011100001011111
111111111011000001110111
111111111010101100011100
111111111100000010101001
000000000010000101011111
000000000010111001111001
111111111101000101000001
111111111011110111111100
111111111111101010000011
111111111111100100000000
111111111111010111100010
000000000000110110001010
000000000011010000111000
000000000010010100111100
111111111110101101101001
000000000001100100000111
000000000100000011001100
000000000010110100000111
111111111101111110010110
000000000001001100010100
000000000001100100001100
111111111100111000110011
111111111110100010011110
000000000011011000100001
