111111111011111110100100
000000000010101011000010
111111111111010110110011
111111111110100011011011
111111111100111000110101
000000000011001001000111
111111111101111111011101
111111111111000011101100
000000000011010001111111
000000000001000101111101
000000000010110111010100
111111111111011100011010
111111111110100010011111
000000000001000001001100
111111111101111111111011
000000000000111011100111
111111111100010111111001
111111111111000000000110
111111111111001110100011
111111111110001101111010
000000000101010100001100
000000000000110100011001
111111111111101100100101
000000000001100011011000
000000000001001000111100
