000000000101101001101111
000000000010101011010000
111111111101010111110111
111111111110001000010010
111111111101000111111000
111111111111010110100010
111111111101010001010010
000000000000100110111011
111111111111000100101010
111111111110000100011011
111111111101001111010001
111111111111000001111000
000000000000010000100100
111111111101001100111011
000000000000111010110100
111111111101101001110000
000000000001010100010100
111111111111000000010110
000000000000000101100001
111111111101110011110111
000000000010110000011001
000000000101111100100010
111111111010011011011101
000000000010001001010100
111111111111100111100111
000000000100000100101010
000000000000000010010010
111111111110011011011011
111111111111100011110101
111111111101110100110101
111111111110011001001110
111111111111111101001010
111111111111011011000111
111111111100100100101000
000000000000111111010111
111111111110101000010000
111111111110111011110001
000000000001000000010011
000000000010001001101011
111111111101000010010101
000000000101000101111010
111111111110010010100100
111111111100110010110100
000000000001000110110011
000000000010111111100010
000000000011011010100110
000000000010001001000000
111111111101011001010000
000000000000111101010111
000000000000110111111010
000000000011100011011011
111111111100011110110010
000000000100000110010010
000000000010110110101010
111111111110110001001111
000000000001000001010011
000000000010000101011011
000000000010000010000010
000000000010000001100100
000000000010001010010001
000000000100000100010001
111111111110011000100111
111111111010111010010110
000000000000111100101010
000000000100101000100010
111111111101001110100100
000000000011000001100111
000000000000001001100110
111111111101001100110000
000000000010001111100010
111111110110010100101010
000000001000000011101101
111111111101111100011010
000000000000001011101011
000000000001110110000100
000000000001000100111100
000000000011011111001011
111111111011010111100100
111111111100011111000111
000000000011101000110111
111111111010111000110000
111111111101101010011011
111111111011001101111110
111111111101101110101011
111111111101101011001000
111111111011110011110100
000000000100010001111000
000000000101011001011100
000000000001011010111010
111111111101011010100010
000000000010100001011101
111111111111011011111011
111111111100000001000100
000000000101100110011001
000000000011010111100000
000000000001000100010000
000000000001100000101110
000000000110110000100011
000000000110001000100001
000000000010111111111110
000000000001101000111000
111111111110101001000111
000000000100011110011100
000000000001011100101101
000000000000001101011001
111111111101100000110010
111111111101110101100110
000000000010010100100110
000000000000101000011100
000000000000110001101110
000000000000110100100001
111111111110000000101101
111111111111010001100010
111111111110000110000110
111111111111010111001000
000000000000100000000010
000000000010000001011111
111111111100000011100110
000000000001000110011000
111111111111010001111100
000000000010001101010101
000000000000000100010110
000000000100110011111010
111111111110010100100101
111111111110111101010011
000000000000110100100000
000000000000100110100000
111111111100101100110101
