000000000010011100011011
000000000010100101001001
000000001000110001100000
000000000000101110001011
000000000010001011101101
111111111011011101110011
000000000001101100110000
000000000011100111001101
000000000010001011000110
111111111111010110101101
111111111101101000110001
111111111111011011000000
000000000000000111001111
111111111010001100110110
111111111100110010000011
111111111111010001100110
000000000000110110001001
000000000000100010111011
000000000001011101100101
111111111110000111100110
111111111110001000001001
111111111111000100010111
111111111110101010011001
000000000000101101100100
000000000011010011011100
000000000101010111100100
111111111010011110110111
000000000100000100100010
000000000000110111011001
000000000010100010011101
111111111111110101110011
111111111111101100001110
111111111100101011000001
000000000010111010011000
111111111101011011110101
000000000000111001100010
111111111111001000101111
111111111111000001010100
000000000100000001000101
000000000010001101100001
111111111111101000001000
111111111001011010000101
000000000010000000000110
111111111000011000001111
000000000000000110110101
111111111101100101000101
000000000011110110101000
000000000100010111011010
111111110111110100000010
000000000001010000110110
111111111001110101101101
000000000000001101010001
000000000011110000000011
000000000001000110100001
000000000011001100010011
111111111110010100111110
000000000011101000100000
000000000010100100001100
000000000010111100100101
111111111111100101000100
000000000000101111100110
000000000000101000111100
000000000010000101001001
111111111111111000001101
111111111111111011001100
111111110111010110110100
111111111010110000100100
000000000101001110101110
111111111100100110111101
111111111100010110000001
111111110110111101100000
000000000000101010011000
000000000010001111111100
111111111100100010011101
111111111010101100011110
000000000010001000100111
111111111110001101101101
000000000000000001110001
000000000001101000101000
111111111110010110100000
111111111010101011111111
000000000001000101111110
111111111101110100010001
000000000100000111101110
000000000000000010010000
111111111101111010000101
111111111101000110000000
111111111011011011010101
111111111101111010100111
111111111111000111100110
111111111111111000100000
000000000001111001001111
111111111011110011011010
000000000000000110101010
000000000001101001011111
000000000010101100011110
111111110110011111000101
000000000000101010000010
000000000001010101111100
000000000000001100100001
111111111110011010011101
111111111111000100111101
000000000000011000110010
111111111111100001010100
111111111011000000101101
111111111111011001111101
111111110111110111100100
111111111110110000111101
000000000100110111100101
000000000000011101001010
111111111101111110101100
111111111111110101000011
111111111101101111000101
111111111010100101011010
000000000010110110110110
000000000011011111100101
111111111100011101111100
000000000000000101110110
000000000011010100000111
000000000010101010010010
111111111100101101111011
000000000010001000001000
111111110111010001101010
111111111110000111010111
000000000101101011011100
000000000000000110011000
000000000100000100011100
111111111010001110000010
