000000000000101111100111
000000000000001100000111
000000000101011001111100
000000000000010101001001
000000000000111111001011
000000000001100111000010
111111111100110011101010
111111111111011011001001
000000000000000001011010
000000000100111010100010
111111111011100010000001
111111111101010001001110
000000000010010001100101
000000000110111110100010
000000000011000011010100
111111111100110101010101
000000000010010011111001
000000000000110011101110
000000000011001110000111
000000000001101011100101
000000000000101101001001
000000000010001001100101
000000000011111100100101
111111110011010010111011
000000000000101110011010
111111111110011111000111
111111111010000111000010
000000000000111000101000
111111111111001110101100
000000001001010010100011
111111111111110010110101
111111111110110110000001
111111111111010000101101
000000000010110101110011
000000000010100000111100
111111111111001010010100
000000000110001110000100
111111111100111110001101
111111111110111011111001
000000000000011001001011
000000000110001110100111
111111111101100110101111
000000000011001010001110
000000000100101001000111
000000000001111110110001
000000000011010001100010
111111111111010111010011
000000000000011111010000
000000000100011101011100
000000000011111000000010
111111111101000011101000
111111111110011101101001
000000000110011101000010
000000000001111001100011
000000000010001010101110
111111111110101110100111
111111111101110111100011
111111111001111111111001
111111111111001010110000
111111111110000111111001
111111111111100110111010
111111111011001000010110
111111111101001011101010
111111111110001101101111
111111111111110101010001
000000000000001101101011
111111111111110111100100
000000000001111100000110
111111111111101111010101
111111111101001000010011
000000000100101100000111
000000000110010000110001
000000000100100111001001
000000000000000100011001
111111111101011101111011
000000000000111100101101
111111111101000011101001
111111111111111000100001
000000000001010011001110
111111111110000111000110
000000000100100110100010
000000000011111011110011
111111111110101111111001
000000000001011001011010
111111111110010011101011
000000000011000001110010
000000000010100010111000
111111111100101110001110
000000000010011101101110
111111111110110011000100
111111111111000111000000
111111111110100110000010
000000000110010011001010
000000000001110001011111
111111111110111000000111
000000000011001110101011
111111111110110101011011
000000000001110111100000
000000000101100011110000
111111111111111001010010
111111111101111110010110
111111111110011101000100
000000000010101001111111
111111111110000000010110
000000000110001001000011
000000000010110110100010
000000000000011110110100
111111111101101001101100
000000000011111001010111
111111111111000000101100
000000000111110010010011
000000000011111000110110
111111111110100011000010
111111111111011110000001
111111111100000011100011
000000000011011011100000
000000000000100100010001
000000000011110110110110
000000000000000000100100
111111111111010001101001
111111111110000001100111
000000000001000100111011
000000000010110000110001
000000000011111110000000
000000000010100010011000
111111111110100101101011
000000000010101100001010
111111111101010100101010
