111111111100010110100000
000000000011010000101101
111111111110010010110001
111111111110000001110111
111111111110001001100111
000000000001011110101100
000000000110110000111101
000000000001010001100110
111111111111101011001000
111111111101110101111010
000000000000001000010100
000000000001000111100111
000000000101010011001000
111111111110110110010000
111111111110110111111011
000000000000001011011001
111111111110010001101101
111111111100001001000101
111111111110011111001111
000000000011000011110001
111111111100001101001101
111111111011101001001000
000000000010110010100010
111111111101110010011111
000000000011101011101001
111111111011000110001110
000000000001011010100100
000000000100001011101100
000000000001011100110100
000000000101000111001111
000000000000001111001111
111111111110111111111011
111111111110010110000011
111111111101110110100000
000000000001010011010100
000000001000011111101000
000000000001111001001000
111111111111001011010011
000000000011001101100101
000000000000101111000010
111111110011100110111010
111111111110001000011110
111111111111001100101110
111111111110110110101011
111111111101111111110100
111111111110011100100000
111111111100101011111100
000000000010100111101001
111111111011000001111110
000000000100010011111101
111111111011111001111101
000000000010010110101000
000000000100010010110000
111111111111011100110110
000000000001000011110110
000000000010111001100101
111111111100111111111000
000000000100001010011110
000000000011101011010101
000000000010000001111001
000000000000010101010111
111111111001000000100100
111111111111101011100001
000000000001110000010100
000000000000011000011010
000000000011001010110111
000000000001101101100011
000000000101001001110000
000000000000111010101110
000000000011011100100011
111111111110101001011110
111111111000000111001101
111111111111000010101000
111111111100001000001011
000000000000111010111101
111111111101111100011110
000000000000000001110001
111111111111110001101010
111111111111001010111001
111111111101111000111110
000000000100001111010001
111111111101000010000110
000000000100010010111001
111111111111001001000111
111111111100110101111000
000000000110011000101110
111111111111011100100100
111111111110111110100100
000000000011011010000101
111111111011011001111001
000000000000100000011111
111111111111110101000010
111111111111000110110011
000000000001111011000111
111111111100000110100001
111111111011100111101010
000000000001010011110101
111111111011001100100010
111111111111100111001011
111111111111101101000001
000000000000100010001101
000000000001111011110010
111111111110110100110100
000000000011010111111001
000000000010000110010010
000000000000111001011100
000000000100100100000111
111111111110010101101001
000000000000010010011011
000000000000111001011011
000000000001100000001110
000000000000101110011100
111111111101000010000001
000000000110001011010100
111111111100101111111111
000000000000000100100010
111111111110101110110100
000000001000010100011010
000000000111100111100100
000000000011110101001111
111111111101011001100110
000000000000100000011011
000000000010000101110100
000000000000011000110001
111111111111101010011101
000000000000101110011010
111111111000001100110000
000000000001100010100010
