000000000101010001010110
000000000111111111100110
000000000010001101101111
000000000011100001100111
111111111110111010111010
000000000011110001101001
111111111011011100000001
000000000000011001101001
000000000000100000100001
111111111100111110000101
111111111110110000010011
111111111001101101111010
000000000010111101010110
111111110110010110101010
000000000100001110011010
111111111101111100011110
111111111110100101010100
111111111101110100000010
111111111011101010011111
000000000001110000011111
000000000100100111001010
111111111101111101000000
111111111100011101100011
111111111111001000010000
000000000010110010100111
111111111111011001001110
000000000010111011111010
000000000000000101110101
000000000001111000100001
000000000010000110001100
000000000010010110000111
000000000001110011001111
000000000011000111011010
000000000011010110111011
111111111101000100010011
000000000010010001001111
000000000001100111010010
000000000001110101111100
000000000010101010100111
111111111101101100101101
000000000010011010101000
111111111011010111100011
000000000000010011011111
000000000010111000101101
000000000100010010111011
111111111111101000111010
111111111010111011100001
000000000011000010100011
000000000010010100001101
000000000010110110000000
111111111001110101100010
111111111111101111110110
111111111111110101101011
111111111100111101101001
000000000001000000110100
111111111101111010011010
111111111101111011110111
111111111011100111001101
111111111110101000010111
111111111100101001000000
000000000000100101000011
000000000100100101000011
000000000001101010000011
111111111111001110100010
111111111100111111010100
111111111101010001101010
000000000001110010000100
000000000011001011010110
111111111110101110001111
111111111111110001110001
111111111100111011111110
111111111100001100011100
111111111111001000111110
000000000010010011100101
000000000011110000100001
000000000000101000010111
111111111111111001111001
111111111110011100110010
111111111100101010111100
111111111111100001100010
111111111100000110010110
111111111101101011010110
111111111100111110110101
111111111111000010001110
000000000001001100100011
111111111001110111110110
000000000001000110100011
000000000000110011011000
000000000010101011110001
111111111010111011101011
000000000011111011000100
000000000010010010101011
111111111110000010010111
111111110111111100101110
000000000010110010001000
111111111110000000111111
111111111010010100111100
000000000111001101111101
000000000011000010101010
111111111111010001100010
000000000001000100111000
111111111111101100100000
111111111000110101000010
111111111110110111000101
000000000010000001000110
111111111010001111111000
000000000000010110010010
111111111111111011111111
000000000010011101110111
000000000001010010100111
111111111001010100010011
111111111010110111000110
111111111101100111100111
111111111100110000000001
111111111100100100110011
111111111111000101100110
111111111111001011101110
000000000000100011100000
000000000000011011011101
000000000010101100111101
000000000110011110101100
000000000000011110001001
000000000001011101011101
000000000000000101011111
111111111101111111000011
111111111011011011101100
111111111111011110100011
111111111000010001111101
