111111111110011110110011
111111111110111011000010
111111111101010000001101
111111111111100110101111
111111111111111100111001
000000000001001110001011
111111111001000010101111
111111111111111101010000
000000000001111101111011
000000000000001110111010
111111111100100000001101
000000000110001000101111
111111111101000101111011
000000000000111101101010
000000000010000011000010
111111111111110011000111
111111111110101110110101
111111111110011010111100
111111111111110001111101
000000000000111011100100
000000000000100101100100
000000000100101010110111
000000000010111100011100
000000000100010001101111
000000000100000011001110
111111111100101000001110
111111111011111001101001
000000000001000010111101
000000000001100110001101
000000000100110111000110
111111111100001000000110
000000000010001101111000
111111110111011100000000
111111111000001011001100
000000000010111010000011
000000000000100000101111
000000000000001011101011
111111111111100001100010
111111111111100101110011
000000000111001111110000
111111111110000011000011
111111111011011110001110
111111111101111010001111
000000000010111010101011
111111111100111100010001
111111111100010100011011
000000000011010110111010
111111111100011100010011
000000000000110000100101
000000000010111001000010
111111111111001101100000
000000000001010100110011
000000000010101010100100
000000000011100110111001
000000000000100111100001
000000000000001000011110
111111111100110001111011
111111110100110100100101
000000000001100111111100
111111111101001001110111
111111111101111000001010
111111111010100010101000
111111111111001101101011
000000000001110011000001
111111111111110111011110
111111111111111001011011
111111111111010000111010
111111111100111101100011
000000000010100010101101
000000000011100101110001
000000001000100101001100
111111111000011010011100
000000000000000001000000
111111111101101010100100
111111111101101110010100
000000000001001001010110
111111111100001001100001
000000000000100100110100
000000000001000110101011
111111111011000001010001
111111111101110010111010
111111111111110010111010
111111111100010100111000
111111111111101100111110
000000000010010001101000
000000000100001000000100
111111111110011100101001
111111111101110000011101
111111111101011011100001
111111111010001010111110
000000000000100001011111
111111110110010110100000
000000001000110000100011
111111111111011000111000
111111111100100011010110
111111111011111110000110
000000000001000001100011
111111111110101100100110
000000000100000010001000
111111111100001110000111
000000000001110101000010
111111111101011011101001
111111111010110111101110
111111111111100111110000
000000000100110110110011
111111111110010011001111
111111111110100101101000
111111111101000010111101
111111111111101000000001
000000000010110001000010
000000000111000001101101
000000000001011010001101
111111111100010101110001
000000000100101010001010
000000000001100011000011
000000000101110101100101
111111111100110000100001
000000000010011000111001
000000000011100000010101
111111111001100010011111
111111111111001111011111
111111111001100110001100
111111111110101000000101
000000000011110110010100
111111111111011101100101
111111111010100000010110
111111111010001110111110
111111111111110100011011
