000000000001011011100101
000000000010001101100011
000000000001110011000111
111111111100000010001001
000000000010001011100010
000000000011101110001100
111111111110110101101100
000000000001011001011101
111111111110100111011010
000000000001111111000101
000000000001010000100000
000000000011000000011011
000000000011101011010011
111111111101100000101011
000000000011000001110001
000000000000010011010101
111111111101100010110010
000000000000111010011110
111111111101000101001000
000000000001010010100011
111111111111100101111011
111111111111001101110001
000000000001010110000111
000000000010011000100101
000000000111011011101001
000000000100100101001100
111111111110011001100111
000000000001111011101000
111111111101111110101100
000000000100010111101110
000000000010101001001100
000000000010000011111111
111111111111111010001100
111111111101000000100000
111111111111101011100110
000000000000111010000110
000000000010011011101101
111111111011110011010011
000000000010110100000011
111111111111101110110100
000000000001011010001001
111111111100110001000001
111111111111100100000001
000000000001110010100101
000000000001000001011101
000000000001001000011110
111111111101100110001110
111111111100110100010111
111111111101100000001100
000000000101101100101101
111111111101111001111011
111111111111111110110111
000000000001110100100100
000000000100000111010111
000000001001011111100111
111111111111010101110110
111111111101101101000000
000000000000100110110111
000000000000000101111101
111111111111001101100111
111111111101010011000111
000000000001110100110010
000000000010011001110011
000000000001011001011101
111111111100000110011110
111111111111001000001100
111111111100011111110110
000000000011111010100001
000000000010101100011101
000000000001001100000011
111111111111111100010010
000000000010000011110010
000000000111000111001011
000000000011010110001001
000000000000110101001000
000000000000100010110110
000000000001111111101001
111111111100011010001011
000000000011101011110001
111111111101110011111101
111111111111110111101110
000000000001101101011001
111111111101111100000100
111111111111111010100000
111111110111111011011110
000000000110010001110000
000000000001100000100001
000000000000101001101010
000000000111000110111010
111111111100011011010101
111111111011110101000010
111111111111001011101100
111111111111101001100000
000000000000001011110101
000000000010111000101100
000000000010010101101000
000000000001110110010100
111111111110100011001110
000000000010100101101110
000000000111000110000010
000000000001001110100001
111111111111110100000001
111111111101111110101011
111111111101110110000011
000000000000100101011101
111111111011101010011111
111111111100000010011111
111111111110000011000101
000000000010011100011111
000000000000111000100011
111111111111101111101100
000000000001000000010110
111111111111000110011000
000000000001101100101011
111111111110001101101100
000000000111100000000110
000000000010111110110111
111111111100001100011110
000000000010101111101111
000000000110000101000100
000000000000000000000000
111111111111111001101000
111111111110000101001000
111111111000001110101100
000000000111000010101010
000000000001010111100101
000000000010110101010111
111111111011000111100000
