111111111001101000001000
000000000000011100001010
000000000001000101000011
111111111011100100001111
111111111111101001110110
111111111110001111010010
000000000000010010100100
111111111111011111100000
000000000001000011110001
000000000010110111001100
000000000000110010110001
111111111101110000001100
111111111101101101100001
000000000000101101101100
111111111111110101110011
111111111110110110100010
000000000010011111000101
111111111010010001000011
000000000011001011000111
000000000001111110011010
000000000001110110001111
111111111011000011010011
111111111111000000011000
000000000000101010001001
000000000000111101100111
000000000001010110011100
111111111101111010111111
000000000001110100110001
111111111101001110110111
111111111011100110010001
000000000000111001000101
111111111101101011100001
111111111111011010011001
111111111101001110101010
111111111111111101111000
111111111101101100110111
111111111111001000110011
000000000010101000010001
000000000010000101110001
000000000001101001000000
111111111111010100110100
000000000000101001111100
111111111110110100010011
111111111110111101000110
111111111110001101110011
111111111000101000111110
000000000010011000001101
000000000110010111010001
000000000100110110011010
000000000000101100000001
111111111110010100011111
000000000100100111010000
111111111100011011110010
111111111111101101101010
111111111110110100010100
111111111110000111011001
111111111000111011001101
000000000011110101110111
111111111111100110000010
000000000010010001011111
111111111010010000011000
111111111101101010010101
000000000001110010000101
000000000000001000011001
000000000010100000100001
111111111110101010101101
000000000001001010010010
111111111101110001101001
000000000010111100001011
111111111100101110000010
111111111001001011101111
111111111011100111001011
000000000001111111000001
111111110110110001111111
111111111001101110011001
111111111100001110110010
000000000001111000101101
000000000010110100100010
111111111110001001110001
111111111001001110000110
000000000001101110000010
111111111101001110011110
111111111100010111011000
111111111101110010011010
000000000001100001001011
111111111100100101011011
111111111110111100011010
111111111111000111011100
111111111100010010001111
000000000101000011001101
000000000000010111000011
111111111111100001011110
000000000101000011001001
111111111111011010100100
111111111111000011001100
111111111111111111111111
000000000011101111010010
111111111101000100110000
111111111100000001000001
111111111010100010100100
111111111100111011001000
111111111111000100010100
000000000010111010101110
000000000010001011011100
111111111101010000000000
000000000001111100000001
000000000000110001110101
000000000000110011001011
000000000001000011100101
111111111110110111011001
000000000010111011011000
111111111011110000110100
000000000001101111101111
000000000101100101001101
111111111100110111110000
111111111100000011111001
000000000000101100000101
000000000001111000011111
000000000000101011001011
000000000000100011011010
000000000000001010001010
000000000000110110100011
111111110101100110101010
000000000001100101100110
111111111101001100101011
111111111010110000110001
111111111100111111111010
000000000001100111110110
