111111111011011010110101
111111111110100111010000
000000000101010001110011
111111111100110111011010
111111111101111101010001
111111111001010010110011
000000000100011111010101
000000000001000010011000
000000000011001010000010
111111111000011100001000
111111111011110101010111
000000000110011111101100
000000000001100011100000
000000000000010010011000
000000000010100110011110
000000000000100011101000
111111111010011000010011
111111111100110011000110
111111111111110011100000
000000000101001011001011
000000001011100000000101
000000000111000010100010
111111111100000101101101
111111111010111000110011
111111111110010001110011
111111111100110100110111
111111110110100001011101
000000000000110011000110
111111111000101011111100
111111111111011110001010
111111111000011000100111
000000000001110101100101
111111111111111101101100
111111111111111011001000
000000000110001001011011
111111111111011100010010
111111110100110000101111
000000000000011000000111
111111111101111110111100
000000000101111110001010
000000000000010001001100
000000000011111000111001
111111110110100110111001
000000000000111001010101
000000000000000101010110
111111111110010101001101
000000000000110001100011
111111110110110110111000
000000000000111001001110
111111111000000001111101
111111111100011100111000
000000000010101001110001
111111110110001011000101
000000000101001111100010
000000001011100010011100
111111111000000111001000
000000001001001001100000
111111111111100000001000
111111111010001001100010
000000000001111001110110
111111111101100011101101
000000000011000011010000
111111111111010010001010
111111111000101010110100
