000000000011110001011000
111111111100000110101010
000000001011110000000100
000000000011000100100000
000000000100100001111110
000000000100001111111010
111111111011100001001110
000000000101010111001001
000000000001110011110111
111111111101010000111101
111111111111111100011010
111111111101101110001110
111111111001011111001000
111111111110001110101111
000000000001011000110001
000000000011101010010101
000000000000011111100100
000000001011000101110111
000000000001010001000111
000000000011101010110001
111111111010100010011000
111111111000001100100000
111111111010001011101011
000000000011111000010100
000000000100000010110100
111111111010010000110001
111111110111111110101110
000000000010011000011110
111111111111101001000001
111111111001001010110010
000000000000111010010010
000000000011011100000000
111111111100010010101110
000000000100101101100011
000000000000101100101011
111111111000110010101100
000000000101000101111000
111111111110101111010110
000000000010010111111110
111111111011111000100000
000000000000111001010100
111111111110000000110111
111111111100100110000111
000000000110011111010000
000000000001000001010000
111111111100100011000111
111111111110011100010111
000000000100111111101000
000000000011001011111111
111111111111001111001101
111111111100100111100010
111111111111101000011000
111111111111100101010010
000000000101010001101000
111111111111000010001001
111111111011111001010011
000000000101100111010011
000000000001001101111101
111111111000111100100001
000000000011100110000111
000000000100001010010010
111111111011011010101010
111111111111101100011111
000000000100011100110111
