1111100001100101
1111011010000110
1111101000011111
0000011001101100
0000100001100110
0000011110011001
1111011111100010
1111110101101100
1111100011101000
1111010100001100
1111111110110101
0000000011001110
0000100110001110
0000001110111001
0000000111110111
0000001101000100
0000011010010000
1111010101110110
1111001011011101
0000000101111110
1111101010101110
0000001000010111
0000010011000000
1111100100100110
1111101100100111
1111101111010100
1111101111111010
1111011111011110
0000100100011010
0000001010101010
1111010101000011
1111101101100010
1111010110111000
1111101000101111
0000010010111011
0000010100011001
1111001011100111
0000001011011101
1111011000010000
0000001011000111
1111110100111011
1111111001110111
1111100111110101
1111110011011100
1111011011100011
0000001001011101
1111110111101000
1111101001010010
1111000110001000
1111101010001111
1111011001000100
1111011010111011
0000001000011110
0000101011011001
1111101010101111
1111100010100011
0000001111100011
1111011000100101
1111001110111100
1111011010100110
0000010011000011
1111110111101110
0000010001000110
1111001100100011
0000010111111100
0000010110011111
0000001110011100
1111011001111011
1111011011101001
0000001010111010
1111101101011111
1111010001111111
1111101010011011
1111111011000100
1111110101011111
1111110011000100
1111101011010010
1111111101111100
0000000110110111
0000001011001011
1111001101010110
1111101100010110
1111101010100111
1111000110110001
1111111110101001
1111000100000001
1111010110000101
1111011110010011
0000000111101100
1111101010111101
1111100010001111
1111001001100011
1111111000001011
0000000110001010
1111011101100010
1111011111001010
1111101010110010
1111000101011101
1111011011001111
1111110110110110
1111101100110010
1111010000000101
1111000101111010
1111001101111000
1111100110001000
0000000100110110
1111001110000110
1111110011011101
1111011111100111
1111011011110110
1111100101011110
1111001010111001
1111110010010100
1111001100101110
1111110010001010
1111100001001111
1111101111100101
1111111011000000
1111100111111101
0000001100000111
0000001101000100
1111110100110001
1111011110001011
1111001100011010
1111111110110110
0000010010010110
0000001110101101
0000010000101101
0000000110011111
1111110110010010
1111010101001001
1111111101011010
1111111110011011
1111011001000101
1111000011000001
0000001100010100
1111010111011010
0000010000010111
1111101111101000
0000000000100001
0000001111000110
0000010100001110
0000011011101001
0000000000101001
0000100000010111
1111111111110000
1111111010111010
1111010010010011
1111011010000111
1111001110101010
0000010001110011
1111001001010010
0000000011101011
1111111000000001
1111010110011000
0000100100101010
1111110101000100
1111011001000000
0000100010100011
0000000110100110
0000101001011000
1111111011011010
1111001110100011
0000000101101010
1111110001100101
1111010100001100
0000000000010111
1111001111111111
1111110110100101
