1111101001111100
1111111101100111
1111011010110111
0000011000100000
0000010101100101
0000010010101110
0000011111100111
1111111111101011
0000100010001101
0000011011110010
0000000010011001
0000010110100001
0000011001000011
1111110110100101
0000101000011100
0000010100111101
0000001100111100
0000011011010111
1111010110101001
0000110110111000
0000100011010111
0000000010010100
1111111001100000
1111101000111110
1111100010000101
0000011011011011
0000001111100010
0000011000011000
1111101010011001
1111010011111011
1111001000011001
1111001100001001
1111001100001000
1111111000110101
0000001110111100
1111011000100100
1111100101000101
1111110100010101
1111110001100101
1111110111001100
0000010001111000
1111100111011100
0000010101001001
1111110100111010
1111010011110101
1111010011011110
1111001010000000
0000000100011111
1111100010111001
0000010100100111
0000010110111110
1111100110111010
1111110101101001
0000100011011110
0000001101000001
0000010111111110
1111100010011110
1111011110111100
0000001000000100
1111011010011110
1111010110100111
1111110110000000
0000010110110111
1111110001001100
1111101101001011
0000010110010110
1111101111110010
1111010011111011
0000011110001011
0000000110100101
0000001000010011
1111000001101111
0000001010001011
1111000011011100
0000100000111101
0000001001110101
1111101111010000
0000001000111101
0000010110011111
1111101100011101
1111001101001110
0000101100110111
1111011000011110
1111110100101100
1111100101010100
1111111100110111
1111011110010010
0000010100101001
1111101111110000
1111010000011001
1111110001111001
1111001101010101
1111110011011000
0000010111001001
1111111010100011
1111111011000101
1111001011011110
0000001110001110
0000000000100010
1111111010000110
0000001011011010
1111110101011001
1111101111000110
1111100100100001
1111001000010000
1111111010100000
1111101000011111
1111101111110001
1111001010111110
1111101000110001
0000001100011000
1111110011010010
1111110001111100
0000001100011100
1111000100110011
0000010000111010
1111100101110111
1111001110001100
0000001001001111
0000000001011001
1111110011111100
1110111111101011
1111101101001111
1111011001110100
0000000000110010
1111010101011000
1111101110010100
1111100101110100
1111100110101000
1111010011101110
0000001100001101
1111001010100010
0000001101111010
1111001011100001
0000000000010000
1111010011011101
1111000101010111
1111101100110010
0000010011000001
1111100110101011
1111111000011001
0000101010111010
1111101001001010
1111011100001011
1111110011100000
1111010010001010
1111111010110100
0000011010101100
1111111110100001
1111111001010011
1111010111100000
1111001100000101
0000001000110011
0000000000000001
1111111001001110
1111011011010100
0000010010001010
1111100110110100
0000011101110000
1111101111001100
0000010110001100
0000000011001110
0000011000001000
1111110001101101
0000011011011000
1111011101000111
1111111010001001
1111101010000101
0000100110001001
