0000100011011110
1111110110000110
0001001001101110
1100000110001111
0000000000101100
1011100110001011
1001110100101010
0000110010101000
0001100111101100
0001010111001100
1101101111101100
0000101100111101
0000011111000110
1111000010111100
1101001010001001
1111000001010100
1010111000101110
1101100111110000
1011001001010101
1010110000111000
1000000000000000
1000000000000000
1011111100110001
1100000001101100
0010010111000101
0010000110000000
0011110010000010
0000111100101110
1011100101001100
1111101000110101
1110101010111100
1001111101111110
1111001000110101
0011100011110111
0000011010110110
1101100001011111
1111100111111010
0000101011100101
1001100110010110
1000000000000000
1111110111001011
1100101011100011
1100111000010011
1011101100000110
1110000110000000
1101010011111000
1110111100000110
1111111111011000
0001111110111011
1111100000010100
1100111100001111
1000000000000000
1110010011001011
0001111100110010
0100010101110010
0100100100010111
0110101010100000
0111111111111111
0100001010101111
0001011011101110
0011010101001110
1111110110011000
0001010111110101
0011111000010100
1000000000000000
1101101011010111
0010001110111101
0111101110110001
0111111111111111
0100101001001101
1010100000011101
1100011111100010
0000101101000001
0001001010101010
0001011010010011
1110111101001000
1000111010101110
1110111000010011
1000000000000000
1000000000000000
1000000000000000
1000000000000000
1000000000000000
1000000000000000
1101011101011110
1111000001010110
1110011011110010
1101000000010010
1100100011011011
1110100110000110
0111111111111111
1111110011100011
1000000000000000
1000000000000000
1010001001001000
1011011101110101
0011011000101101
0001001011100000
0000111000010111
0100001111101011
0100111110100010
0100110101001000
0000010000100111
1101110011111000
0111111111111111
0010111100001100
1111011110100111
0001110101110111
1111000000010100
0001000100111000
0001101000101010
0000101011000010
0100001111111111
0010000110101010
0000100011110101
1110010010011001
1111110100001101
1110001111111011
0111111111111111
0101100111101010
0011101111100010
1110111001110110
1101000101001110
1111101100010001
0010100100111000
0010011111110011
0001101110000001
1101100011000001
0001001111011101
1111001000010000
0110001010101101
1111111111100110
0010000101000011
0001101010101100
0001001001010010
1110001101110011
0001000000110010
0001000110000010
0001110011000100
0000010010000011
1001001101000101
0010001010100011
1111011011000110
0011111000000100
0001101011110001
0100001010110001
1101110011010110
1100110100010100
1101110001111101
1101111111001101
0001101100001111
1101111000000000
1111110111111011
1101001100000111
0001101110110001
0000000010000110
0001100001111001
0011000001010011
0001011011000100
0010111101101001
1111000000000111
1110001001000011
0000101100000111
0100011101110000
1111111000000011
0001000101000101
0000010111110000
1010001010111100
0001010010010000
