0000010001000000
1111101011001010
1110111010101101
1111011111100111
0000100110000110
0011101100111101
1110111000010011
1000000000000000
1000000000000000
1101001100100111
1111010100110111
0000010000011110
0000001100110000
0011010011101001
0000111100000110
1101010011100101
0110101110110100
0001100011011101
0010111101011010
0111111111111111
0100111001000110
1110101100110000
1000000000000000
1000000000000000
1000000000000000
1100111010101001
0010001001111100
1100110000111001
0000101001110100
1110011000101000
1101011010111010
1011100000111010
0001000101101010
0101011000101111
0110011100100101
1101101101111101
1111000110100011
1000000000000000
0000011110110001
1000000000000000
0101110110010011
1010111111110111
1000000010111011
1001011011000101
1001000001010011
1101111100101000
0100100100110101
0111111111111111
0010000011100010
1011110110101001
1010110001011011
1101011010100010
0011110101010011
1111000111100010
1001011101001110
1100110011110010
0000101101101100
0000000010111111
0011010111100000
0010111101010011
0100011010100110
0111001101001100
0100111011110100
1011111011010100
1000000000000000
1111101111011001
1100000100111111
1110000001111001
0010110010100101
0011111010011011
1110011111000011
0011100010000100
0001010011101100
1101111101111110
0111101000111110
0100011111001011
1100111000110110
1000000000000000
1111100011111111
0011011000100110
1110111000001001
0010000111000101
1110101010000011
1000000000000000
0000000101101011
0011100010010000
1111100001100001
0100001100001010
0001100101101011
1001011001111011
1000000000000000
1000110101111011
0010111000111011
1110110111011000
1110111111011100
1110010011101101
1110001110000011
0010111001011111
0000100010110010
0010111101001110
0000011110111001
1110011010110010
1101001000110111
1000000000000000
0011000001011100
1011100000011010
1101110111000101
1111100000101100
0010010010011000
0001001100110000
1010110111101001
1100100001011001
1110010111001100
1100101101100000
1110111110010000
0001100001111000
1111111000100001
1111111001101111
1100100110110001
0010011111101000
0000011111011100
1111010011011001
1001110010010101
1101011010110011
1101100100001110
1110111100100111
1111100100110000
0100001000110100
0100000110101000
1000111001011010
0111110110011111
0100111101011110
0100010110100111
0000111011101111
1010101011100110
1101111101010010
0001100100001001
0000001010000101
0000100010100000
1110000000111101
1110111111110010
1111011010101111
1110110101011011
0111111111111111
1001110111010101
1111101001010100
1110111001001100
1100111100010001
0001000111011011
1101001110111101
1101101100001000
1110001110000011
1000001011010010
1000000000000000
1000010000100010
1000110110111011
1111010100010110
0111111111111111
0111111111111111
0011000001100110
0100000100000111
0000111011101010
0000111010010010
1111010011010110
1100101111000100
1110011100110101
0001011100110101
0000010101111010
1101110111110111
