1111001111010101
1111000011000101
0000101001000001
1111010011000011
1111101000011000
1111010011101110
1101010011111111
1101100110011000
1111111100101001
1111011110110101
0010100011111011
1001001101101110
1011001110010111
1001010111100100
0010000101011001
0000001111111001
1111110000011001
0011111000000100
1010000001011100
1100000000000100
0000001011010110
0100110100110000
1000100100100111
1011110010010001
1111100111011001
1001011110110001
0000110100100011
1010111111100100
1011001011100101
0011011000011110
0000110001101100
1111101110110011
1100111010111011
1110100101000011
1000011101110000
0000000111011001
0100011101101000
1000000000000000
1100011110000010
1110110010010100
1100110100100010
0100101100110110
0001111111101010
0100010101010010
0010110110001111
0010000100001001
0001100100100110
0000100001110001
1111100101110110
0000010001110111
0011000111101111
0000001111110001
0000101001010100
0001000111010100
1010010101111010
0101000101100100
0100100110100100
0100000110000110
1110001000110100
1101111011011010
1110001001110010
1000001010110110
0110101001010011
1111010100110011
