11010011101000
10010010111101
10000010011101
110100101100
1100101000001100
111111110101
110011101011111
1110011011010110
1000000000000000
1110111101100001
10111011000100
10011101011000
10111011101101
10000010000101
100100110110111
100001000100010
1001101100110101
1100101000000111
10000110011110
111001010010
10111001111
1101101010100011
1111000110001011
1110010001101001
11011011100011
1111111001000100
101111111100011
100001101111101
100111001100100
10111011110001
100001100101111
1001000
1100101110011111
1010101001101110
1100100011100100
101101100100
1111100101011100
1100001010101
11010101111011
100011010111010
1100111110101000
1011100000101001
1110000001010101
1100111000111001
1011110001101
1100110011110
1111101011000011
110010100010110
110111000001110
101010111001010
111111111111111
111111111111111
10000110111010
1110110111100100
1100011110011000
1010011110111
1001010110
11101111000010
111000100011
1000000000000000
1000000000000000
1010000000101110
1111101010011000
111010001010111
100101000011111
10101100000110
10001010010010
1110101100001001
10001111010100
11101100101101
1101010100010
10001010110
1100101111100101
1000000000000000
1000000000000000
1000000000000000
1000000000000000
1010110110011100
10001011010000
11001001100111
111000110101011
1111011011111011
1010000001001
1111111100011010
1110000101101100
1100000101111
1111001111001
1001010000101
1111111110111000
1000000000000000
1000000000000000
10100111111000
111010001011
1110000111101
10001001100110
1001101001
1011111100
1101101101111001
1101101111101001
11110110100101
100110100000010
10000000010010
1100011100110011
1000000000000000
10000111101010
1111100001100011
11011010100
11111100011101
1111011101100100
1101100101110110
1101101111010111
1110111000001100
10001010100000
1001110010001
101000011001
111001010001
1011100110001000
1111001101011
1010101111101
1101100011111010
1111000110110011
1110101000100
11101000100110
1111000101100011
1100000010010
11111000110
1111111000000010
1110111000100000
100010011101001
111001000100
1101110010111
11110001111111
1101111011110
1100001011011
1011100010011
1001100010101
1101000110110000
1110100100100011
10010010111000
111100010000
1010100100
1010110000100
101101101010010
10101011010001
101001011
101100101101110
1101111000111110
1110000000000100
11111101001111
1110100010001
101011010000
1111001001101010
1111101100000010
1011100001011
1110110010110111
101011000000101
10000111101001
10101000101001
110000101011
1110010100101110
1101101111100111
11001010101110
1000011001100
10111010100000
111111111111111
111111111111111
111111111111111
111011101110101
11001101111100
