10100010011000
11010010110111
11100001011001
11010100001101
11010010011010
10011100011110
100111010010
1101110010011
111100011001
110011000111000
101001000100100
11001001000001
10010000110100
10010100011010
1100100000101
1010111101000
1101110100010111
1100001100011010
1011101001110100
1100001000001100
1100001010001010
1010010101111110
1111010001101111
11111111010010
110011110100111
1100001001101
11000100011011
11001111001010
11010100010110
1111010110100000
100110011000
1110101111100011
10010110100010
1101001000001101
1000000000000000
1000000000000000
1010101100010100
111111111111111
100010010000001
11000100110101
11110010001110
100011100010000
10110001111101
1111110000000110
1110010100101110
1001001010101101
1000000000000000
1000000000000000
1000100110100010
1011111010110000
1110001100001000
11100001101010
1110111110010
11111011000111
1111100001001
1101011011011111
1110100101000110
1100100110011
100000110000000
11011000110100
1111101001110100
1101111010111011
10000010000
1000001110010000
11010011010001
1100110000001
1110101000011010
1111101101111101
1111000000100000
100011101111000
100010101110011
100011001000000
101101111010001
10110011011111
1101101010000100
1111011010000000
1100110001001000
11101100001010
10011111000000
1110100000000111
100000000111100
11000000101000
1101010101101
11010000111101
1101100010111000
10111001111001
1101100100010
100110100011
101100011110110
111000001010100
111010011101101
11001111000000
1000010010010100
1110000011011110
110100000011
1100000101110100
1100100100001111
110001001011010
110011111000011
11000111000
1111011111101
10110101011111
111000000010010
11000111001011
1011111101011
1111010011010
1111101111100011
10101010110
1111100000011010
1111110110110010
111111111111111
10100001000011
1111100011110100
11000110111
1010000000010
10101101001100
1100011110110011
1101000001011
110111111101
1110101111101011
1010100001111
1101101101111001
100010010101111
100101011011111
1111000010110
1111001100001111
1101111000010110
1010100100110000
1011010011101011
1000000000000000
10000101100100
1011110001101000
1010000111001100
1011100011010110
100111010110
1010000110011
11011111100100
10111011111100
1100111111
1100011110110010
1001011000000101
1000110011110000
1101001100000001
10100010111010
1111011011001110
1110000110011111
1000010111011111
1100110010111101
1011011111101000
1111000011010110
1110101000011
1100011100011111
1011100000101001
1010011000010001
1110101101110001
1101001100100101
10101000001101
10010001000010
1110111010110110
1011111111001001
1000000000000000
1000000000000000
100100111000
1011110110111101
1010101100110000
10100100011000
1111100111000101
11010101010011
10010110100001
