1100000010100
1110101000010
1101110101111
1001010101001
1111011000110110
1101111110101
11001101100010
1001111101010010
1001111110010111
1101010101110010
10101000100100
100100111101100
11011011111101
111111101111
1000001010001
1101101000101010
1001100011111100
1000000000000000
1110001110001011
1000000011100
10000101111
11110001110111
1101000111110110
1010100110000
1011001110000001
1010011000111101
10000110110111
1001011000101
1010110011110111
1000110001011010
1101110010011011
1110010000011110
1100011010010110
1110001001011001
111001011010100
101110111011100
1101000110101
1111110110000100
1000000000000000
11011011001111
10100011010000
1111001001011111
1101010101111001
1110010101000100
1110010110011100
1001111100000001
1111011100101101
101011000010111
110100111110001
1101110101001100
1101011000101111
1011000000001101
1110111011110
11010010100011
1010100100
1101001011100111
1111011100101001
1101000110110010
1111001101110000
1101001001
1011100111001111
1111011001110000
1111011001110
1100100000011000
1100011110101001
10001000001100
10101011000100
11011110011010
1111100111100100
111010110101
1101100111111110
1101010011000100
1010110110001011
1000000000000000
1110000010010000
100101000100110
101001101001011
111110100101
1101111010
101000110010110
101111101110100
11100000001011
10100001010001
11111011010110
110101000000
1101010001011111
101100100000
101110101000001
100100000010011
10110011001110
100111101010011
101100100101
110011100100
1110100100111001
10011110100001
101000110010001
10100101011111
1101110000111011
1110000001001001
11111111010
111100001010
101100101111
1101011001111
100001011111010
100011011100
1100000101000010
1010100011110010
100101010100000
110110000101111
1110111011101001
1010011100011100
1111001000010010
1110111111010111
1011011010010111
10011101111101
111111111111111
111111011000111
100101000110010
1100101110100110
1111101111000111
11101100011100
110101100001011
1011101010011001
1010010011100110
1100111100001100
1011101001110010
1111100110101011
111111111111111
111111111111111
1011110010100
100110110011110
111111111111111
110010111111110
100110110010011
11011010100110
1100011010011110
1001101110110101
1010011000011101
1010111011011111
1011011001000101
1010111110100000
1010111011001
101100000111000
101011001011
1101000000010
10111010011
10101000111111
1111100000101
1010000110000
10011011110101
1111100110010010
1010100010011000
1000000000000000
1000000000000000
110110011001
11110011001010
1000011000000
1101001101
1010111010001000
100011001011001
10000010101010
1100111101110
1011110000001101
1000000000000000
1000000000000000
1010000111000111
1000000000000000
1110110000111000
1110111101010
