1100100110010111
1101001010100001
1100010001000110
1011101010010010
1101100001001100
1001111100011111
1111011001101001
1000000000000000
1000000000000000
1000000000000000
1000000000000000
1100000110111100
1100110011110110
1110111111011111
1110001000001011
1110000010010101
1101001100010010
1010111011101000
10110111100110
1100100110000110
1100011000011001
1010110000100101
1000000000000000
1110001110101001
1111100100010001
1110011010111010
1101011110100100
1011000011010011
101011001011
1100101100100
1100111110100100
1111001110101011
1100111110000
1111110101110011
1101011110100000
10111011111100
111111111111111
11101010110100
1110000000010101
1101010010001100
1111101010110001
101000111110100
100101011010111
11001100100101
10001110010
10100011111010
11001100110111
111111111111111
111111111111111
111111111111111
111100000000101
1110110010001111
1100011101111110
10000011000
101101010011000
1110111101110101
101011101111000
1111110111101011
10000010000101
111111111111111
111111111111111
111111111111111
100100000011100
111111111111111
11110110010111
1101110100000011
100100110010101
101011100001101
1111000001000111
1101100111110011
1011010011011000
1111000011110111
11010101000
1011010100000101
1101101000011011
10110111100
1011111100011111
1000100000010
1101000110110001
10001111011011
100001110000001
110110000111
1110100101001011
1110110101000010
1111101011001010
1110011101011001
10011110011101
1011000110011000
1100010000110011
1101100110100000
1110011101011010
1101010011000100
11000010001111
1110001011100110
11110001101001
1111001110010000
10110001
1101101101100101
1111001000011100
1110010011001100
1001000110100011
1100010010110111
11010101110
1000000000000000
1100110101111101
1111111000101011
111100011110
10010010000110
10101100110011
1111111000010110
1111010111000110
1110110101010100
1111011100111100
10011010111011
11001001011
1101000110110010
1100101011011111
1100000001110001
1001110110001000
1101100110110001
10000010001
1011100011110111
1100110001001111
1000110111101010
1010101010100001
1110011010011001
1001011110110
1110100100001101
1111000011010101
1111110010010001
1101111110000010
1110010000110000
110000101000010
1111111010110101
1101000111100011
10111101111110
10100
1110100011110111
10010111011111
1110101011111111
10100101000001
111111110110001
1111101001010011
1101101111001000
1100010101000111
1101100011101011
111111111111111
111111111111111
111111111111111
111111111111111
111110000100001
111111111111111
10111000011110
100010101011010
1111000110111001
1100101100111011
1100110001101001
1100100100110010
1100111110110100
1101001000000010
1100001101100000
1001011001010111
100010000100
1001100111011
1111001110110110
1011111111101010
1110101111010101
1100111011011101
1101000110001001
