1101110101000101
1101100011000000
1101000011000110
1100111011101000
1101000101111110
1110101100000001
1110001101000000
1110100101000111
1110000011000111
1100100000010000
1100110100000011
1100110111101010
1101101010111000
1101100001100101
1101001010011010
1110001110001111
1110110111110011
110001010110100
110001101101001
1110001001111100
1100000100111
111111111111111
10011111111011
1100111011011000
1011001101011100
1101010111110010
1101010111101110
1100101011101011
1011001111100011
1000000000000000
1100011101110001
1100000000001001
1110000101110101
1111101011111011
1101001101110010
11111110011011
110011101100
1110110001110111
1100101101010000
1100010011001001
1111010110111110
101100000011111
1110011010101100
1111110111110100
1110101100111100
1111111001
1011100010011111
1000101110000110
1011000100000000
1101110001011001
1110110011101000
1110011000011111
1110000100111100
100101111101
1110101101110001
1111011001101100
1100101000100100
1110001011010101
1111111110011101
1011011011101111
1011111100111000
1100100111101101
1111001000001111
10111000110
1011111111011011
1011010010010110
1111101110110
101001010100101
1111001111001101
101000110011
11101011000111
101011010110
10000000101
10000110000
1100100110000011
1111000110111001
1101000000
1010110000000
1100011110010011
1011010011000000
1010110001000
1111011101001000
100010001001000
10111010100
10001001011011
1110011110000100
11010111000
1100111001100000
10111001100100
111111111111111
1111011110100111
1101101011000000
1110100001010001
1110001000100010
1111101101011111
1100110111011
110011010011110
10111110100111
1110111100001101
1111110001001000
10000111100101
111111111111111
111111111111111
100010011111
1110001111101011
101001000111011
11001011111010
1101101100101101
1011110010101010
11001110001100
1101110010011
1111000001101011
1111111011001
101100010011011
111111111111111
100011111101101
1100010011000000
1101010000000100
111001111110100
101000001000011
1101101010000
1000001101001
101111001111
10111001011110
100011110111000
111111111111111
111111111111111
11010010011101
1111001001
1010010110001001
1111000100000011
1111101101011001
11110100010001
10011000111001
10111000011110
1000101111110
1111010111110
101000001110111
111111111111111
111111111111111
11100000101100
1001001001010
1110000011101101
1101011101000100
1101001100000100
1000000000000000
1111000111011001
1111010111101001
1100100000101000
100011000010
100100001111010
111111111111111
111111111111111
111111111111111
111110110010
1101001001010000
1100111011111100
1110110001010011
1110100010010110
1000000000000000
1001010110001100
1000101010010011
1001010110110001
10010100110001
111111111111111
101000100110000
1101100010001
1101000100000001
1101000100111100
