1101010101010000
1101100000100110
1101011100001111
1100011000111100
1100110010110111
1100111001011110
1100111111010100
1101101000001110
1111110011000010
1101100001011110
1100101101010101
1101011011111000
1100101111100001
1100110011110100
1101000001111010
1101000101101011
1100110100010010
1001001011101100
1010001100011111
10110100011
110000111000
101101111000
1100010111100010
110010001010
1101000100011000
1111101011100101
1100011110101111
1100110010101111
111101101100
101000000001100
1110100100100110
1110010110011100
1110100000001
100010000010
1010001000001
1110100111010000
1010101011011
1101010100111110
111000000100011
1101011101010111
1110011111111110
1110011000101000
10110011100000
1101001000101101
1100000001100001
1111010001101111
1110010110011
1011000001111100
1100111100010001
1011110100011011
1111011011110011
111010101101111
1101101100010111
101110000010
10111001001110
1000111101011
11001111010
1110001001001100
111111111111111
1010111001101111
1110010011100101
1110100110000
1110010110101011
1111010010110
1110000100000100
1101001110000101
1110100110000000
111010110111
1101101110111111
1111100100000111
10001001001111
11100001011110
1001110100001011
1110010101100101
11011100011000
10110011111011
100100000001011
1101100000101111
1100111011101110
1110110110101110
1000111011001
101011111000000
111111111111111
101011010110000
1111101001100000
1101111101000110
1111000111010011
100011110011011
100011000011101
11100011111001
1111111011100110
1101000111110000
1101010100100000
101000100000011
1110010100100
10101110111011
1111110110111101
1100000011100111
1111110111111000
110010101001000
111111111111111
111111111111111
11101110011111
1011000010010100
1100101100000010
10001000010010
111111111111111
101101110100010
1110100111000001
1011111101001101
111100100010110
111111111111111
111111111111111
111111111111111
11000100010
1111110001000101
1011101111100101
1101101001001111
1011001100011001
1101101010001100
1000110110100
1011000110110101
1101000000001000
111111111111111
101001011100111
1010111110001111
1011100100111000
1101001101010000
1111100111100
1101110001101100
1110011001101110
1111000001000100
1011100101001010
1110000000001110
1101101010101001
1110001111101001
1111101110010010
1110001110010101
1010011000000111
1101001110100010
1111110001011110
1111101001100010
1100100101010101
1101001001110001
1110110011011111
1100101111000011
1111100000111100
10011011010011
1111011001000110
11011111001111
101010000110011
10010111010101
1111111001001110
1110000000101111
1100011110100111
1100100010001001
1101011110000110
1011010010011111
1000000000000000
1010010110000101
1111100101011011
1100010001010001
10000100010
1110110110110
1111011010010011
1111101111101101
1101010110010011
1101100101000100
1101010001011001
