1101101010011100
1101100110011001
1101110001011111
1110100111001011
1101011001010001
1101110000100100
11110111
1110100000011111
1110010010111100
1100111000011110
1100101010101001
1110000110101000
1101000000000101
1101001101000100
1101000010010110
1100011100001000
1100111100001110
1000010111111111
1111010000110100
110111101100011
111111111111111
111111111111111
1111010110111011
1010110100000100
1111111110110100
1101101111011100
1101100101111101
1111011001101101
1100101110110000
1011011110101001
1010000100110111
110000110010101
111111111111111
111111111111111
1101000011011011
1001100010110101
1011100111101000
1100011111100110
110010001111
1101010110010110
1111101000100101
1011110111100111
1100010101001101
1010011011110011
101100111011
111111111111111
1010101010110
1100010110101100
10010111011
1110011100000110
110001111011100
10110011001
1110011100000111
1011110111101111
1001001101000
1110011011
1011011010010010
1100111001011001
111111111111111
1010110011001011
1101100101010001
10100011111100
10111100001110
101011100001011
1110011011111111
1110110100011111
1111000111001010
10100101010011
1111110010001110
1011011101000011
1100010111000110
1111010101000
1101010111101001
1111110001000111
1111000001110
1111110110010001
100111101011101
1101110111001100
1111011001010000
1101111100011111
1101101010010000
1001111011101
11010111010
1010011101
1111000100011110
1110000001010100
1110111101010111
1101010100000100
1100000011011110
1110000000101110
1110101010001100
1101000110111101
1000101100101010
10101010
1110110011110100
1111111110100111
1010000101010
1101110111011101
1111010010011001
110001011000
100011111100
1110111111110100
101010101000
1011011010000010
1011110011101100
1100001011111011
10111011110000
11100011011000
10110001
1010000100100
1101100110010011
1110110000001000
10110010101
100010100001101
1110011010011001
1010111000010
1010110100010011
1100111000000101
1100111101100100
10111110000111
10010000001110
1110110100000111
10100100111101
1100010011111
1111100101110010
1101111011101010
110101100101
10000111011
11010001000
1001111111101
1101010001000111
100001111
1100100000001001
1110111000010011
110000001100
11111000100011
1111000101110100
1110100111010100
1111110011110111
1011010000100000
1101011010001111
1110000111010000
1110110011110001
1100110010010001
1111001011001010
111000010001
111011010000
1110101001010100
1110101001000
1100010111110010
10001111001
1101111101010011
1110100111100100
1101101010010111
100111010010111
1110000000000010
1101111000010000
1110000001111000
101000000000100
10101011110100
1111011011000101
100111010011110
111111111111111
111101011011010
1110011100101101
110101000010000
100000011110100
1111010101110110
1101010010001100
