1101111111111001
1101011000000100
1101101011011100
1110100011111100
1100001000101110
1110111111010000
1100000000000011
1101001001110011
11110011111010
110101111100
1110001101010100
1101110101111010
1110001100110011
1011111100111000
1101001101100010
1111001101011010
10011110011011
1011111111011011
1000000000000000
1011001001010011
1011001011010010
11111100001101
111111111111111
101000010111110
1011101010
1101100111000010
1101001101110000
1101001000011001
1110001111101010
1100011010111
10110110011100
1111010011001011
1011111010010011
1011001000000111
1011011100
111111111111111
111111111111111
10101000110111
1101101111101010
1101110010000011
1001110101110111
1101100101111110
10100011111100
1101100011101010
100000000101111
100011110010101
1001110010011100
1001101101010000
111111111111111
111111111111111
10110111101100
111001010110
1110001000110001
1010011111011111
1100100111011101
10010100110110
10100000010000
11001100001000
1100000100100010
1000000000000000
101100100011
111111111111111
111111111111111
11111011000001
100111010010
1101101011000010
1111001110101001
110101111011111
1111011001111011
1111000100111111
1110011010010011
1110100110110010
1110010111011001
111111111111111
111111111111111
1101010101110011
111000111000101
10001100000100
1101100110101101
1110000110000111
1100110001000101
1111000111110000
1111011100000000
10011000101110
101100001110
1110111011110000
10010111000
1110100111100000
1001000101001000
110001110110
1110110111001110
1101110110100000
1000111100011101
1100100011010001
1111100100111011
1111101101001100
1110111101110010
1110110111010100
1100010100100111
1110110101001001
1101000111
1010111101110100
1011001110100
10001111001100
1101111101101000
1101001111101001
10011010011
10111011001100
1110001010010
101010001111100
1101110101111010
11111011111100
1100010010001
1111110010101101
1111100001100110
1000000000000000
1010111010100100
1111000100011
100010110100001
1010011101010
1001011001001
1100101100010
10101000111110
1111001001000011
1101110001100100
1111000111010010
11000111010
10111011010001
1101100110111100
101101101
1110001100110000
1110001111000010
1110111000111011
1000100010
1100000111001
10010000100101
110011000101
1101001110001
1111011010001100
1111001000100001
110101000001
10001011010011
110101000111
1110011111101110
1110001000000001
1110111110100110
1100011111010011
11100001001000
10000101110000
1110000000010100
11001111001110
1101011000100111
1111010101110111
111100101101100
1101000101101
1110011010111000
1101100100111111
1101001110001100
1100100000101001
1001000000010101
1101000100001011
1101110100110110
1110111101100100
101010000110000
111000100001110
110101010110111
10101001000010
1111011011110010
1101010100101000
