11101000011110
100101100001011
11100000000011
111001011100
1100110111101
1100001001101
1101110100011110
1011011110
10001110010010
11001001101111
11111100110101
10001011011101
11110000010100
100011010100011
100000110011000
11100111000110
110010101111101
100010001001100
111110110
1010010110111101
1000000000000000
1011110111101111
1101101110101
10011001010
1110011000101111
110001011100
100011111100110
111100001001
1110101000101000
101001100001100
110110101010101
11010110100111
101011001111110
1010110111010
1110010101110
1111110000001011
1000011100001
1110111111001
101011110010
100111010010110
10010111111110
1111110110011100
110000110100
11110000000100
11100101010111
1110001000100101
1011101000100101
1111100110001001
1101111111001101
1111100101000000
1100111011110101
11000110011001
11011111000110
100010001111
110011011001
1101001110100
1000100001011
11110010110010
1111011101011110
100011001001101
100000101011110
11000011011111
1111101100011101
1111010001100110
110100011110
11101000011110
1110011110010011
1000010111010110
10011101100100
1101110011001000
10001100110011
1010000001110
111111111111111
111010010110100
10001100111010
10010001101001
1011110101110000
1101011000000111
100101001001101
111101111100010
101101110110
101000101001100
10011000101111
1010001100110
10010000110
11101101110111
10001010101111
100001100000010
10011110001111
1010111100111100
100110100110101
100010011001000
111111111111111
111111111111111
1000100111000
1111101110100
1101101101001
11101000
110001000011010
11111011001101
110100001110011
1111101010111101
1011000000110011
1010101100110100
100100111011000
11011111010111
1000110010000110
1000000000000000
1000000000000000
1000000000000000
1001111011001000
10110100101
1010100010001100
1000000000000000
1010101010110011
1000000000000000
1010110010111110
11111011100011
100000101110001
1001111011010110
1000000000000000
1000000000000000
1010110011100110
1010101001100110
1010110100111000
1000000000000000
1001000001100000
1001101101111110
1000000000000000
10111010101111
10111010010111
1110011010111
101001110101110
1000010101111
11001111011101
111101101001
1101011110000011
1000000000000000
1010110110100100
1100101010001000
1101011101011101
1100111110111011
101000101000010
11101001011101
10110110100000
1111010100000111
101110011001101
100110000001
1011100100001010
1000011110111111
1010101010000101
1011000110100100
1001111100010010
1101101000000000
1111010000001111
101100010001101
11100010101100
110001011101000
100001000100101
1010001010111
1001010100001
100011110111
1100101010001010
1111011011110010
1110001110011001
1010110000011101
101110011100111
100011010110011
11010100111110
