100110010111
111100100010
1111110010001001
1011001010001101
1000000000000000
1000000000000000
1100111111110011
1000001000111
11010000011100
1100110000010000
1000000000000000
1000101100010011
101001001100
1000101011111
1000110011101
1110011100101100
1011000010010110
1011110101010110
110111000100
1111000110110011
10110001000001
1110111000010100
1100010110000000
1010011111
101000110110
111111111111111
100011010011
1011110100000101
1100011011100011
101110101001010
100010100101100
1100101110011
1111101101111101
110101011000011
111000101110110
111101110100
1110001010101100
11100110100111
111111111111111
11110000111
1011001100001001
1011110001010
111111111111111
110000001001101
1110001001001000
101001000100
11000100001101
100011010111100
1111100101110100
1100100000011111
10100001000000
1110100100100110
1111000001000000
1010000010101
1010001000001
11111100011101
1111001110010000
1111110011011001
11011111000010
11010001000101
10000010000010
1101000011110011
1011100111101000
1011101100011
100100000110010
1111101110001001
101100101001
1101001010000010
110011001111
1100010011000001
1010000001110
110000100011101
10001010011010
1101000011000
111011100001011
1101010100011100
1101101110100011
1110101110011101
111111110011
1010000001111100
1011010101101011
1100101111000111
1101011101110010
1101111100001
11100001101011
101001001011010
111111111111111
110101001110011
1001111000100010
1000000000000000
1001001101011111
100100000101
1111011101011010
1100101100000000
1011100001000010
1111001000111
11110011100100
1111100000101001
100100010000111
111111111111111
1010101010101011
1001111000101111
1101101000110011
11101010010011
1111100110010100
1110010100100011
1110110100110000
1101001010110100
1011101011011101
1101000101000101
1111000110010011
111000100100100
1110000010111011
1000000000000000
1001101110111101
1011011101111010
101101001100010
1111010110101101
1100111011010101
1110111010010101
1110001011110011
1001111001001110
1011010010011100
1101111000101011
1110011110111010
1101011010111111
1011100010100100
1111101101011000
10001110010
11001110011110
1100011111001
111011110110001
11010110010000
10110001101110
1001011011010
1010001111101
1111001111110101
1011001000111010
1100111001100010
100000101010000
11111000011
1110110011011101
10100110000001
111010011101
10101010010110
1110011110100010
10010000001111
11101100111000
1101011001100001
1100110000010100
1100001001001010
1100101111110000
1000110100011
1100111100100111
1011000100001
10101110101
1100001101101
100010011001
101101010111
1111110000111100
1001101010101010
1001110101011110
1111101010101
10000111101010
100101111010010
1110111111101011
1110100010001010
1110001110010100
101110011100
