1000000011001
1110000000
110100110011
110101001101
1001111101010
110000111101
10011100010010
1010100100011
1110001011
1111001011110001
1111101101101111
110110111001
100111011111
101110111101
10110100001
110001101000
11110101110000
11001010000111
10100000111111
1101111000011
110111111011
1100110110101110
1110100110100000
1110001111100111
11100101011011
1001100000110
1111111011010001
11100000111111
1110111111000
101110100101
1110101010000101
1110101010000011
1111001111000010
10010001110
1010000100111
1111111101111010
1110001110010111
10011000100111
1001000010111
110101110010
111111111111111
1111000001100001
1110010110100101
1010011100111110
1110000001110011
1111101011111111
100101100110
11110101101011
1111010111100000
10101111001111
100100100
1010100010110011
1111111111101100
11010011101101
1111001000000001
1100101101011000
1010011001100101
1110110101111110
111000010110011
1110101001101
1110110110111000
111110100011
100101111
101001000100000
1100010011111100
11011101011
10100111000101
1010010101111011
1100110111000001
1010111110100011
111010100011100
111111111111111
100010011111100
10111010111010
1111101001110100
1011111100001010
1011000011011101
100001000111011
101101010001
1000000000000000
1010000010111111
1101011001001100
1101011101101010
10110101010111
110000101000110
111111111111111
110001110100111
10010011111
1101001010000011
1110101001100001
1010110010000
101100101000
1000101011111000
1110110110110101
1111001011110010
1101011101100101
1111000001010100
1111010001110101
111111111111111
101100000010111
1010110010100110
1101010000100010
11001010000011
1000111100111
1001010100110
1110100100111110
101110010101000
111000110111
111010001111
10011000010
111111111111111
111111111111111
1011110010101101
1011111011100101
1111000001010011
10111110101001
11011001001
1100101000010000
1000000110010111
101010100010
10110111001101
10101100101000
1001011000111
100101111111100
1110000001011001
1011011101011110
101011010
1101011101100010
1011101110100000
1100100001111001
1111100111000100
100001111010100
10011000010001
11101010001010
1111101011011111
1101101010101110
1011010101111001
1100101011100000
1101010010000100
1110110111010
1101110011100
1000101110110101
1001000010100100
1000011000001
10000010110110
1011111101100000
11001010011010
1100110010
1111101110001000
1100000100111001
1001100111110001
1110100011110110
1100011111101111
1110100010011111
11000111010000
1110001100101110
101000011101
11100100000
1111001101000000
1101100001010100
1010110010100001
1111101010110101
1001000100
1101000010100111
1010001011101
10000011011100
1110000100001001
1000111010000
1000101101101
