1111010101101111
1110111011110101
1110100111101010
1111000110111101
1110010011110110
1111000110001001
1110000011100000
1110011110011011
1111000111100000
1110101101011111
1110111011010001
1111011101111011
1110011010101100
1111000100000001
1110001111010110
1101111000110111
1101011010000001
1110111011110110
1110100010101110
1100001111100110
1100111100110110
1111110100110101
1111110010001000
1111110110110100
1110011111001001
1110101101100001
1110110100111101
1110001010011100
1110001111110001
1110111000110101
1111110000100010
1100111111
1010101011100
1111111011011111
10001000010111
11001011110
1111011001000100
1110001011001011
1110100001111001
1110010011101110
1110101110000111
1111110001101101
1110101011111000
111111110
110101100011
1100000000110
1001110011110
101100000001
101110100011
10110110011
1111011010010101
1111010110010111
1110110000100001
1111010110100100
1111001111011001
100101011000
1011111011110
10111100101111
10011000110001
110110010011
1000110111
1010111110010
1100010011010
10001101011
1110111001010111
1111010000000000
1111111001011110
1111010000110010
1111111110111010
1001000001100
10100011110000
101010111110
111111011110
1010110010000
1010100010101
1001010111111
1110111101110011
1101111101111001
1111010101111110
1111010010101001
1001000010
1101111000110
10110011111001
10000011010010
11000100110
10000011101010
1111011101010001
1111101011111110
1110011101101100
1101111111011101
1101110101101000
1110011001000101
1110001010110110
1001111000
1010001010100
10010101100100
111101110
11101101100
1011010001001
11111011110
101110111001
111001010010
1111001001111101
1111100100111111
1110110100101011
1110101010000010
1011011000001
1011010101111
1111000010011
110000110000
11011101101
10001100001000
1101111000
1111110110001001
1000010111000
1110100
1110010001010011
1110110001001100
1101111001100001
1110010111001101
1100110001
1111111010011001
1111100100010000
1111110010101011
1000111010101
1110101101101001
101000010010
1010001010111
1111110001111011
1110101111001111
1110010011111000
1101011011110000
1100111001100100
1111010111110101
1110101100
1011101011110
111111101001
1110111101111011
1110110000110110
1110011111000001
1111010001011000
1110111001011000
1110100110011010
1110111011010100
1111100010110001
1111110101110110
1111111110110100
110101000000
10011111110100
1111000001110
100110001111
1111101101001110
1110010011000000
1110100010011110
1110000011100101
1111010111100010
1110110000001010
1110010110111000
1101110101110100
1110010110010101
1111001010000001
1110010100011011
1111010110100101
1101110011011110
1110101110100001
1101110100010110
1110101001111001
1110001011000010
1110001100110001
