10011000100000
10000001010101
1100000001010
1010111000
11100010110001
111011011000011
101100001
1011110000111011
1001110100100011
1000000000000000
1101110101111110
1001011100101
10110100101110
10110010010101
11100010101100
11000000011010
11101100111101
1110111110001111
11010001000101
1111101011011
1011101111000010
1001111100100110
1001001001001000
1000000000000000
1100011001010101
1111011010110
1111111100110
111111111111111
101100101001001
111000101001
100111101101
1101110110111000
1111111110101111
1011000111000110
1100010010111111
1010000010000011
1000000000000000
1000111100100101
1111011100110100
10110100111000
111111111111111
100110011101111
1110000101000111
1011100111011110
1001011100010001
100000001001100
111111111111111
111111111111111
1100011101011000
1000000000000000
1000000000000000
1101101010000000
11010100000110
111111111111111
11000000011100
1010110001111000
1011111011000111
1111001111010011
11001010001011
11100000100100
111111111111111
1111000101101111
1000000000000000
1000000000000000
1100011110001100
10101011110101
1111011110111010
10010000111100
10111101100010
10010100001011
11010111110100
1110111110000101
1010111000010001
1001000001110
1000000000000000
1000000000000000
1111100100010110
1001111111001
10011110110010
100000101101
1001110000010110
1011011010110011
1011001100010111
1111001011110000
1111011010100110
1111010100111001
100100000101110
1101000010010110
1100110010100110
10110100010111
1010011111110
1111100001011
111100101101001
1110001111111001
1111010110100111
1011010100100001
1111111101001111
1101100101010000
1110001100111010
1101010010110
1001001000011
11101011101001
101001111011010
1111111110110011
10110110111000
111111111111111
11111010001011
1111000101100101
10010111000010
11101111110001
1010100101100110
1101001111111000
1010010011000
1111101000101011
1111101001000011
11100000101
1110111110111111
1100010001111
111111111111111
101010010011011
1111001010011011
1111010111100
1110100010100101
1011010010111011
1101011001010111
111111010100
1101110100011100
1111100110001011
1111001011110011
1100000011110110
10011010011100
101101110111110
100011100011111
11110000000001
10000101011111
1100011001110001
1111001110011101
1111110111110111
10010001001010
1000010000100
1011000010010101
10001011010001
1110000100011111
1100001011011
11000011100010
10011010101000
1111111100011101
1000100110101
1111000101111110
1001100000101
1101010100010
101010000000
110000110101100
1101100101100111
1001110101110110
1101111111110011
10001100000000
1100010111000
11011000100101
111000111011111
100100001101111
1100110001110001
1100001111010
1000011010111011
10001011101001
10000010100110
1101100101111101
1010100111110010
1111110011111100
