1101100000011101
1110010110000011
1110001101110100
100101101010
1110110000100100
101110100101
11101001000001
1110110111100100
1111010101000110
1111000110000100
1110100011100010
1101111100110111
1101100000111011
1101101111001100
1110111101101000
1111000000111000
100010110100011
10101101001101
1100110100011010
11101100100001
111111111111111
111111111111111
1111110111010000
1100100011000110
1010101101000000
1110000010100101
1101110110111100
1001011101110010
1010011111000110
110110101100011
1111110100101110
10100011001011
110001000100111
111111111111111
101010000101101
1000010011000101
1000000000000000
1011111111
100010001101001
1011000000110100
1000100010000011
1101011001100001
10000010100011
1011010110011000
1100100010000110
111111111111111
111111111111111
1111111001
1100111101000101
1101111011011110
1000000000000000
100001011011
1110011110101011
1110011010010000
101001010010
1110111001100101
1010000000011001
1111111011010001
111111111111111
111110001011000
1101010111101100
1101010001011111
1011000100010001
1011101101010110
1110110100111111
1000101100100001
1011101110100011
1100011100011
1110101000000101
1000000000000000
1111011100101110
111100100110101
101100010111101
1010111001110111
1101100001110100
1111101110111001
11101111101011
1111101000101101
1011011111010101
1101110100010100
1010110100101000
1100000000101100
1110010010011000
100010111001001
111100100110100
1000111000001
1101111101111111
1101110111100101
10010011100000
1110100100111000
1111001011000000
1101100001100111
1010111000110
11100101111100
1111010100100001
100101110000111
11110010001111
110010011001110
10000110010111
1110010101101101
1101000011010111
1101000110110010
110000101100100
1111100011000000
1101111010101000
1010111011111110
1110010010001010
1101111000111100
100111010000111
101001000111100
1111101011100000
1110100011111010
1110000000000110
1000000001
10000011111
11111001010001
1010010000001101
1101111101111001
10001011100011
1111100101100011
1111101110111100
101101011000011
11111111111011
1111001110111001
10001101100100
1111111101010111
1101001100110111
1100111010010101
1011010110110
11100111111010
1110001100010011
11110101100001
100000010110100
111101100000010
1100001010001
1110011111011010
1111001011001
1111000000011000
1110001110101010
1010001100111000
111010011011
1100010110100001
1111001101101001
1110001011000100
1101110110100011
1110011101011000
1011100110001
10110010010010
1110111011101111
1110111000100011
1110000111100000
10000000101010
101110110000111
11011100100
10011000010
1101011001101100
1110000001001000
1110001001100110
1001010101001
1111000111100111
1111101101100100
11001011
1110001100000110
1111011011101100
10010011101001
110110010010101
11000010111110
1110010100111111
1101110011111101
