100001100011111
100010001000110
11011110001111
11011011001110
1111100000001011
1001010111100011
1000101100101011
1101101010000011
10011101010110
110111111011001
111101100000111
111101100110100
100110010100001
11011010010100
100010100000011
100000111101001
1101111110001
1000000000000000
1000000000000000
1010101101100111
1101010100001110
1111111110001000
110000100
1110110110000011
100101001110101
101111110001111
10110110110000
10100100111000
1100101000010
1010101100100001
1000000000000000
1000000000000000
100101101011
1101111100011110
1010001111
1101100111001
1100001111000
1110010110100
1111100001001011
10000110101101
1111001110010
1010111000111
1100001011110101
1000000000000000
1000000000000000
110010101111010
1110110111
100000101110
1101110000101011
110101001010110
111111111111111
1011101001110
11010000000110
1011110010011
1101100001101001
1000000000000000
1000000000000000
1100000101110111
11111110000010
1010011110101
1000111111111010
1000000000000000
1000000000000000
10110011001111
101000111010111
11100011110000
10100110110000
1101100001110110
1000101011101000
111101110011
1110001111000101
101011010000
1111110110101001
1100000101111000
1000000000000000
1000000000000000
1000000000000000
10110101010
100001000001001
1010100000001
1101010001100000
1110010011001000
11000100111010
11101010101001
1100100000011101
10100000011001
10000110000111
1110100101
1110000110111100
1000000000000000
1101010011101111
10001010010000
11000000001001
1110011010110101
1011111110011101
1010010000
1111011000010001
1011101000101
1011110000110
1110111001100000
11100011110100
1100110000011
1100000101110011
1110000001100100
11010010100000
11000000100101
111010001111
1101110101001101
1111010101001101
1111101000111111
10111001111101
1010101100000
1100011000001101
1100000101101
100011001111111
1011110101011111
1100111110110010
110111010000101
10001110111100
101101001010
111111101101
1110110111010001
1011111100
10011011100000
10101111110
1110101010
1100101011101
1000100001010
1011001111000010
10100110010001
11110111011110
1011011011000011
1011111101111100
1111000010011001
110100001100
1111111010110110
1010001000011
1010001110010
100000111010110
1011010101001011
10111110001000
10000000100110
100010000000110
11111110111111
1110111110101110
1101110111100001
1100101001010101
1101000010010
1101100010100011
10101110101010
11001000101111
111110110000
111000100100
11000101011111
11001111100101
100001010001110
100000110111101
11110011101100
100000001101100
10110011101
1101111000010101
1101010001010001
11000001001000
111111011011111
100001110111000
1101010011011
100110111111110
100011100001100
11011010011010
