11000110100100
11011111110111
10011100010100
1101111010011
10011100010011
1001111111
110111110111
11110001100
1000000000000000
1010111101110000
1011111001
1110110000011011
100000110101100
10001101001010
10001001110001
100010101110101
1100111100100
1011101001000
111010010
1001100101010
1111011100000011
1110000010001011
1111000001010101
1110111010010011
10111101101110
11010000000011
11001000010101
10100001010010
100100100000110
10100011011100
10010111001111
1101010010011011
1111010000110100
1000101100011
11011011101100
10000101111100
1111011111111110
10111000110101
100001111001101
11110001111101
100101111110010
1101000000100
1101001100110100
10010110110
1111000111001111
101011111101
11101000100000
100001001101010
11100110100001
1111001011001
110001010111100
111010100011101
11001011010110
10100101100001
1110001101100100
1010000010101100
1010110001101111
11000111100110
100101001110000
1111110100
1101110111001101
11110101000111
11011110100111
111111111111111
100100000101111
11011010110010
1001000110010
1010111111000110
1000000000000000
1000000000000000
101010001000110
111111111111111
1111001101101011
11000101101
1110110100011111
1111100010001010
1101001011010110
1000011101010
11011100000100
100001101011000
100001101100110
1111100101111010
1000000000000000
1111001010011001
1100000100110
1001011000111000
1010000100011010
1100100011100000
1101010110000111
110101011000010
10010010110110
11100010111100
111101000010100
111111111111111
100001101011111
1010000010010011
1000000000000000
1000000000000000
1011110011011010
1000000000110
1100000101011101
1011111110110001
10100010000100
10010011001
100011011111010
110011010011101
110111100100111
101010110100011
10111011111100
1010100101001100
1010000000111111
11010010111101
111100101011010
1000000000000000
1001101101011001
1001110101001100
1110000011011100
100111100111110
1101110110100011
11011111010010
10111001111010
1010111001100
10001100000
1110101110011
1111110011110011
1110110001001011
1000000000000000
1100010000111101
1101111111100001
1101101111011000
11010110101111
1010110101010101
1101110010000001
11000011111110
110011101110
10101000010011
11101111110010
1010011111000000
1000000000000000
1000000000000000
1010001000010000
1100111000011101
1111101010011101
100000010000101
11110011001101
1100100111111000
1111100010110111
1110110111100111
1111011111011100
1111101111111000
1010100111110101
1011011101000101
1010010000101010
1100011110100111
1111000001100010
101011001010
11001011001010
100001110011011
1111110110001100
1100111100100101
1100100000001111
1100000101101011
1110010010101001
110011011001011
1011111110
1011001110100
1111010100111
10010000000011
11000010101010
