10000111011
1010011000
1000101001
1100011111111
110001100101011
10001001110101
101011001001
110110001010011
11010000111010
11110001000110
11110111100100
110010100110111
10001111110000
110101011000
1111111010001011
1111110100100000
1011010111100101
1110010100110110
1001001001111100
10001000111101
100000101010
1111110011100011
1000000010
1111001001011110
11111000001000
110001001000101
1111111010111101
1110110000111010
1101011010101010
1001000000110100
1100010000110001
10011011001000
101011001101110
10100001001011
1011100110001001
1000000000000000
1011000001110111
10110100101101
100111011100
11100110001
1010001101
1110100101101000
1110000000011110
10001110110111
10011101110110
100010001001010
1100011011001000
1001101110001111
1011101001101000
1100111101110111
100001000011
1001011011110011
1010000101100
1110111100101110
1000000000000000
1101000100010101
1101011011001000
1110011011110000
10100010110000
1011000110011001
1100111110110100
1111011001011011
101101000010001
10000001000001
110011011110
111111111010
1000000000000000
1000000000000000
1011110111100110
1111000000001111
1110110101110100
1000011100111
1100100100101010
1011111100010110
1101110001111001
1111011100111000
100011111011100
100010101101010
100100111000
1011100110101011
101110100111
111011110100
11111110100000
110110000010011
1011010010110111
1001001000111110
1110101100111000
1001110110110000
1001101011001011
100010101001110
100100100110010
11000101110
1010110000
100000111000011
11111100100111
111111111111111
111111111111111
1011001110100000
1111100111000011
1101000011110101
1110111111
1101000010111011
100110111
100000010000110
111101011100
101110000001101
1101111011110
10000001111110
111111111111111
1001110000101
1000000000000000
1100101000100000
1100010001110000
1100111011101100
1111011111011001
1000011011001
1101111101100110
101111100101
11111110111000
101010101011110
11111101110010
111111111111111
1111111101000100
1000001111100111
1111001010111010
1010101000101111
1101110101111110
100001100110101
1110101010100111
1000000000000000
1000101110011
110000100011010
111110011101011
100101010110110
100101101010111
11000101111000
1100101101000
101101111010
1001110101011111
1111100000100101
110110000101001
1101011111010011
1000000000000000
10110110100
1101000000100
111110
1111001101100010
1010001111100
11010100010101
1101010010011100
1100010110
1111100101100111
1111101100000010
1100101101001011
1110110100000000
1010001001111011
100110101010
1111101000011100
1001011101001101
1001001011101011
10110100110111
111010111011010
110110100100
101010001101010
100110100111111
1010000011011111
1010101011001010
1110011100101111
100000011011
