10100111010001
11000001001100
101001011010001
111111111111111
111111111111111
111111111111111
100100000001001
10101000010100
1110011110110
100010111101000
110000001100011
11110001000000
10101010101010
11100100101
1111101111110100
10100001001100
10001010011110
1111101111110001
1011000111010001
1111010000110
10011011110011
1111111001000101
1111100000100001
1011110
1010101011000100
10111001001111
10011111110010
10001001101100
10101000110101
11101101101001
1111010100010111
1001001101111
1100111100110
1100100001011
1111111101011100
1111001101001101
10010110110010
1110010010001001
10100001011000
1001000111101
1011100000000011
1010010010011011
1101111001001
1011011010110011
1110111000011000
1110000001101101
1001101011001101
1000000000000000
1000000000000000
1110111110010110
1001000001101111
1000000000000000
111100110101
1011100000100101
1111001110010001
110010010011101
101111111111
1101001010100
10110100101100
100001100110111
1110111001001101
1000011011000010
1001111100110010
1101101101100000
1110111111101010
1101111111100
1101010011111000
11101010100
10101000111101
1010011100110011
1010010000101001
1010010010100100
100001111011001
111111111111111
111111111111111
1101100101000010
1100111011001101
10000010011011
10010111110010
1111110000011010
1101110001010111
1101011000011010
1110010011100010
1101011000111101
1100000101001011
10000110110000
11111000101110
110001001100011
10111101110111
10000101100
1110010000100101
10011001000101
1110011001110011
100110101001000
110000111
1101010101011011
1000000000000000
1110000001111101
1110011011101111
1011011010110000
100100111010110
101001001101000
1101111110111110
1110010011000
1000010111111
1111110001111
110111110000100
100011000110011
1110011101100111
101000101011
100010001100000
111010011100
101110110111
1101010001111111
1100011101110010
1011000001001010
111111111111111
1110100011010001
1011100101101111
10110101010000
11001010100001
111001000101001
1100100000001
100110010011111
10011001111000
1111111000011110
1101001010010010
1000000111010101
1110010110100110
111111111111111
1110111000101001
1000110101000010
1100101101000111
1101010101100111
101111111010110
10100110010
1110101111
1000010010000
101111100000
1100110110110011
1100001011101110
1111100010001000
100001011111111
11000100011111
100000011011111
10001000111011
1001001010101110
1110101111000011
1001111010101100
1000011010100111
1000000000000000
1000000000000000
1000001100000
1100111000001001
1101110110111011
1001100011100
10001001010100
10001010110100
10000010000110
11000010
1111111000001100
1101000001101
10100111010
1001000110101000
1111010000110000
100111100001
1110001100000101
1010001010100
10001011101011
