1000001000101
10000101110
1110010101000110
1100010111111000
1011101001111111
1001000101011011
1000000000000000
1001000011010101
1001110011001110
1000000111101001
1011001110001011
10000011111111
11100111101101
110100011001
1111001010000000
1011101011111101
1010000101100000
1000000000000000
1000000000000000
1000000000000000
1000000000000000
1010000010110010
1110010110001100
1001100011011
100011101000101
100001000111101
10010001111111
1111011111010011
110010100
1110101000110011
1110000111100001
1001100101101100
1011101110101110
1110010111111111
11000110100
10000010010011
10100010110001
1110001000010000
100101111010111
111001001100
1101010100011110
1011111111101
10110011101
10101011000110
101010011101100
100100110010001
10110011010000
1100110000101011
1010111110110000
10100001000101
1101100001000001
11101101000011
10100011010111
1101000011011110
11011001110100
11100100
10111101000110
111100010100010
100001101101110
1110000010000011
1001001010100101
101101000001
101001110100100
10010100100001
110000000000
10110101101100
100011010110000
1000010100010
1011110100011
1100011111000111
1001010000010111
1001110001000100
1110000101100110
1101110101011000
10000001111111
100011110
1111100101111111
111111111111111
10000001100011
110011011011
1100000011111000
1000000000000000
1001101100100001
1000001001100001
1101001110111010
1111101010101111
111111111000
10110010010100
1101001101100000
1001010000011010
100110011001100
10010011111110
100101100010011
11011110101010
100010111000011
10011011001010
110000000001100
1111100001010110
1100111100011
10101100010001
11010110000100
10001101011111
1010111000
1000000000000000
111100000001
1111001100000111
11011101111001
111111111111111
110011010100101
11101100010000
111111111111111
1110101000001
1111001100000011
1111110111111010
100111111
1110100111011011
1000000000000000
1110010101100100
1111011010101011
1000000000000000
1111101110011010
1011110001001100
1011100010000000
1101001111111000
1111101010010011
1100001010100
1000101101101
1110101010110010
1111100001001000
100000001101110
1111110001010000
1101000011100
1101101101101010
1110111001011010
1001100100101000
1011111100101101
1010001101100000
1011011011110000
11000000110100
1100101000110110
1110011001110010
10000111010010
110101011100110
1011100001111
1110000000010000
1111010000010
10010101001101
1001101010100111
1100000101010101
1100101101100111
1110101110111110
100011001101
1000000101011001
1101101011010011
1101101011011000
11000001101101
1001011111111
10010001011000
111001101001000
110111101110001
1100001111
111011010010010
111111111111111
100001010011100
1111110011011110
101111001001
11101011110110
11100010110
1000111000011
