110100011101
1100000111
100011010001
1100111100
1111001111001100
1111010111101100
1110010111010000
1100111011111001
1110010111000001
11011101111110
11110110011001
1110111101011
101010011
110010111111
10011010011001
1110101010110
1111011011001011
1100000010111111
1111101001111110
1110111010010010
100000011001
1111011110010000
101010110001
1111101011101110
101011110000100
111111111111111
1111111000101001
10001101010111
10000010100000
1111011100000010
1100101100001
1010100100100
10101001011001
11011110100001
10010100110010
1100100011010
100000001000111
1101010111111111
111111111111111
10100111111
10001111110011
1110001000111
1111110001010111
1010000001101
101001011111
1010000111111
1111110011011101
10000001111010
1111101100000001
100100011000
11101010100
1101011000011011
111000010101
100111111011110
11010111110
10111000010101
10010110001000
1011010011001011
1110010000001110
1001000110110000
1000101001100001
1101010100111011
11111101100
10000010001001
1011110101101010
1111011110110111
11011101011110
1010010001111101
1011110011111100
1010010111000010
1101001000100110
1000011100001
1000110000100
1110001110101010
1101011111100000
1101110100110110
1100100000110100
1010100111100101
10000010
1111101110111110
1011000010
1110101011111000
1111011001011
11010111010001
100011010000010
1110110011110110
11110111110
1111110110000110
1101111000011101
1110000110010101
100011000110
1001000011010
1100000110111010
1000111001000110
1100111101111011
110100010110000
111101100000111
11101011010100
1110001100001011
11111110000
11111110110
100100000011
110001001000001
1011011111100
10111011100101
1111101101111001
1000000000000000
1000000000000000
1000000000000000
1000000000000000
1000000000000000
1110011010101110
1101111011000
10001111000100
101101111011
101101100000
1010001011010
110011101111
100000101001110
1111110100010000
1110111111101000
1001001010011100
1011100110000001
1111010100010111
110111110111
1111100101011010
101011101001101
11001110010100
1110100100111110
110110101011010
1110111100000100
101111101011101
11101100001000
101111011111001
111101101010010
111111111111111
100001010000010
10100000101011
1110101110110001
1001000001001
100101101000
1010100110011010
1000011001
11100101111
11111101001000
111111111111111
11001001001111
100010110100100
11110000100111
1111111001110111
1111101110100
1110000011001011
1101110111001000
1101011010000011
1101000001001010
10011100111111
10111110000
1100100100101
100100001110011
110011011110010
10111100111111
100110000101110
1101011101111001
1110100111111011
11011001110011
1111100110001000
101101100010001
101010000011110
111001100011
