1101111110011011
1110010001101101
1110100110001010
1101010000111110
1011010011100111
1000111010001000
1000000000000000
1000000000000000
1011011111100100
1111111110000010
1110111010100011
1101011101001000
1101111111110110
1101111110010101
1111100010101000
1010111111010111
1011111100
1111111000010111
1110101111111
1111101111000100
10010101000000
1111001111001001
101111011001
1110001111010101
1110001011100001
1101101110111111
1110101000011001
1011000010001011
1111011001100010
11100100111011
1110101010010000
1101011001011110
10100010100
1001110110
1111101011010100
10100100100111
11001110110001
1000010101000
1100111011101010
1101001010000001
111101110010100
111111111111111
11011111101001
1110111001001111
1110010001111101
1110101101101
1111011010001111
1110110011100100
11100010100010
1110100010000011
101000000010110
11010101011111
1110010110101010
111111111111111
1101100101000
1001101000111011
1011001010111100
1101111000101011
100101111110111
1111000001101
100011011001
11100010100110
1010111111010
1110010001100
110110010010101
1110011101110001
101011001010010
1010100101011
11101101010000
111100100101011
111011101111101
110101110001001
100001010100110
100010001011111
1100111111111
11111111000
1100111010111110
111100010000
1110010101110110
110100000110111
111111111111111
111111111111111
111111111111111
100011101111010
1111111101
100010100011010
11110100111000
111101100010101
11111000010010
110111101001
1000000000000000
101001010101
101000111
10010111110101
1100100010000011
1000010011101000
1100111101001100
1000001101000
1111010000001000
100111101011100
10000011000100
1101111100100
1111000001100101
1000000000000000
100101001000
1101010010011101
1101110101001010
1110000010011001
1100101010000110
1111000101110101
1101000101000000
1100100011011101
1110110010101000
1111010000010110
1101110111001100
1001100011100100
1000000000000000
1111000101101011
1011000110100001
10001110111
1110111101000101
1101011011011010
1101100000110011
1110101000100001
1100001111111010
1000110101001100
1000100110101011
1100000011110111
1000000000000000
1010110001010000
1010100100001110
1010011101101110
1110011011010000
1101100110110011
1101111110001101
1001000110111
11011011000010
110010000100110
1110001101110100
1110010111110101
1001110000000011
1000000000000000
1100001010110111
1110100101000001
1110001100011000
111110110
1011100100011
11100000010110
10010000001
111111111111111
111111111111111
111111111111111
111111111111111
11000101100100
1000001101
1110001111100001
1110011111101010
1111100111001000
101100000000110
1000001100111
1111000101101110
111000000100
1101111110111100
10111011001011
110111100000010
110011100110010
1110111110100101
1101101001010111
1110110110110000
