1111010101010100
1111101011010001
1111000100110000
10010000110
1111100111001111
11000011001100
101111001001111
1111001101000101
1010111100011000
1101000011101111
1101100110101110
1101110101000000
1111000010000001
1111011100001111
10100000001
1100100101101
1111101010001
1101110001111010
1111001111000010
1111000010011001
111000001101
1110011011100101
1100100011011011
1110011011010010
1010000101110
11100010000000
1111000001111001
10010000101111
100110000010010
10000011101010
1110101100001010
1011001011010100
11111000000
10000101100001
100110110011
1110010100101110
1110100010101101
1101011110011100
100001001010010
1011010001011
1011101010
1110111111100110
10100111110000
1111011101101110
1101010101000110
1000100001101011
1010000100100100
1100100000010001
1100100010011010
1110000000111011
1101001011100001
11001001011011
1110010011101010
1101010001000111
1000000000000000
1000111111100
1011010101011010
1110000101010110
1111101010111011
1001010100101
1101011001100111
1111101110010101
110111100000
1001100110001
100101111110010
1110101010010010
1110001001011111
1110101111010000
10111010010011
1001011110000
100111000011001
111111111111111
111111111111111
100101110010100
100101010010010
100001111100100
111111110110111
10111111111100
1110110111010110
1111001110010110
10111110101011
111101001000111
10011100101100
111111111111111
111111111111111
111010101001010
100101011111010
111110100001000
11000110011011
101111001010100
10001000100000
1110100111110000
111111111111111
11001000111010
1100101011010
10000001011010
1110110110110110
1110010110011111
10110101100000
111010010110101
111111111111111
1100111011110
1111100000100000
10001101100010
1110101100111101
111110101011111
1001111111011110
1100111011001111
1001100010101
1010100001011
1000001110011
101010010011100
101000011000000
1100010011000
1100110000110001
1010001100111110
1100110111100010
1110011000101001
11101101111010
1000000000000000
1011100000110111
1100001000001010
1100011010010000
1001101100111111
1010110010000010
1101001011001001
1100001111111011
1011111100011101
110111111100
100000100110
1101110100100011
1101001100011100
1100010010111000
1110011011111110
1100001101010100
1110110100110000
1101000000011101
1000000000000000
1001011100110010
1111110100110000
1101001110110111
1011110110111000
1011101101010010
1111010011111101
1111101111101100
110110001
1001100110010
1101000011001
1111111101101111
110001110100
1111010100000010
1101010011011001
1101011010011010
10110100100111
1101000111010000
1111011010111100
1111000100100011
100110011111
101111100001110
1101100111111110
101110001001
10101110011000
1000000000000000
1100000100100010
1010010000100000
1000000001110100
1111000001011100
1000001
1111001101010000
