10111110010110
10101001100101
11000001101111
1111101000011
1001000011
1111010010010011
1101110100110110
1101101010111010
1000000100100
11110001000110
11001100110010
10111101111011
10010100101101
10110011111010
10111100011110
1111100011111
1101110010100111
1011110111001000
1100011100111001
1010100010011
1110111000011111
110100101111
1110110111111100
1010110000111011
10010110001111
10011000001001
11010010100001
10110011001110
100000100000011
1111100000000111
11000101010100
11011111101101
10000100111110
1111110010000010
1110101010100
101000001011
1110001100110001
10001011010000
1100011010011001
10110010100101
1110001001001001
10000011000001
1110011010001010
101100100000010
11111001000
1110011010110011
1000101100010
1111111010111010
100010011011111
1100110011100
11100100001
1100101111111000
101100100100
1000010001111011
10001111111010
110011110111
100010110001
1110001001101110
1111100110110001
1010001010000
1111010100101000
1110110010110011
1111001100101000
1011101111111010
1111100101101111
10101110011000
1000000000000000
1101000010100001
1010100010010000
1111110010111
100011000000101
111000010111110
101101101111100
1110101001000000
1101001010111001
1110110101001111
1000001000011001
1000000000000000
1110111110011
1111101001010111
111111111111111
111111111111111
111111111111111
101100011111110
1110010001101001
110001001111001
100010100101111
1110101110101010
1110001110100110
11101111000111
1100101110000011
1110110110111
100000000100100
111111111111111
100110111101111
1111000000011
1101101110100101
1010000110010011
1110100101011
111111111111111
111111111111111
101000111111101
111000011010100
1111000100001111
10000111010100
10111011011100
101110011
1111001010110111
1111010001001000
1101010000101101
1101101001010111
1111010000110000
10110101011111
110000011100111
101010100001110
111111111111111
1111011110011001
10101100010010
1100100111010011
1010111110111010
1001111001011110
1101000000100110
10100110001000
1101010100011100
1001010101000111
1010010010010011
1111010110101101
1111100110111
10010000011100
1111011001011100
11010011100000
1001001000010110
1101000011110010
1010000110
1110101001110011
1111110111000110
101101000
1101101011111010
1000100110111100
1010100011000101
1010000010111000
1000000000000000
1111100101000001
10010010110001
11010000101100
1101101011101
1110010101111101
1101111001010100
1100000000010100
1011011010001000
1000101010011101
1110000000101111
1100001001100111
1011101110011111
1100011101010000
1111110011111
11001011101101
11110111111011
1000011011101
1110000000101111
1101101110011101
1100000010011111
1101011111001111
1100110010100
1100110101100000
1110101100000000
100001110001111
10100001011101
10100110111101
