11001010111
1001010000111
1000111110010
10101101001011
100000101100110
101000000110010
10110011001100
1010110110101
10100101100010
1110111101110110
1011101101101101
11111011111
101100100000
11100000101
1101010111000
100000010100001
111111111111111
1111101010110100
1000111000000010
1011001110011111
1011010111011001
111001111001
1011001000011
1110111001010101
1000000000000000
11101100110
10010101001
10110111010111
10011011010100
10001110011111
1011100101101010
1011110001011001
10010000000
1010100101011010
1100000001010111
1110011001111001
100101000010111
1101011011101101
1110111010011111
1001110000101
111111111111111
11000110110101
1101110110110000
100011111010100
111001001110100
1111100001
1011110111011010
1110101110111100
100010001110
111111111111111
10100010101100
1100111001110001
1101101101110
111111111111111
10011011001001
111001110110101
10111010101010
10100011001100
1010011001101011
1010010100110000
101110000011
1110101110001110
110000010001110
10001101011110
1100011001100110
1111110111010100
110001100101101
1000011001111
11001010100000
1100000100000101
1000011011010100
1111011111100011
11100110100110
11100000001100
100100001100011
10011100001111
1111010100101101
100001110101110
1111110100001
10011101001000
1000000000000000
1000000000000000
1000000000000000
1011011111111110
101110001001011
10001001001101
110110100100
100001001011111
1001010101101000
10101000110101
101011100011111
10000001111111
101111001010011
1101111111000011
1000000000000000
1100001001010101
110101110010001
111111111111111
11100000100
1111110110100011
1001010001010
11011101
1110001101110111
1101111001110010
10101011101100
111111111111111
1110110110100100
110111110000
10100111101010
111111111111111
1111101010000001
1111111000110110
1110111000011101
1010111110110111
1100010101100010
1011101011100010
1100001111000001
11110011011
111110011101011
10110111101110
1110101011010010
11101101010111
101101111001101
1100011111100100
1100111110101110
1101101111110100
1110010110100001
1000000000000000
1110010000111011
1011111110110110
10000111011011
1001101001111
1010101011100010
1100111100111
1010001111011
1110110111000
1101010001
1111111001001110
1110100110111011
10010010000000
1110100101010011
1100010001111001
1100110100101001
1111101110100
1101010001001110
1011100010101101
1111100100000110
1100100110110101
100101001
1110101001110
1101111111100
11110011001001
100111110101011
1111001001010100
1010111011000110
1111111010000001
1001011000111
1001100001000
1100111000111010
11001011110011
10111111010100
1110001010100001
1100100011101100
100101000000
1111001111011
1111001110100110
1010010010001000
1100010001101010
101011111100
