11011001001110
11101111010101
11000100101111
10010001001110
10011110111110
11101100111110
100110100010
1100000011011
1110000100001
1100101111001010
1100100011000000
1101010000100011
1101100111010
100001000111001
11111001101010
111011100010
1101101101110101
1001000011111011
10111010001010
110101110101100
100110100100001
1110111111100101
1111011100100010
1001110010010101
1011010001100010
1011111111010101
11101011001011
101001110001111
111011001111
1100000101111001
1000000000000000
1000000000000000
1101000000
1000101100001111
1111000101010100
1101011011101110
11001110
100011111100100
1001100001100111
1011110011001
1110100010100011
1110110101100011
101010110101
1010110010010110
1000000000000000
1000000000000000
1000000000000000
110101110110
1011011100
1110010111010011
100110001101110
1010010001011001
100011111010101
100101001011110
100010010001101
1001110111111
1110100011001001
101100100111
11011000101111
100110011001111
10100001110010
11011111010101
10000101011101
110001011110011
1100000110101010
101010111010010
101010011011011
10010100010010
101001100101001
10110000011000
101100010111111
111111111111111
111111111111111
100011110110
1110010101000111
1111100010101011
11010011001
111111101011
101011111110010
100100000010111
11100110111111
1101001001000001
10110001100100
1100010111000001
1100110110011001
1000101111110010
1100010111111100
1110101110010011
1111011000000011
1110101011100001
101001101100001
1110000000101
1101101111011111
10000101111000
1001110100110011
1011101111010100
1100000101011101
1001101001100110
1010000111100011
11111110011
10000011110001
101010101011
1101101001111010
1011101010001101
10110010011001
101111001001110
11111110101100
1101001111100001
1011011000001
10001110001111
10010011100
1001010011110
101000110110010
11001001101
111101001010
1011011010010011
1111010111100000
100101010011110
101101000001011
110100011100011
100001101011111
10111000000000
11110101011010
1011000011110
1111010111101101
1011111010000110
1011011010000110
1010111011101000
1101101111110001
10001111100111
100110000111011
1010010010011101
100000111001001
1100001010101001
1100110100101000
1110111011111001
1100100110100101
1000000000000000
1010011100011000
1000000000000000
1000000000000000
1101111111100011
10101011000011
100000000111100
1000111111111
1100001110110111
1101001011110111
1101001100101001
1100000011001
1100011100010
1100110000010101
1001011010101
1001101001110010
1111111011101000
110001001001
11101001010100
11011100101001
11101010001100
1101100100000001
1110101111010001
1000000000000000
10100110011000
110000100001110
101001011101111
1011100100010
110000000000010
111100101010101
11110101100101
11100110011111
