11011100100011
100000110010110
1000101010001
1110110001000111
1111100110111011
0
1111100001100000
100010011011
1100011010000100
1000011000011100
1100001001101001
1010010111000
11101101011000
100100101001110
11000010110000
1000011010001
1110110110010110
100111011111011
100010001101110
100010100010
1110111000101111
1110011100101110
1011101011001100
1110011010001100
1111100111110
100101100100011
11111111000001
1110010100001010
10010011011111
1110100011001101
1110111111101101
10110110111001
10101001000011
1110000111000001
1111110110001100
1100110010011111
1101001000011
11110110001
1110011000010000
11000111101001
1011010110001011
101101101000
1110011001010
1110010011001101
1101100111000
1110101010000001
10001000010110
1111010101101001
10010
1111010110010000
110001001111100
1111001011011001
11011110011001
1100001100000001
11110111101
10011111111
1111100101101
10001010111000
1000000000000000
11101110011
110011111101
1101101000110000
1111101101010001
1110101100101110
1011000011000111
11011100000001
1010000110000011
1001111110000001
1110101111001111
1001011100111001
1011001001100010
1000000011000011
1010101001101001
1011110111010101
1101111111000101
1101010101111101
1110011111000000
100010111100001
11001110111000
1011001000001100
1000000000000000
1000000000000000
1000111111010101
1001101010101100
1101010111010100
1110000101101010
1011111001011110
1110010100111111
1111001000000011
1001111100111101
101110000111110
100001101010100
1010111111111000
1011001010111111
1110010100001001
10010111110101
101011001110110
1101110000011
110100100110
1111111000101101
1111101000000000
100101101011
1110110010010001
11100100101110
11111010011101
1100001000101111
1110111110001010
100100100000110
110111111001111
111111111111111
1101001011000
1101000111111001
11101100101010
10010000001
1011010101011
1111101010000101
110110101010110
11100011010100
1000000110001
1110111011100000
100010001111111
110100110110010
111111111111111
1111001010000011
1010011110010110
100010001000
10011100000001
111000100100
1111001101111001
111111100111110
100101010010101
101011111000011
1111010100111001
1100010100001
11011011000101
11001001000110
1011101011100101
1000000000000000
1001010101101101
100101000100011
101001110110011
111111111111111
111111111111111
11000110101011
1110011000101111
1110101101101010
11101110011
1100110011110
101110110010111
1010111100111
1000000000000000
1000000000000000
1110000101100110
10100101011001
111111101011110
100011001011111
11001111100101
10101101010110
10011001100100
11000111111110
1110001001000001
1101110110110
111111111111111
1011111101110110
1000000000000000
1000111100010011
1101010111110100
111110101101
11010101000100
