10010001001
1111100101010010
1110010010110
11001000001100
111010010111001
111111111111111
110000000110111
1110110010010000
101100000111011
110010101001011
1101101110111
101010001
1111011100100111
100011101100
10110000000111
100001010010111
1110000101100110
101011111000011
111111111111111
11110110111100
10101101011110
1110000000100010
100110010011111
11110111010001
1101011111101000
1110010101000110
1110111001101111
1101100111110011
1101110100000010
1010101000111111
1111001110110000
100001011000001
11011000100010
1111110000111100
1000000000000000
1000000000000000
1000000000000000
1101000100110010
1110001000010010
1100110101100000
1001000000101110
100111110
10010101010110
1111100110111010
11111100011100
10100100110000
11110101011100
1000100011011011
1000000000000000
1000000000000000
1100000101101100
1101001001000001
1110000001111001
1000000011001100
10101110100010
111111111111111
1111010101100000
1000101111100111
1101110111011011
1101010101001101
1101010000010100
1100101100000010
1011100101111101
1010101111110110
1110100000101
1111010100001100
1000000000000000
1011110110011000
110001001101011
11101001011
1101000001000111
111010100100
1011111011001010
1000000011
1111000110101110
1100011100011011
1011010010101011
110001000011100
1111101010001110
1001001111111110
1011000110101100
10111101010100
1110000111100000
11010100000
1100100011110001
1110011011001100
1111000001110011
1010001011011101
1100011100010100
10001011101000
100100101100100
1111101010100011
1010001111100101
1000000000000000
1101111011111110
1011011100001110
1111000010000000
100110001111000
1101110010011111
1010100111111001
1100110011000001
1100010010101010
1111100010111100
110101100101100
1110111010111100
1011110111101100
1000000000000000
1010010010000001
1011100100011110
1101011101101010
10101010100000
1111110100111101
1011011101010010
1100001110010110
1110000000000101
110111110110100
111111111111111
1110111110
1110111011110101
1000000000000000
1111001011110101
1111011001
11001101111000
11001101110100
1111110111011100
100110000000001
1100000100100
111000111111011
111111111111111
1000110000011
1111111001011001
100000110000001
11000100100
100101010110110
111111111111111
101010111010110
111011110010
100100100001101
111110011001100
111111111010111
110010011111001
111111111111111
111100011000010
1111011111101001
1111100101010010
1111111011101100
1001010011100
10110011001101
1110011111000110
11110110111
10010101000110
11001001111000
111111111111111
111110101110011
11011010010101
11101101000010
1111100011101010
1111000100010011
1110000100010100
1101011100011101
1110011010110110
1100110011111101
10100010011010
11011011100111
10010100101100
101110110000110
11110101100111
1000001000001
1000101010100
