1101110011100000
1101110001000111
1101110111110100
1110110101100001
10101111011110
111101011100011
110010111100001
1001110001110111
1000000000000000
1000000000000000
1011000101001010
1111001011110100
1101011010111000
1110100001011101
1110011010110001
10000001010001
1111101100011100
1001011011
11110111100011
100100101101100
1110101110100101
110101111100
10110101111000
100111000101001
1100100000101111
1101101011101110
1101101111100100
1101001111110011
1100101111110110
1110010011010110
1111000101000000
111111111111111
111111111111111
1111011011100010
1001011100011110
1011110110010100
100010101
11110100110100
1111101011011100
1110101111111010
1101100000111110
1101101010000111
1101110100100
1111111111100010
100001001
1110011111011
1010111000110101
1000000000000000
1110111011000000
1101011001011110
1110110000011101
1100111111010101
1111010001101000
10010010111001
11010111010010
1101010000111011
1001011010100011
10011001111010
11001111110111
1101010111111101
1111110101011101
10100010010101
1110001101011010
1000000000000000
1000000000000000
1110001111111100
110101000001
111111111111111
11010101000011
1110111010111110
100011100101101
111111111111111
1101011011101001
1010111110001
10101111100000
11001011111110
10010000100001
1001110000001100
1110011000001010
11010101100101
100111101111011
111111111111111
1100110011000
101011101000010
1111110100001011
1010001101011001
10000010110100
111100111011110
111111111111111
111111111111111
10100111000001
1110000110101101
1110100111111
1100011010101010
10110001011001
1111100101011000
1110101110110
10010001000001
1110100110011010
1110110101100001
100010000010000
111111111111111
10011110
1111110010011100
1100110011101001
111111110110101
1100010010110
1100110010100101
1101111011001
1111010011101000
10101001100010
1001100111011000
1011101000010101
111111111111111
100010001001000
1100101011111111
1100111011000100
1011101101011100
111111111111111
101001001001111
1100000001110111
100111111
101101000001
10110101
1011011010011111
11100110000101
111111111111111
1110101011111001
1011101110100001
1101100111100110
1110101111110010
100111101111110
1110101011001010
1100011101010111
1100101010000101
1011101110010
10110000
1110101010011111
110010001000000
111111111111111
1101101001000110
11010001111
111010100101
1100110110000100
1001001001111100
1110100001010110
1101010010111101
1111001000001100
1110101010101011
1111010111101001
100100110001101
111111111111111
111111111111111
100110110101010
1000101101010
1101110110010110
1101101001000110
1101101011100001
1011110010111110
1111010001001111
1111111001100000
1101110101101110
1101110000110010
1000000000000000
1010110000001010
111111111111111
1111001000011000
1101101011111111
1110101000110111
