1110010010111110
1110101100000110
1111001101101100
101011110
1111101110101111
11110000001
110111010101
1100110110110
10001000000000
1010101111
1110100110000010
1110100111100100
1110100010110111
1110010000111101
1101010101101010
1101101011110
111111111111111
111111111111111
111111111111111
111111111111111
1001100010100
1010101111010000
1010100101110111
1001110010101111
1000000000000000
1101010001111000
1101111101110100
1111101010100111
1110000011001100
1101001000001011
1101001101001111
1111010011010001
1111000001011101
10101010100
110110010010
1110100100011100
1111011001010100
1111100100
1100000001110011
1110010100110001
1111101100100100
1001100100000
1111101011111111
1101110100110100
11000001000
1110000010101111
1111101001100101
1111111011111101
1111110100011111
100111110001
11011111111001
10110110101010
1100100000011100
1001111100010010
1110011100111000
1111010000010100
1100111010100001
1110001001000101
1110110110111100
1110010011110101
1110011000000101
1110101000110010
101010111110001
110001010
1011001110000101
1110110001011111
1111111100101110
100000100010000
11101011111110
10100000001000
111110010010011
1111001100101101
1111111011111111
1001000101111
1111001011010110
1011011110000
1101110101101101
1100110010001011
1110111110010110
1010001001101000
100111011100110
11001010000100
1111000110110
111011110111
101100111010
1111101000011111
1111101111101111
1111001001111110
1110111010111110
10001001100
110100010011
1100001111110110
1011001110010001
101000111000
1000000100011101
1000000000000000
1000010110100000
1110010100000010
1101000100011010
1110010011101100
1100110100010000
1010111011101011
1011111011010011
10101110001110
1100010001001110
1010110001010
110010000111100
101101111101010
101
1101101101101101
1100110111101110
11111011101
10001100000010
10100000110110
100010001000111
111111111111111
110000011
1101111010000000
10100111101111
111111111111111
111111111111111
111111111111111
111111111111111
10000001111000
1010111110011
1111111011010101
1111101000111111
10000111111
111111111111111
1110111000100010
1101110011111100
101001001101001
1110101000000100
1001010110111011
1101000111000111
1100101101110010
1111101011010
110000000011
10111010101011
10101100101
110001100100101
1101000001
1100000011111010
1110010100001011
1011011010001001
1000000000000000
1101111000100100
1100010000001101
1110001110100111
111100001010
111111111010100
11001010000111
100110001011100
10000110100100
1110001011010110
1101111011111011
1110101011111010
1110101101011001
1000000000000000
1011100111000001
1011000110000011
1001010101101001
1011000000111001
1100110001110
1100011100100011
1100100010000011
1101101110100111
1111010110011101
1101110110010111
