1101101101000010
1101101011001001
1110001000111101
1111101010010101
10000101101101
1001101111100
111110000011110
111111111111111
1100000101111100
1001110110110101
1000111100
1110111011011001
1110101011000001
1010100010010010
1010111111010000
111110001101
100000110001010
111111111111111
11100101001001
1001010010100011
11001010001101
1110110010000
1110100000111110
11111111110010
1001110010101010
1010100101001010
1101010110010101
1101101111100101
1110011101111100
10010101100000
1111100100111111
1101100011001100
1100110011101100
100000100101111
111100101001010
1111101110111011
101111110
100110011
1011100011010110
1111000001001010
1101101000111110
1001000100101001
1110110011110101
1110001101000111
1101100111011110
1010100000011000
1010110110010
11110001110
1100011011101001
1100101001100010
1110011000111101
1010110100001011
1110101001011110
1110001010110000
1000000000000000
1100101100011100
1110000000001010
1110110010000101
1110101111101001
1110011000111011
1111000000111111
1100100000000001
1000100001010110
1100000111111000
1000000000000000
1101101100001100
1111010101001010
1100001110101000
1101110011101011
1010110101111001
10010101011011
1110010011001101
1011110101010
1000010010001
1110010110000001
1011010111000001
1100000011001111
1101101010001011
1110001000000011
1001111101101
1011011000010011
1011001100110
1100000111101000
1101110101110001
1111011110111001
1011101110111111
10011100110000
100110101010111
1101000110111100
1110101001001100
1110100111001001
1111000101110001
10001001100001
1111110100000100
1100010111110
11010010011
1101001110100001
1000000000000000
1011101110001000
111011101001001
111111111111111
111111111111111
1100111110100
100111101100110
1110111001010011
111111111111111
100001011110011
11001111101100
11111010100100
1101111100010
1000000000000000
1011111100010001
111111111111111
111111111111111
111111111111111
111111111111111
100011001110111
1111010001101100
101100010100111
111111111111111
101100010101101
101000100010101
100111100101011
1111010110000101
110010110001110
10011100110
1001100001100
111111111111111
111111111111111
1000010111001
1110111001101000
1110010000100
1101100110011100
1110101011011010
1101100100110101
1101101001110001
110110110000
1111001000010
100111101111000
1010101001111101
111111111111111
101001001011011
10100010111
1111001101111101
1111101010100111
1010000101011100
1010011001110111
1111110100111111
1101100001111101
1000010001101101
1110111101110001
1110010010110010
1110100000010001
111111111111111
100010000010
1111011000100010
1110011101101000
1110110110010110
1101000110111010
1000011001110000
1000000000000000
1100000100001100
1000000000000000
1011000101101000
1000000000000000
1010010000111101
1101110110010000
1110101011110101
1110000110111000
