1111011111101001
1011011101
1111011011011100
1001101
1111111101010100
1101100111011011
1100100011001110
11000111001100
11000110001010
111000010101
1111101001000011
1101011011111110
101001111011
1011111100
1111110010100001
1111100011110
11000101011001
1111110111110
1100001101110101
1010101000110110
1001000111010010
10111011110101
1110110000011000
10011101010101
1111010101010010
1101000001011110
110011100010
11110011011101
101101101100100
101001111011110
110100111000010
101101101100111
111011010
1011010010100000
111100111
1010101011100
1111101100100011
1111011000110101
10100000100
10101111000100
1011100010101
1111011010111100
111111111111111
110010001011110
11010000111000
101001010010111
1101011001110
1100111010110
10110010110101
1111100000011
110011100010101
1100010110001
10111010101011
1111101011111010
1000000000000000
1110111000111111
1111010111111100
110110110010111
111111111111111
111111111111111
11000110011100
11011000001010
1111000011111101
11001100111110
11011011101000
10100000100
1010100100000111
1000000000000000
1001001101110111
1010110110011001
1111111111000111
1110000010100101
1001100101101000
1110110111011111
1110000001010101
1101000010011001
1001000000010101
1111000111011100
10111011100
1000000000000000
1111100010001010
1111010010000
1111101110111111
1101001100110110
1000000000000000
1001100110100111
1101000101101100
1101000011000011
1110000111010000
11000000000
1011011111000
10001001100
1010011011011111
1100101101
100111110110
101110110001
1011111110101000
1000000000000000
1010110000100111
1001011100000001
1100000001100101
10110011110110
11110101110001
110100100110000
101011101011
1101001001101111
1011101101110010
1110010110011000
1110101110101110
1100110000110101
1111101110001111
1100000011000011
1010010110010110
1100000001011011
100000011001000
11110011110
10000010111100
10101111110101
1110010001010011
1001001001011011
1101011111010101
1111011101001000
100001011010010
11111110100101
1010000000000
1010000011010
1101010010011100
1110101010011110
1011101010111101
1101001101100101
1100011010001
110011010100110
1011001111011
110001100110111
100110111001010
101000100001
10001101011010
10011000100110
10110111111011
1111010110101110
1011001000001010
11010101110100
11011011000111
101010010010
11110111101111
111101110000110
10111010011100
1110111100001
100111111010100
11101001010100
10110000011101
101001001011
1101010000111001
1010001010001111
1111101100001101
1001111010101
1111111010010011
10110111011
1010101111011011
1100010111000101
1100000000010101
1110101000010100
1101000111111001
1111110111011101
1110101100111
110001110000001
10110011011110
10000011100010
1010101001
