1100000011010100
1011010001101100
1100010011011010
1011110110100110
111000001110
111100011111101
10000100100011
1111001010011111
1110001100101110
1001110100110111
1011100111000101
1110110111000010
1011011010000100
1011010101001011
1100000100111110
1110111011110110
111111111111111
111111111111111
1011111100000
1100111100010011
1101011001100
111111111111111
111010000111011
1111110100101001
1001001101011100
1001000000101110
1011011001010001
1100111100111000
100011110010000
111111111111111
1101010110011000
1101100000110101
1100110001110000
1110110111000
101110100001111
100011001100011
100010101100
1011110110010100
1001110001110011
1011110000100011
1100110100100000
101101101100010
111010100111011
1001011011110001
1100110001111
1110100111011100
1011101011011101
1111000011001101
1110100110011111
1100011100110110
1010101100001111
1000000000000000
1100000110101010
1100101111111100
11101101001100
100100101101011
101110010100010
100010001111010
1011000101001010
1000000000000000
1010111111010100
1011000101110110
1101101010000111
1111011011010000
1000000000000000
1011111110111110
1000000000000000
10000000111001
111111111111111
101000000010101
111000001110
1000000000000000
1001100101011010
1101101011110010
1101111101111000
1011001111100
111111111111111
101101011100001
1011001100100110
1000000000000000
1101000010100111
10101001110000
101000001011101
1100101011100001
1000000000000000
1111011000010000
111100111000
11100001010010
1110110111111111
111111111111111
111011100111000
1010110100011110
1000111011000111
1000110001000
111110011010011
111000011111011
111000010110010
10100011111001
10011100010110
1100000110110010
1111110000100101
1000011111111
111111111111111
1110001010011100
1100000101101110
1110111101001011
11011111
100010110101011
1100010001011
111001011110011
1010110100111
1111001010100000
1101000000110101
1101101011110000
111111111111111
111111111111111
1001110011111010
1101001100011100
10100011111001
1110000101100111
1100111101111010
1101010011000111
1001110000011
1101101100110100
10000110111111
1111000000101100
100100110001000
111111111111111
111111111111111
1001111000010111
1111100110111011
11011111111101
1101110001010110
1010001100000
10001110010
1000010011000
1111100011010100
1111000101110110
10110100011110
110101101111101
111111111111111
10000111100110
1110011000000001
1010110011100110
1100001010010001
1010000000001110
100001001111111
110011011100011
100010101111110
1111011001001110
100100000100010
101111111110010
110001111011111
101100100000011
1111111001111101
1100101010010111
1011011010011101
1011101100100011
1001011101100010
1011101111111001
1101101110100000
111111111111111
100011001111001
1101111101101010
1101100101110001
1111010010101110
1101000001101001
1100011111001100
1100010111001001
