100101001011
10000110000
1111111001111111
101111001011
1101000110110000
1011111011111001
1011010101101100
1010011101001100
1111111000001111
1111100000001
110101010100
1100011010
101101000100
11000010111
1000001101101
110011011110
1111010110101010
1000101001000100
1000011001110010
1000000000000000
1000000000000000
101001010000
101111000001000
10010110010111
11101100001010
1001011011110
1111111010011100
1111001000101010
1101111111001101
1101010010110011
1110111001011101
110100001011
10001010000000
1111010001010001
1001110001000101
1000100111011110
10111101110110
10100000010000
11011110111010
1111101100100111
1110010111111011
1001010011000
11111001110
11001000110101
101010101110001
110011110110000
1110111010100
1110010111111110
1000111011001000
1101011011111010
1000000001011110
1101111010100000
1110111010100
10000110010000
11001011000110
10111001001100
110000011100110
100111010111111
10100000110111
1111100000101100
110000110100100
10000111110010
1100001101110101
1100101111010111
1010010110001
101110111110
11000001001100
1110111101011010
1101101001000000
1110111011111011
1110101110110101
1111111000000110
1011011001100111
1111111100001001
1001010101011
1110100011011010
111111111111111
10110011100011
1011011001
1011100001100011
1111000000001001
1110111011111100
1111001101111111
1111111101111000
1111000001100110
1110001101101110
1011011100000100
1000100100101001
1111011110011100
110110001010100
100000101001000
1111101011110101
1100111110001101
1110101101010000
1110110001101001
1101011001010
11010100000000
1110110111110000
1100000000011110
1010001111011010
1110111110110001
10011000001011
110100011101110
111010100011
101011100100
1011110001001010
1010000111001
11110100011010
1101101111011000
101000110100011
11110111111100
1101011011001100
1100110111111110
11111100110110
101010111110101
100000110101100
1000000000000000
101000010000
1110101010110111
1011000100110111
1001101100101100
1000000000000000
1000000000000000
1000000000000000
1000101111001101
100000011010111
11011101111101
11101011100001
1101110010011111
1100011001000010
111100101100
1111001110111011
1110011111010001
1000110000000111
1010110001011010
1101001101110100
1010110100011010
10001000000010
10111100
1111101010011010
1111111001001100
1010011100100000
1100111001100101
11111100110
1101010111001
111111111111111
1111000111010101
111001110110100
11111000001110
100100000110000
1100010010110
1000011101100010
1101011010011111
1011100101101100
1110100101110111
1111101101101011
1111010011
111100111110
110110110001011
11000001001101
111111111111111
100100101000110
100000001100001
1110110011111100
100111110001010
10110001110111
111101101110001
10100110101111
111010100111
