1101100101010000
1101010110100000
1110100111110100
1111000001100011
1111101011011100
1111110100110101
111010111111000
111111111111111
10100100001110
1101011110111000
1101100001111101
1101001110100000
1101001001111001
1101010001000011
1001110100101110
1010111101110010
1011111010111010
1110010010101000
1000110100000101
1010100101010100
11111010010010
111111111111111
110010100110010
111111111111111
1010101011100
1110000011101111
1100100010111010
1000000000000000
1001011100011100
10111000101
1110011110010101
1101100001011
11000011000101
1001111110
100010001011111
111111111111111
111111111111111
101000000001111
1010010000
1101010100001100
1000000000000000
1100010000010100
1110010111001001
10100011000
11101101000110
1001111000010100
1001011100011110
111111111111111
111111111111111
111111111111111
110011000011110
111101000111
1100101110001101
1000001110001011
1100100111010
11010101000100
1111111011000000
1110110011011010
1000000000000000
1000000000000000
111111111111111
111111111111111
101001100111011
1111001011111010
1110100100001011
1011101110000001
1000000000000000
1101100001110100
11110111001
1100010000111110
1100001100110000
1010111000100001
1110100100011111
10001001011101
100100101111001
1001010001001
1110101000000111
1101111001011011
1100111010000101
1000000000000000
1000011011101
101010100111100
1110010111101111
1101000011100011
1101100010111111
1000001
11101010100001
1110010011
1110011101001111
1010110010010010
1100011111101000
1101110111001010
1101001011101001
10110101010101
1011101110011011
1110000011100100
1110100110011110
1110100100001110
11010001010000
1011011110000
1110010010101010
1101110110101000
1010100111101111
11110110010110
1100110011110001
1011110110011101
1110000000110010
1010000111000100
1111100111010100
111111100001101
11101010001001
1110011010000101
111000100101
1101010001110010
1111100101000
1110100000110010
111000111100000
1100110011001011
1111010010111001
1110001011
1111000011010001
11001010110000
11101110011110
100001100000100
1110100000001010
1010000010010
1000010111
101111000110110
111000101101110
10110111111111
1101000101011010
1101111101101101
11100010001010
1111110111010100
101101000001
1110110001
1100111000111
10101010100011
10001111001
1110100100110010
111101011111100
101101100000001
10101010110010
1101100111110111
1100111001110011
1111011111010110
111100110001
1011101101010011
1011101111010000
1110001010101111
101101011101100
100010010101001
1100001000000011
1110000001000001
10000111110011
1101101010111110
1101010010011000
1101011010101011
1010010110001111
1100001101100000
1111111100001001
1111100000001
1011110000110
101110110100000
1110000010100001
1000000000000000
1001110110010000
1110111100111100
1110100100000001
