10000010011101
10000000010000
101001011010
100011110
1111001101100011
1100011101001110
1010010101000110
1101000100111111
1111111100100100
11111001101101
1111100111101101
1110011111011000
1111111111110010
110101011011110
111101001100101
110101011001
101001011010110
111111111111111
110101110011101
11101110011100
11010010111001
101101000010100
10110010010111
110010100111110
100111101001
11000000000101
11001011010110
10010000000111
1011010100
1110011100
11001100010100
101111100000110
11111110010001
110000111010001
101001100100001
1111001100000
1011110000001
10100100001110
10010101001001
10111101000
100111111011001
101000001110001
10001111011000
1011101110000
10111010110011
1101011000100100
1100001010011010
1110010010101001
1110010100110010
1111000101001000
100101011101001
10101100101000
10000010010
101011100001000
1111010110011010
10000001100
1110110011110000
100010011111000
10000011011000
11001100101000
1101011000110
100101100100
1100111010110110
100000011010000
11111101101100
110101010001
1011001111010
1000000000000000
1000000000000000
1010001001100101
11110011101011
111111111111111
111101011111011
100001011101001
1011110111
1000010111010
1111111111000100
1110000110100110
111101000000
1011110110001100
1000000000000000
1000000000000000
1000000000000000
1000000000000000
1110010110001011
110110110000000
1101001110001010
1101111101010101
1111100111111110
1011111001101110
1110010111000001
1001010011001
1111101100100101
1100110101110101
1110100011101101
1001111100001110
1000000000000000
1010100000111111
11100000101
1000101111000101
1100000110010011
1000000000101
1100110100010010
101000011100
1000101011111
10001001111010
111111111111111
10110011101010
11010000000000
1101110011011111
1101011011011011
1110101011100101
1110110101111011
1100110111001110
1100111001001010
1111000101011101
101010110110011
1011100001100
1111010101010
110100000001111
101110100110111
100101110100001
1101111001001011
1101000101110011
1011110000011011
10100101000000
1110110010110011
1011000100111000
10000011110
101101000001001
110110100110
100010100000100
10110001100011
1111101111111011
1011101111111
1111011111000110
1100100110011100
1111011001100101
11010111101
11111001001000
1111110100100110
10111000001001
10110000000100
1011110111101
1111000111001
1011001111000001
1000010100000001
1111110011111011
11100101001101
101110001101
1010011100111100
1000010101100
100101010011
1010011111010010
101100001110010
10111110110110
1010110101101
1001010011000
1100111011010111
1100000000010101
100011110000
10011000010
1110011001000
1101000100010000
1100111110011110
1001001111110011
1011100011001000
1011000010010
111011100011
