1111001100100111
1111001001010010
1111000110001101
1111000000111000
11100111111110
1110000000001110
1110001000110110
1000000000000000
1000000000000000
1000010110100001
1101011010100110
1101100111110010
1111101001100001
1111101000110010
1111100000000111
111001001011
11001001101001
11010101101100
101100011001000
1110111111011011
110100100000
110011011000011
1000011110111
1000101100101000
1101100110111111
1111010001010111
1110101100000101
1000000000010
111111111111111
111111111111111
1010110100001
111101110011
1111101110101111
1111011101101110
1100100001110010
1011101110100101
1100101111011100
1000000000000000
1000000000000000
1111111101100101
11111001101110
110000011110110
11110011101
1111101011000110
1101101010100010
1100110100000101
1111101000011100
1011010111010000
1000000000000000
1011111100100000
11100011000011
1111110101011101
1111100110111010
110001010111110
111010100100010
1110101110010000
1111111001010110
1101011110010
11111101100011
111111111111111
111111111111111
111111111111111
111111111111111
111111111111111
1100101100011
1110110100110010
11000001111101
1101101100101100
1000001100
1100011000001
1001001010100
110110100110
1110111110110011
10000100110100
111111111111111
111111111111111
111111111111111
1111100101010
1110110011000101
1011101010011
1100011011000111
1101001110110111
1101110110011
111101001111
1101110110010000
1101111010000100
1010010000
1101001111001100
11010000101010
1001111101001111
10011100000011
1111111100111010
111110011001101
10100101000
1110010100010111
1110100101001101
11011000010101
1111110100011001
1111010010111101
1111010001101010
1101010100010110
1000111111110
1111101101
10100110010110
1111110110000010
10000000000111
1111100000111000
1111111110011010
11001110
10111111010101
1110000101000110
1101110110010010
1101010111011
1011110111111100
1010000000
1100110010001100
101001101110000
1100101111110000
1110011000110100
1011000110011110
110101010010
1111010110000110
111110111001
1100110111101111
1100100011011001
1111110011101111
1101001000100001
1111110000011111
1000000000000000
1110010011001000
111100
1010011000001100
1011101011010001
1000011100001
1110000101110100
110010100011
1100000000000001
1010110101101110
1100111000010000
1100011101000100
1100100001101000
1011001110010100
1001100100110110
1111010000011110
1111100000100011
1011000000011110
101001001100011
1101110110110
10101111101010
1111111000011011
1000000001101
1110010001110110
1011000100010010
111100001000
1110001100101101
1111010110011010
1111110000010101
1110000000111110
1101101000100111
1111011100010110
10010101101001
110110111110
1001111001000100
1011111101111011
1010111010000010
1100001011110101
1100101001110111
1100010111100000
1110100101010011
