1110010111010110
1111000100011011
1110011011000111
110010100111
1111100101011000
110000010000
10011011011101
111101010100011
101100000011100
1100001100011
1111011101101001
1111010100110100
1111010011010010
1110111101001101
1110001111000101
1110011110111101
11100101101011
1110110100011101
1110110010100010
10101000001111
11100110011
10001111001000
111111111111111
1001101011010
1110100111011001
1111000011111010
1111101011011111
1000001
101000111110
10101010011111
1111100101011011
10101101101
111000000000
1111101000101000
1111111100100100
100101001010111
101001011011100
110010001
11000010101100
1111100011001001
101111000111111
10011001100001
110000100010000
1101100110101011
11010000110001
1111000011000011
1101100101011010
1011111110100010
11110100110111
1111111000001110
10010111100011
11001110101010
1001001001010
10110110011110
10011011101101
10010100000000
10010101001111
10010010000000
101010111000
101111110101101
1001110010011100
1101110111111000
110100010111100
1100111010000100
1110011001011101
1110100010101111
1010101001010101
1101100011110111
11000001101101
1001100010010
1100110000111101
100001101000101
111111111111111
1010110101111110
1000000000000000
110010111101010
110110111100101
1101110001101
1101111010101100
1111001110010010
101110110101
10100001111
1101001010110010
1100101010101000
11110000110011
111101111100001
1010010100000000
1010001111100001
111111111111111
11100011110000
1011100111011001
1111000011011111
1110111100011110
1101000100011
1110110100010100
1111000110100001
1111010100110001
111111111111111
1001001111001
1100001010000001
100001100000
1110101010100100
1100110001100011
1001111001100101
1101101001000000
1111010100101100
111010101010
1111000010010100
1111110110000100
110110001101
10011111000101
1011010111110111
1100111011110111
10000101101010
1100010011101001
1100010101110101
1011100100101110
1110110100110100
1100110000111101
111011111110010
1000110110000
10101001010011
1110110111111101
1111110010010111
1111001111011011
10110001011
1101010010010011
11001110110111
1110011001111111
1001110011101
1001101111110010
1110110110111001
101110110110000
10010011110001
1100111111110111
1101101100000011
1111111001100000
1110001000001000
111100011100
1010011001010
1110101000101001
1001101010110100
111100100101
1110001101011011
1000010100010
10111110110111
10011010111010
1011000001100100
1011110100111000
1111111011101
101100010001111
1111111011000101
110101000111101
1110110000100101
1011111101
11001010111
1110110101111110
1111110101110001
11100111010011
1101110110011111
1101101101010111
100011100100
11101001100001
1110011001111
1100100110011001
100011101111101
1110100110101
101110000011
1110011110101100
