1111010001011110
1111100000111100
1111101111111111
1111001000011011
1111010000101101
1111000100110101
1111100101100001
10101001011
11011001011
1100001000
1000010100
1110101101
1111000101100100
1111111101000011
1111010100001110
1111000101110001
1111011010000101
1111110110110011
1111001000110101
11000010110
100110111010
10101011011
11101010110
101100100
1111000111001100
1111110011100010
1111011010011000
1111010001011001
1111100000010100
11111100000
1111101111101110
1010110110
1111110001001000
1111110010100001
100011110101
1000111101
1111100111010101
10001001011
1111000101000000
1111000101101110
1111111110101101
1111110000000000
1110011000
11100001011
1111110000101111
1001000011
1111111100101111
100010110111
11111100110
1111110001110011
1111101100111101
1111000111001011
1111110000100001
1111110011101110
1111110011001000
1011101001
101110110100
1111101100010100
100110100
1111111100101111
110001010100
110101101110
1101111001
10011110101
1101101001
1111000100110011
101100
100110001
10110000110
10101010101
11000101010
1100010000
1001110010
101101011011
101100011001
1111110100011110
11000001111
1111000110100010
101010100
1111001101000111
11110100
11011010100
100000001000
1111101111010001
110111010001
1111111011001010
1111111011101001
110101101101
101100101101
1101010111
1001010010
1111010100010001
1111010000011000
1001111101
11001010101
1111010001
1110101110
1111111001110010
100001010
1001101011
1111110111010011
101101000100
100000000000
1111111010010100
1111101101101101
1111101000011101
1111101101101110
1111101001001100
1111100101000010
1111111001110011
110010001010
110100111100
110101110101
100001101011
110110000010
101110000011
1110110100
1111100100010111
1111011100001001
100000000110
1111111000110110
11000111110
11111000000
1111111001111100
111101010101
110001111111
11000000111
1111101110001010
1010001010
1111110110001011
1111011010011110
1000
1000011101
100010
100001100000
101110110010
1000000010111
111000111111
101110000
111101011
110100101000
1111101110011011
1111101000111001
1111010011110111
1111100001000010
1111101000010111
1000011110
110111011
1100100101
1111111101101000
1111110000001100
101111010010
1111101100100011
10001100101
1111111010101110
1111101001010001
1111101100101010
1111011010101010
1111100000101000
1111010000000111
1111111101111101
1111111010010011
10001010110
1111111010100000
1010110010
100001110011
1111011000111001
1111100111110000
1111101010010000
