1101011011000
1000010101100
101111011
1100011011001001
1001000100110001
1000000000000000
1001101111001100
1010000000100110
1011111100010111
1111001000010101
1110001001110011
1101010010101110
1011110000011
1001100011000
1101110101010
11111011010100
101001100111110
1110101111010110
1100000100
1100110001001010
1100111111001111
1100001001000010
1101110000110111
1100110100100111
1101100100110
1110111111110
10110101011100
111110100111010
111111111111111
1001001001100
100111100101101
110001101110111
1100100110011111
1101010100001
100110000110110
111100011110100
111001111011111
1000011111011
1011110110011001
10110110011100
11110001001000
100101011110011
1110001011011110
11010111000000
1000000010101
1100101111010100
100000001100110
110011000100100
10111011100000
11010110100110
1010100101110011
101
10100010110000
1111010111011111
11110100011
10001011001101
11001111010001
1111111111011100
1100101110011101
111111001001000
110000010001000
1010101100111
1100110000111100
1101010000101010
1000000000000000
111011001100
11110100011011
1101111110110110
1100111110101010
1001000010
100111101010110
10100100101011
111111111111111
1011111000100
101000001
101010011001
100100001100011
1000000000000000
10000011011101
110000010111100
10100110011011
1101110011011
10110111111000
1110110100101
1100011010010110
11100001000110
111110000101000
1100111101010
10001011111001
1010110001011100
1010110100000100
1000010000001
100110111000101
100110010111110
11011001110001
100011110010000
1101011010011001
1000000000000000
1111001101000100
100001110010000
111010011011110
1111110101111110
1001101111011011
1000000010100110
1001010101111
1111111010110101
10010001110
10111100001011
1111111000000101
1011000001011111
1000000000000000
1111000110011001
1101111001111111
10101011110011
101011100111100
11101101100000
1100100010110000
1111111100001010
1110100111010111
10111101111
1110111111101
1010110100000001
1000000000000000
1001010011010010
1011010011111111
1001111111101001
1010111110001001
11111110101
10100111100
10100001001101
101011001101
1101000110000
10010101110100
1110000111101110
1100111100000010
1010011110001100
1010000101000000
1000100110110100
1001001010111011
1011000010011110
1000100110
1000000000000000
1110001001110111
1100010111100
10011000101
111111111111111
11101101000100
110110111001
111011011011
1100100011010011
1111001110101000
1000111011001101
1101101001101111
1111001101010111
1001110111110110
10010010
1010111010101
10100111101101
10111111010010
111000100000001
10111100110101
1110100001011100
101100011001
10100111110000
1101110010000000
1101000011001100
110110001110010
11000000010010
1001011011010
