1110111100110001
1111101100001011
1111110011111100
1110111101000010
1111011000011110
1111111011011010
1111001110111001
10010
1111110001101001
1111001101111000
111110100
10111
1111011011011111
1111100001110010
1111000010111000
1111110101101010
1111100001101000
11100110000
1111101000011001
11010101
1111111110101001
1111110111000110
1111111000100111
1111111001010100
10010010110
1111100111011000
1111100000010000
1111001101001111
1111011000000011
1101001011
10000011000
110001101001
1111110001001010
1111111111100011
1111110101
1111111100010011
1111111011000001
1111111110001000
1111001000111010
1011001001
1010101001
1111000001110100
1111110001011001
110110000010
1111111110111100
101000000010
1000010001001
1001000100110
101011110000
101110101011
10110101010
1110111111000000
1111011111100010
1111001001001001
1111101011101000
11111011101
1101111110
1111111001000011
101001101101
1101110000
1111100010101111
101011100010
1111111000010110
1111101100111010
1111000100110100
1111011010000110
100100100011
11101110100
11110100
1111111010001110
11010101000
10010011100
100100001100
100110010010
110110100011
1011011101
1111101001001110
110111111
1111011101000100
1111010101101000
10001001101
1111100100110100
1111101111110100
1000010010110
11010110110
11001110100
1111110110010001
111100010110
101111101011
1111011000010110
11101011100
1111011100111111
111010110
1111110101101110
1111110110100010
10100100111
1111110111011001
110011100000
110010001111
111001101101
110001011011
11001001101
1111011000110100
1111111111110001
101110000
1010100001
1111111100001010
100000101
10111111100
101111001011
110100100000
1111101100001100
11000001011
111111101
100010000000
1111110011001111
10100111011
1111110000000110
1111000100000101
1111110011001010
1000000100
100001010101
11101100
101010010001
1111101101010010
111011010
10100101000
1111111010111101
1000110011
10001110
1100011101
1111101100111001
1111111100011111
1100001001
1111101010101011
11011000011
10101110110
10100110011
1100101101
100111001
101010000101
1111001
1111011000110111
1111111111111011
1111100101100101
1111010100001100
1111111110110111
1111011111010010
1111011000110111
101001000001
1000101100010
1111110110111000
1111100000110000
11000011101
1110111110010010
1111000001010110
1001000000
1111101001101001
1111110010101011
1111001001001001
1000000010
1011010101
1111111100101000
1111011000110001
1111000111
1110111011011100
1111100001110100
1111110111100011
1111011110101111
