1110000001111001
1110010101100110
1110000100100101
1110001011001101
1110100100101000
1110110100111011
101100100100
10010101111
1110110101000000
1110001110100010
1111000001110000
1110001001011011
1110001111101001
1101001110000000
1110000001100111
1111100101101101
1110010101110001
10001010111000
1111101111111000
1111010001010010
1111001101101000
1101111000011111
101010001100100
1110100101101110
1010100110111001
1101000111111101
1101100101000000
1110011010101010
101011111010101
1100010111110100
1010101001111
1111011000000011
1110001101101000
1100000000111110
1100110011101010
1110011010111111
1100111111001100
1111001000001010
1000001000
1110011011100110
1100111110010
111111111111111
1001111000010
1101000111000011
1111101001100110
1110100100000101
1100101100000010
1111101011110100
110110110100
1111000111111111
1100110110000000
1010000100100000
1111100001101000
1111000110101110
101000111101101
1011100001001101
1100011001010011
101100100001
110001001100010
100011011100100
1100000101000
11010111101100
1110111100001110
1100000101110111
1101110101110100
1110110100010001
1000100110001
111100001011111
110001010001
1101000110001011
1101100010100110
1101100100011010
1010100100101
1100011000110001
1100111100001101
1110111110000111
100010011000
1011110000110101
1101010011110101
10011100110100
111111111111111
100011111100011
1111000000111001
1001101001010101
1000000000000000
1110011100101111
1110010111001101
1111001100111100
10000110011110
111111111111111
1110110001100101
1011010000011000
11010101111
110000110011110
111111111111111
111111111111111
11100001011000
1000000000000000
1100101110010000
1010110000100
1111010101010100
1111011100101110
101011001000000
1111011100001
1011110111001000
1000000000000000
1100111000111100
101110110010011
111111111111111
111111110111001
111111111111111
10010011011
10110100100101
1110101101100000
1000001000010
110110110100111
100100011000
1111011100010010
1000100010000101
1011111000001110
1101011101010001
1001001100011100
10001111
110010011111110
10101010101001
1010000010101
10000111010110
110110110111
111111111111111
1111101010011001
11111001010010
1011001110000
1110100101011010
10000101011010
1010110100101
1011111010000010
1101111111101010
1110000001111101
11001001001110
10011101101100
1000001101111
11010111010010
1110110011
1110000000101001
1010101000011110
1100110001110101
11101011010011
1111101111000111
1111111011000110
1000110010101
11101111000111
111111111111111
111101011001110
1111100010101110
1110000001101111
1111001011101011
1110100110110011
1110110000110011
10001111001101
10011110111101
1100100000010011
1101101010000011
100011001101100
1111010010000101
100010011010
1101101011111010
1101000000001001
1110101100101001
1101100010000101
