1111111100110110
1111100101010100
1111100101101010
1101110011
1111010001010000
1111001111011111
1111011000010001
1111100010011110
1111010000001100
10011100111
1111001110101110
1111110111001011
1111010010110010
1111100000100101
10010010011
1111101001000000
1111011110011000
1111100010111110
1111101100000101
11101001110
101101110110
1111100100010001
1110011000
101011001110
11111110
1111100101100111
1101100011
1111010010110011
10010100101
101011101010
1101001111
100001101111
101010000111
100101011110
1111110001100101
110001000011
1111111010000110
1011000111
1111111110010001
1111111101100010
1111111011000010
100011011001
11101000011
1111110100011100
101000101000
1111101110001110
10001000011
101000111010
11111111010
1111111101100010
1111101001011001
1111011000101101
1111110110111011
1111111100011010
1111110011011110
1010000110
1111111111000010
100101001011
110101000000
1111110001110000
1111101110001110
11101010
11110001110
1111111001010111
1111100011010010
1111110010101000
1111011010001101
10001
100110000010
100001100110
11001001110
1111111100011011
100011011000
1111111100000100
10000011
101110001101
1111111010100010
1111010010111101
1111011010101010
1000100010
10011010111
100000110011
101110101101
1111100110000000
1111101000101101
1100011010
1111101100100011
1111111000001010
1111100001101111
10001010000
1010000000
1111001110100011
10111110100
1110001100
110000010001
1010111111
1110001
10000100100
1111110011011100
110010100100
100111100010
1111111100010111
1111001101000101
1111110011101110
100101
1111110110100000
1111100011110100
101000000100
11101011100
101011010000
101110110
1111111101101111
10000111000
1111011101101110
1111110110001001
1111011100011010
1111110000011110
1111101101100010
110011000
1111101110011101
100010001101
101011111001
1111111000100111
110100100101
1111111010100111
11000101100
1111011110110011
1111101111100000
10000010000
101111101
1111100010111010
11001001001
1111110011010110
1001110101
1111111001000011
11001001011
111001111
110011001110
110011010100
1111111100010101
101110000
1111110000000001
10100100111
1111100100101111
1111101101101110
1111111101111011
1111001110010000
101011000001
100110000011
1111111000001101
100001101001
1111111010000001
100001111001
1111101001001001
1111010011010110
1111101011111111
11101101
1111101100111111
1111100111001011
1111100010100111
1111011100101000
101111010110
10010011011
1111101011110011
1111111001010011
100110111010
1111100011100111
1111001100110010
1111111100101010
