1110110011100
10001111100110
10000011001001
1110101110101000
1100011100100111
1100011010000010
1110001110011011
1010001110011
1111000010011110
101011001110
1111100000000110
1111110101111010
1011010111110
10011000001011
1110101101000
1100010010110
1001101000111011
1000111000100101
1000000000000000
1011011001010100
1010100001000110
11010010101
1100110111010101
1000000000000000
1111111101011100
1010101001110
10000010110010
1011101101101101
1010010100
110001011101001
100101010111110
1111010111110
1011000100101
1110000111110110
1110000000101111
1010100001001101
1100000100011101
11000111011
1110011111000111
10010100100100
1001100101011000
1111011100000100
1110111111001010
1101111011111001
1101110011010100
100101100001111
11011000101110
100001001001000
111100101101000
11001010000110
100111001111001
100001111010
10010110100011
1100101111000101
1011111000111011
1111110110010000
1101110111101111
1111101011110010
11101101010000
100110111111000
10100000010100
1100011111110000
100001010001110
111001100001101
11011100011000
11000011100010
1011011010001111
110110010010
1111100101010101
1110100101100101
1111101011001010
1010011110111111
1010010100000
100111110010010
1111001111100
11000101000110
111111111111111
1100110101000001
10010101000111
1110100010010
101101000001010
10010010101100
10000101010011
11011001001
1001110001000000
1101110111101111
1111100110001100
100111001010
1111101010000011
111100100110000
1000011001110010
111001000110
1010001110
101011010111011
11001001100011
1110100010000111
1010100110001011
1110001011101001
1011000001000
11110000000
1100111001100010
1111100000010010
1111011010011000
1001110111100110
10000001111011
1000000000000000
10001000100100
1100001110100100
1100101111011001
1100111110011110
111111111111111
100010010011110
1101111111111011
1101101000100100
1000101111010010
1000101010100110
1111101000011
1111010001101
1000001010100110
100001101000
101101101011
1101101111101100
110001101000
100011101111101
10001101000110
1100010001001100
1101110000011100
1000000000000000
1101001001010011
1111011000100111
10000000000101
1110001110100000
10111111
1110011111110000
1111111110101010
1101010010110001
1011001000000111
100111111011
1010111000110
1111011000100000
1101100011111101
111111111111111
100010101001101
1111101011101
1101011110100111
1100101100001
1010100100000
1101000101000
1110100111101001
1101100010100
1110101010111100
1110010011001001
101111101001110
11110010100100
110000000100000
10011100001010
10001010110010
11011010100001
100000000011101
11000000010011
10100001001100
10011110000000
1100011001010110
1010001111111000
10110
10101100001010
10000011110111
1111111110101
1101010100010
