11001110010
1111
100111110101
1110101110100001
1010110000010010
1010001100101101
1011010100111111
1110001101101010
1111001101011
110100000111001
100000100110001
101101110
1111010000
10011110
1101101100011110
11010110100
101010100110011
1010101011000
10001000011100
1100111110001011
1100010010001001
100110000001
100101111000111
100100011000100
11100100011010
10100101010001
110011001101
1111100101110010
11100000000000
1011100110100
1110100110111000
1110111101
1011100110
1111001110010001
100011011001100
11000010000001
1101101000111
11101010011011
11111011100001
1010011000010
1101111001010011
110110111101
1110000001101101
10000101010
101100000100111
1101110010111111
1111010010100010
1011100101001011
1000000000000000
1111111001000101
1100010110111110
10100000100
110011111100
1110101000010010
1000111001101
1100101011010010
11110100010110
11000101001011
1000000000000000
1011000000111010
1101001011000001
1000000000000000
1000000000000000
1000000000000000
1010000101000111
10000110010000
101100000110000
111111111111111
1111100011110101
1110110110011110
1011000010
1000110011010111
1110000000011001
110111011001010
100101111011011
1110110100100000
100001100010
1100111101101110
10111100001
110011011111011
11010100110011
1111000111101010
1001100101101
1101000011101110
1000000000000000
1011010101010000
10000001111000
1010100110100
101001010010010
110100000001100
101100101010011
111100001
1110001100100101
1110101101101101
1111000010001100
1110011110000010
1111000010100100
1001101001110111
1000001010101000
11000111101001
11000111100101
100101011010000
110101010011101
1101001011011100
111011100000
1001011011110
1110110001111000
11111001010
100110001010001
100100011000010
1000000000000000
1101101011110000
111011000001011
100110010110101
10111010010101
1010011111010
100110011011011
11110100100
111110000100001
1111000001011110
1110001111000111
10010111110
1100100010100111
1011101010001001
100001100110110
100111110011111
1101110100000110
1100
10001011000
100001111010001
1111111101101100
1111111011100100
100101100101001
1101011001001100
1010111000001100
1011110111001011
1101100011010111
101010110011001
10110001110110
110111001010
101010100011
1110110000101101
1111010001001001
1111101001000001
111111001101
111100010000110
1010011111000011
1011010010001110
1100000111100100
1110111111000101
100100010011010
100000110111010
1110001001010000
110100011111011
10111010010010
1111110111001110
110010001101
1111110101000011
1111010100100101
1110110111001011
1100111011101000
1011001100110
1110101100001001
10100011111101
11100100101
101100100100110
111111111111111
11010010000000
1011111111
