1110111101010010
1111011011110111
1111001111000011
1110100010100100
1110101101010010
1100010101100010
10101000111000
10011010100000
101011000000
1101000000110011
1101101110111101
1110101110101010
1110100101110100
1111001000001110
1111011011110100
1110011011
11010000010100
1101000110110
1010010000001011
1011001000110111
10010100001
10000000001011
1111100011010100
10101111100
1011001011011
1111011010110101
1111110101011110
1111101110001
1011101010101
10001100010110
100011000100010
1110101000011000
1110001011010011
111010011000
1110000010110
100111110010
110000110110100
100111110111010
1111010111110000
1111001010110010
1010110011
10011011010000
11111101000000
100011000010
1111101011110100
1111100001111101
111100110001
100110100001111
10010000010100
100001000011001
111111111111111
100000010110
111111101100
1010111111101
11010010011100
100100110001
1100010001010101
1111011011001010
101011101001010
1111000010000110
1011110011001
11100101110011
10101001101110
100110010011111
1110101011011
101011110100
110110011001
1100001111001011
10100101010111
1111100001110001
1111011011101001
10111010001011
1100000111100100
1010101110111101
1110111110101001
10111000000010
11001011011010
11110111111010
1110101001100111
1110000010100101
11010010100011
1111000000010011
1110000111000011
1101000111101100
110011001100010
10111101010100
1011011111111110
1110100010010111
101100100010111
111111111111111
1001110011001
1110111000010011
1111100101100011
1101001110010
1110110000110111
1110000010101101
1110011001001010
111111111111111
100000011110011
1011000011010110
10011100111
100101111011101
100000000111101
100011110011
1110011100101101
101001000110
100000000101
1101110000100101
1011010100010100
1011001111110101
100100111010101
1010010001011
1001110100001111
100111101110
101000010101
10111111111001
100101101010001
1101001110000011
1110011100010001
1011111010010001
1001010111010
101011100110
10100111111111
110010010011110
1101101000001111
1011001101010001
1110110001111110
11001010010010
10010011000001
1110111100111001
1110011000011111
1110111010101100
1000000000000000
1110100010000101
111110001110000
110000101111011
10011011100011
1001110001000101
1001101011110010
1001111101
10100000110001
1111111001100000
1000001110101
1110100011000000
1101111001110000
1110110110001110
11011010011101
110111111111
111000101110100
11011101110110
1011011101000011
1101011010100010
1100001010110110
1000000000000000
1001111010001110
1101010110000001
1111101001010011
1110111010111001
10100010
10011001010010
1101110100010001
1110001000101
1011011111111000
1011101001110010
1011010000110011
1000000000000000
1000000000000000
1101101010111101
1111100110010101
