1101010000111010
1101100000010010
1101111111101011
1101101100110111
1000111100101101
11100110101010
111111111111111
10011001010
100111110000
1111111010000000
1110010111001000
1101100110010111
1101111010111111
1101101101100001
1100101011110110
1011101110010100
1010111000000101
101000110010110
10101111000111
111111111111111
111111111111111
111111111111111
1111011011001
1001111111010010
1100100010000100
1101010010011111
1101010000000110
1000000000000000
1001100011001010
1000101000110011
1110101001001101
1011010000010000
1011110111111
111111111111111
111111111111111
111100000010100
1100010001000001
1101011111010001
1011111101011001
1101100110001100
1000000000000000
1101110001000001
1011101001001
1111011100001100
1010101111111110
1000000000000000
111111111111111
111111111111111
111111111111111
11011000100010
1110101011001101
1101001010010100
1100111110001100
1101010000000111
1110110110100000
100111110111
1110100111111011
1011001000001001
1000000000000000
1111101111100
110101110101000
111111111111111
110110010100101
1100010001111110
1001100011101
1101001110011111
1110000000010
100101100101100
11101000001011
10010100110010
1100100100100000
1010111101001001
1110110010001
1000100001010
111111111111111
111111111111111
1111110000100111
1100100110000010
1101010001110111
1000101100000
1111011010000111
11000010001001
1110110111111010
1111001011010
1111000000011111
1011101101111
10000100011
1111111000111
10011001000110
1010000000111111
1000000000000000
1100110001100001
1000111011000010
1100001101111010
1110110001001110
1111011111100000
100001110111110
1100000001011110
1110100010011111
1110111101010010
1100011111011001
1100001111010
1101010011111001
1000000000000000
1101111011111110
1000100101010100
100011100011
1111010110101111
11110100100
10001000100000
11000000010100
1111110011101010
10000000100100
1110011101110100
1101000100110111
1110011000111011
1000000000000000
1100100001100001
1100100010001011
100111100111010
1110010000111001
1111001000011111
1111001001101010
10000010100001
1110101010010110
1101100110111
1111101001100110
101100000000
110100111101
1111001110010001
1101110001011011
1100101110100001
1111001111011000
111101000011
1110011011110011
111100110
10010011100100
1111011000000001
10111010000000
1110001111011100
111101110100
10010111000
1010111011010
1100111100010111
1101100110111011
1101010111000110
1110101110010010
111000001
1011111101110
11000100100100
10101101100100
100100111110101
1010010111101
10001000110
11110101100111
1101111010110100
1101101000001000
1101011010110000
1101010111001101
1101010001011001
1010100111010
1111100111001000
11001001001011
100101100011101
1101111000010001
10100101001101
1110001001110000
111001
1100111111101101
