1101101100111000
1100100100100011
1111100000101101
1111100101100011
1111000010001000
10010100100010
10010000011
101110011011
110101010111
100010001111
1101011001110010
1010111111100
10010110000100
1011101111100000
10111000111011
1111110110001100
10101111111111
1101111001100110
11111011101111
1111001010010
1000110010001101
1101000000010110
10100111110111
111000000010100
1001010000101
10000101011
1101111100101101
10100000111001
1000101011100
1101001000111010
1111111101011010
1011011010110
1000010001111100
1000000000000000
1110011000100011
11000000011110
1110001000010000
1000000010101100
111101000000
1001010000111010
100001110011
1110111000001111
101100010110010
1001110110011
1100100111101
1000001001100
101010100100000
1111101000011000
1110111011100
1111111100101001
1100110101100110
10001101000011
11001000011001
1101001001001011
110111001100
1110000000100111
1101010000110110
100101001101011
1100110001111010
101010101110010
10111111111100
1111011110010101
1110011100111
10101110000
