100110100111110
1000000000000000
1010000101001
1001001110100
1111110010001001
1011111110010001
10011111100
1110000111100110
1010001001110000
101101101110
1101010010110010
1111011101111101
1010111000001101
1010000101111001
1011010011110111
1111011101110000
111001000011
1010101101111000
1000000000000000
1110000100110010
1000110001111111
110101000001
100001010100100
111010111111
1110100100110100
1000000000000000
1111011000011101
1111010110000000
1010011100111110
10100011000010
11100001000000
1011110110011111
1000011011111
1100111101110100
1100011011010010
1110010100110111
1111000110111001
11110010011
1101010001011
1011001101010000
1111111110000000
1100111001001111
1110010101010111
1101001111010001
1100000011000010
1111111011010101
1011011010110011
1111101000000111
100111100001111
1100010010001011
1100011001100111
1000000000000000
1000000000000000
1101000101001010
1101000010010110
1111000110111000
11111111100111
1110001000001010
100101101111001
1111101001100001
1100101111110010
1111011100010110
1011000101110011
1001110011001001
