1101111110010
1000000000000000
1100011011111001
1111101110101111
11011010110000
1001001100110100
1000000000000000
10110010111011
1000001100000011
1011010110101110
1111000110111011
10001111001001
101000000011111
1000000000000000
1110100010000110
1110101010001111
10111101111
10110111000010
110010011111110
1010000000111011
100101110101101
1101001111110111
1000101110000100
1101101011000001
10010101100000
10011100111001
110000010110100
1000000000000000
111111111111111
111111111111111
101
1111011111100010
110100101010100
1111011111101010
11110101001100
111111111111111
1011100011111111
1101010111110111
1111000110010
11100000111110
11100101010001
110001010111100
10110000110110
1111101010101101
11101111101001
11010000001101
1101010010000011
11101010110001
1110110111010101
101101011011100
111111111111111
10110100101110
1111000011110000
1100100000110011
11011101101011
1100100100101000
1000000000000000
1010110110011110
110010100101001
1010011110100000
1011111001101100
1010001100010011
1101000101010
1100011111010101
