1111011011000101
1010000010011100
1001010100100011
100110000110
1110110101010
1000000000000000
1000001100111110
111111111111111
1100110001000011
1001001001111000
1000111110001011
1101000001011000
10001100011111
1111000010011111
111111111111111
11010111001110
1000110110110101
1111001011101000
110100000100100
100010111000011
1000001111001111
101100111001110
10111100101000
10111100011101
1111110111110
11010110100000
100111100110100
1000000000000000
1000000000000000
11011010110011
1010110100111100
10110010000
1101001000111101
1100111111010
1111101001100110
1000000000000000
1000000000000000
1101110100011110
1011100110111110
111111111111111
10001110001100
1100000101010
1001000011111
100011010101000
11101010010111
1011111100101111
100001100000000
1011111000000111
1111010110110101
110101101010
1100011001011011
111111111111111
101010001001001
10001100100101
1111101011100111
1000011011110
1001110101010
1000000000000000
1111111110110010
1111100110100010
1000000000000000
1111011001110111
100000001100
11011101110011
