100000111100001
1000000000000000
1110001000100010
1100110111011001
100011110
11010100100000
1010110
1011010101101100
1100011
10100100000
11100010111011
1110011011101011
111011000100
1001111111010010
110101000110101
1111000101110
100111010011100
1000011011110001
1100100101011010
1110100111010100
1011000001101011
1101111111110000
11010001101011
110101011110100
1000000000000000
100111000010
1111101110001111
1110110100000001
1101010001110001
1101100100011110
1010010111100
1011011101001
1100110100100010
1001110001100111
10100101100100
1110100110101001
101011110101111
1000000000000000
1001100110111110
101011010100011
11010011110
1111010000101111
1110011011111
11110010110010
1111110010011100
1111111001110000
10000001101010
1111110110101001
1100100001110110
1101010011110011
1001010011001
11101110110100
1101001000100001
1111010110101
100101101
10111001111101
111011010000
10101011101100
1111001100100001
1010101010000
1101110010011000
11010110111
111001111101
1010111101100
