1001111111100011
10111101101101
1001110011101111
10011110100100
1000011111
1101000110011001
101000110000101
1111111010111011
101101001010
10111011011
1000000000000000
1001000100010
1011110011111010
100000100011
1101001000100000
1111110101110011
1011111100001101
1111100100001000
10110011110001
100010101001
10111011110111
1111001011110001
100101011101011
1111111111000101
1101011111101011
1101001100000010
1101010100000011
11000000010011
1101001010011001
1011010011000111
10001101001110
11101101100100
101000101111110
10000011000111
1000001110011
1010110101000
1110111100111100
101100001010
1100100100100001
1100110010101000
111101110101
11000010000001
1111110100111101
1000000000000000
1100110010101111
1111010101111111
1100100101011
1111011111010100
1100010111100000
1100000110011000
1101101110
10010101110001
1111011110000100
1110111001
1100000101010101
1011011010011000
1100110101011010
1000100000101110
10100010111110
1111100111100
11010001000010
1111100
1100010010110
1000101110100001
