1100010010101100
1000000000000000
101101000111001
101100100100000
1101101001111
11011100111001
1000000000000000
1001000000110000
110110011110
1110111111001100
100010011001110
1011101100010001
1010011010111110
101000011010
11000010
111001001110
11100001010111
1101010110100001
11110111111000
1100111101100101
1001101001110
1000000000000000
1100111111010011
1101100011101001
1110100011101000
100010000011001
1000000000000000
10011001000001
100110001110
1011101100010001
1101101010111000
11001001011
1011101010111001
1011011001011110
1110101100100
10100110111101
1100111101011100
1000000000000000
1010111000100001
1001011111010010
111001001100000
10101010110101
1111011000101001
1000000000000000
1101011100111011
100111001101111
1000000000000000
1010010001110011
110100011111100
10011110111001
11011000001000
101011011000010
1101000110010101
1001110010010111
1011010110010
1011110111111010
1111111101101100
100110110000101
1011111001010000
1001101000011111
1000000000000000
1010000101101
1111110011101
1000010101000010
