110010011000
1101100001000
1101000000011001
1101101101111111
11101111001101
1000000000000000
100111000101011
1110111101011110
1001001110000001
10101001111111
1110110110100
1011010011001000
111111111111111
110010011110
1001011101000101
10100110101111
1000011100111
1110110001100101
1111100111010011
1110000010101
100001100100110
100001000111
101000100110100
1110010101001010
1100000011100111
1110110101010011
101000000000110
101010000110
1101000110001010
1000101101101100
1010001100010001
1011100010110100
1101101000001110
1110000100001111
1100101110100000
11010111111100
1000000000000000
101000100111001
101010000000010
1010111001010
111111111111111
1000000000000000
1011011100110100
101010010110000
1100101011011
1010011101011000
1111001001000
1011101101000
100111100110000
1100000011111001
1100110100011010
1110011001100100
1100101000111010
11001000001010
1000000000000000
100010001000111
11000011101101
111111111111111
111111111111111
1110110100110110
1101000001011001
10001101110101
1110101011011000
111111111111111
