1110011110001
111111111111111
1000000000000000
111000010101101
1111101010110100
1011111111000001
10111100001011
1111000111110100
11000101111110
1100000000100100
1110101000000000
1000000000000000
111111111111111
110011100111000
1001001001001001
100110011001010
1101100010001000
1001110011011
1101111110001111
1110001111110011
1001100110110011
100001111000000
100101110011001
1011000000010001
11100101011011
100111110011110
101100011001110
1010111010000010
10011000110
111111111111111
1100110010011110
1001101101
111111111111111
1100100001100
1011001100110000
1010010110010110
1110011000001111
10001000010011
1100101010001101
1100110101111000
10010101100101
1100011101000001
1101101011110110
100001010101101
1100010101110000
101001100100000
1001101011011001
111000111110100
1100010100101010
11010111010000
1000000000000000
1001000001000010
10111110010011
110100101001
11011011000000
110100000011
111011000100000
1011010001011101
1101101001000011
101000101000011
1110110110010010
10110111011011
1110110100111110
1010111100011000
