1000000000000000
111111111111111
10001011101001
101111100000101
1101000101100010
111111111111111
111111111111111
11000100011
110001111110100
1000110111001110
10000000001000
11011010000
1001000100110100
100111110101010
10101
1110101111011001
1111110010100000
1111010010001001
1000000000000000
1101110100100
1100110100000111
100110101001110
1100111000110100
11111100110101
1111000010001101
1111000001111011
11000001100010
110010011111001
1101000101101000
1110111100100001
101100001101011
11110011010111
1100110001100001
1111101100001010
1111110010001010
10011111001010
10001000011010
10110100010110
1101110011100011
1000101000010100
1000000000000000
1011000001101100
1011011100011101
11000001011111
1100101111010011
10101110000101
110010110111100
101110110111
1000000111111011
1111010010101001
1011101010001001
1000000000000000
10000011000110
1101100100
1111000111001111
1010110010
1110010110101101
111111111111111
1001100001000
111111111111111
111111111111111
10000010100100
1001000010111110
110110000111101
