1011011101000101
1110000111111110
1110011100110110
10010011110100
1111110100010111
1111101101111110
10110010010100
10100010111
1010110001110111
1110110100101110
1101110111101110
1101011011
1100010000111101
100001010111111
1101011000
1100101001
1010100110010000
111100011100010
110001111110
1011101110001111
1010111111
1000000000000000
11000000101001
100110001110000
100100011110010
1100010101011010
111111111111111
1111100100100111
110101101011
11001001000
1111001100101100
1111111
111111111111111
100111110000
1101101
1100111100000111
100011111100
1101100101100010
1111110010101001
1101011111110
1111110001000101
1110010001100101
1100000100110100
100111110100
1110000110110001
1000101001111
11000101101101
11100101011
110111000000011
100001100
1011011001110000
1100101100100
1000010000010
10000100001001
1011000101111001
10100110110000
1111011110110111
10111110100
110001000001101
1110110101110
1100110000000111
1111100100010110
111000111100
1111010000110101
