1010011001010
1100101100100110
1110111001011111
1101000000001100
100101100110
100110000011
1110001001011011
1100111000010011
110001000000011
1111111010011110
1111101010011101
1111010011010100
10111101000010
1001011000010111
10111111110
1111001100111011
1011110100001
10010011100111
100000110110
1010001100100
1000001010011011
1111101101100011
1111000001010010
1001000110011
1110
10111110101
11100000110010
11001010010
100101101100
1100100001110110
11111100000011
1001111111100000
1010101100111110
1111111100001000
1111010100101011
1100101001001
1110111100101000
1011101010011001
10000101101011
1000000000110101
111100100010
100000110101100
1111111001010011
1110100011011
1111010101010110
101010001
1000000000000000
1111000001
10001101011101
101011010011000
1111010101001010
11100000011001
1001000011
1000100010001010
1010111000110
1101100101010101
1000101001101110
101000111110000
1000000000000000
1110010011110
10000010
10101010000
1001010011000010
1010110111001000
