1011010010001010
1100000111011010
1101010110101001
1110001010111010
1000000000000000
1111100100111111
1001101111000111
1111110010011010
100010010110000
1010101111011001
1111101011011010
1111101111001000
11010010110101
1000000000000000
1111010010110
111111111111111
1111100110010
1001011000100101
110011100011110
100101110011010
1101010110100111
1100111100110000
10111111110101
10000100000000
10100110111111
1101110101000010
1101010101000111
1101100001111111
1000000000000000
11100110100110
1011000000010001
101100100011101
1110101011111111
1001101011010
1010111111110000
1010100011111010
11110111011000
1011111010100010
1101000101110
1101011011001110
1101001000100000
1111001111001011
100100111111010
1100111111010001
1111010000001000
100101101010001
1001110111101101
1000000000000000
111111111111111
11110001000010
1101110011110
1110101010011010
101101001101110
1111011101001001
1100111110011110
100011100100100
1110111101001111
1010111010011111
1000000000000000
1011101111111110
10011000000
1001101110110
1100001001100011
1000000000000000
