1001100010000011
11100110111011
1001010000010000
11111110000011
1000000000000000
1000000000000000
11111000001101
10000111010110
1000000000000000
1011010011101001
1100010100001110
11110000000000
1111101101111100
1001100111001110
1101011000010011
110011001010101
1110111111000010
1110110111011000
10101011101101
1000000000000000
1100001101110100
11010011011100
11110001111110
1100010101001100
10100010010001
1010110011101100
1110111001011101
1001011001100110
1000000000000000
1101111101001100
1010000000101111
11010010101100
1001010111001101
1101011011101110
111110011
1000000000000000
1101100000000
10110010110100
111000000001
1111000000000
1010100001011
1000110110111001
100010000101010
11001011000101
1010100110111000
1011110110000010
100111100100010
110001001110
11100000111101
101010100101111
1101010111110001
1110101011110010
100000110111101
100000111100111
1110100000000001
101001001001110
101000110111111
11001001101100
1000111101010010
1100011101111011
110111010111
1110110101001110
1110100110110010
1010011101110000
