1110110111010101
100
10011000011100
1110100110111000
1111011001100100
1001001000011
110011011101
1101100100110011
1000111111010010
10101110000
1111100010111
100011
1001110111110101
1111110011101000
1001010011100
1110101101001100
101111011001001
1101001010001010
1101011100010001
1101111001
1111110110100101
1101111001111101
1010001011001110
10101001011011
1111100010110111
1100111001001011
1010000101100101
1111001000110110
10110110101111
1110001010110100
1000111110110
111110100110
1110111110101100
1110000010101
100011110110001
1111010011100
1110000111000001
1110010001010101
1000110010110010
11101111001010
1111101001000110
1101100100110100
1111101001100
1000000000000000
110110110111011
11001100111
1111010101011000
101000010101
1001111011110
110110011010
1111010100011
10101000100000
101001111000010
11110101101000
1111111011010101
10111010011010
110100100111
1100110100110100
1100000101001000
1011011011011100
110111001101
1111001011101010
1110100101110001
11101110110001
