1111100101000100
1001001101000010
10000001100110
101111011011110
101110010110
1010000101010010
1110111001001011
1111110100000111
1101110000010000
1111001011110110
10000111011000
1101011101011001
1111110111011
1011111001010110
1011110100010101
101110100010
100011110000010
1101011111111001
1111110001111101
1010100101110110
100000010000010
1000110111100000
1100110011000010
10110010000
1000000000000000
1100111011100001
1111010011001010
1011101000000
10100000110110
1001011011010000
1101001100101111
1011110000011011
100001011100010
101110110
1010001111
1101010101011110
1111000100000110
1100011101010010
1111000110011110
100010100010010
101000010010
1100101011010011
1010010011101
1101101110110101
1110011111101011
1111000000
1000111101000011
1111111110100000
111100011001011
110000101100
1000000000000000
1000111101010101
1110111110111101
10110010101100
1011100001000000
101011100100000
10100001100010
1100010110101111
101011001110001
1011101110101100
1001011111000111
1101100100
1101010101010111
10000000111
