1000000000000000
11100011
1101110101111111
111000001000000
1000000000000000
111100110
1110010101100010
1111111010111
100000010010
1000000000000000
100001000001110
111111010110000
1100111010011001
1100111100100100
110111100000
10101111110110
10111101111010
1101001000110
111111111111111
1011000010100110
1000110101111
1010111111010010
1100000011101
1100011110100
111110000101011
10110111011101
1101001101001101
111111111111111
11100110001101
1111000000010111
101011011010010
1011110011000100
1000000000000000
1010110101111001
1000110101110
10100000011100
100011110000010
1000000000000000
10010110001
1111011010000000
1010101110111110
1000111110000000
1110100110000100
111101001010111
1110000111000
1111000100010011
1110111100101010
1111100110010101
100101011010001
100111010001010
1111111100001
1101100100100001
1101101011000111
11101110000
10111010001010
1101111101000101
1110100100010001
101010001000
1010000010110101
1000000000000000
1110110111001010
1000110001110011
1110000001110111
1110011010010100
