1011100100110
11100010111111
1110000011101111
1101010010101
10000100110
1111110111011000
1011110111100100
1110111010000001
1001010010100100
1111101101010000
1101101001100101
1011100001010
1011010011000011
1110001101001101
1101001110011110
1110100100110110
1101101000001101
1001100110101111
1101111011111101
111110001101
11000001010110
1101111100010101
11001011101
1000000000000000
1010011101000
1000000000000000
1000000001000110
1111101001001100
1111001110011
1000100110111
1110110001101011
10101101010
1010001000
1100101010111
1110001101001001
1001110100110100
1100000001000001
111101000000
100010011111110
1001100111010110
1111111110001000
110101110010
1001101111100101
1100100111101111
10011101101010
11111000101
1110101010010011
101001001111
11011101000110
100001101001101
1111011111000
1101101100001000
1111001001111000
1110011101010011
10000011011101
1110001010011111
1101111101011111
1100110110111010
1100100000110010
1001101101101110
1111111110011000
11001101001
1011110101111
1011011001110
