1100110001100101
1110010010001110
1111100000010111
1101111111011101
1111110000011111
101000101001100
1101100001100101
1100110110000
110000111000001
1111110010000001
100110001011011
1000000000000000
1111000110001100
1010110000111010
10000010101101
110001111111
111111111111111
1110000100101
1111011011010101
1111000001011100
110111101101
1011010010010111
1110100011001010
1111010001110111
1010110000011100
1111000110100101
1101000100101
1111000111000011
1110001101101101
1111111000101011
1101010100000110
100100010010011
1110110010110010
1000000000000000
10011100100100
100011010011100
1101011101110100
1111111010011100
1110010101001101
1100000100001
11101100100
1111111010000100
11001000101110
100001000011
1110011110110010
11110000001
11101100101000
1111100010000000
10001000011110
1111011000101
1110010110001100
1101101010110011
100001011000110
100100101100001
1111011110000010
11010010110011
1010011101110
11000001011
1010010001001
10110001110110
110100100000100
1111100001011111
1101101010011100
1010101111001
