1011001001101110
1100100011000001
1011100011100
1111110111101110
1110101011011100
11100110001
100111000100
1110110011110101
1111010100001011
1111000000110010
101111001100
1111001010000100
1010111110101
1100010110110000
1111001010010100
1111110100101111
1110111110011001
11101110100001
1101000100101
10001000011001
1011111010001101
1000000000000000
1110101000011010
10111000000
1011101000010111
1001011100001
100111110001100
1111010000100000
1110001100101
1011100011001101
1111001011010010
11100110111110
1101001111011001
1000111110010001
1011
1001101010100001
1110100110110
1001001101000110
101001101100001
1110010000010101
1111011011100001
1111101100011110
11010100000
1111011011100011
1111111110000110
1111010011101001
1101000011111
1110110010000101
11100100011110
1100100100011001
1001011000011010
111101010100
10010111111
1000101011111001
100111110111
1110101001110101
1110110111101110
11001000001011
1110110010110110
10010110000001
1001000010100
1110111010111010
1000011000100001
1011010011111000
