100100101100111
11010011
1001000010111
100101001001
11101110111
1101111110101011
1101010001011
1101110001111000
1111100111101
1111011001011110
11111001110000
10101100011001
10001110011
100000100001011
1101010011100010
1110111011110000
10000001111100
1000000000000000
1000000000000000
1010000011101111
110000110
100101010000001
1100000101101011
1000111111100011
1101101110101100
10111010101010
1101011010001010
10011100010
1010101110001001
10010110110110
1101001110110000
111111011100
1100100010111
100100111110
1111011011101001
10100000110011
1100111111011110
1101001000000011
11011000101110
1111011101011011
1111101111101011
1000110111111111
10100100110000
1110110111010
1010100111101111
1111000010101011
100011100010111
1110100110
1110001010101101
1011001010111
1100010100100110
10110100100
1100100100010
1101101011011001
10100010110000
1011110110000011
1010011011000110
1000000000000000
1111100000011
1011001010001101
1010111111001010
1111111000101100
1010000101101100
1111001111110110
