101010001110101
1111111111011001
10001111000111
111111111111111
1101101101010100
1101000111001100
111001010101011
1100011101100000
1110010110110011
101111110110100
100011100110
100100010110001
100110111010000
1001111011010
101110010111111
110011111101
1100000000000101
1000111011101111
10010101011010
100101100011111
11011110100001
100110111010
100111000100011
1011000000110000
1100110110010
110011010010111
1101111000100
1100001100010101
110111101011010
110111111010010
1001101101000
1001011010110010
1111011101101000
1010101010101111
1111010010011100
1011011000100100
10001100001111
1000000000000000
1000001010100011
1101101001001001
11011101001011
100111111001000
1100100100010011
1000011110011000
1110010101111110
1100001001101101
1110100111110000
1110101010111011
1110001011100101
1111000111010
1111010100110000
11000001101010
11100011000101
1000000000000000
1110011110110010
1001110100101000
100010100001100
111111111111111
1000000000000000
1110011100111111
111000010001001
10011101010000
100111000000001
1110111010101101
