1000010111011011
1110010001110111
1011010111011000
1111100100011001
110001111110000
1101011010010
100011100100111
10110000010
1000000000000000
1010001111000110
100001110011010
10101110111110
1011001010001
1101001010110001
1000000000000000
11011110011110
1001110001011
111111111111111
1110110010011
101010110000
11010110000000
100101011111010
1000000000000000
100110011000101
1000000000000000
1000000000000000
1001010100110001
100110100101100
110011001110
11110011010110
1011100110100011
101011011101000
