1101110000001100
1100111011100101
1010001010001
1111000010100011
111111111001
1101111111011001
10010001101001
1011010101101
1110010101100000
10001100001010
1110101100101110
10101110010011
1110000011110111
1111111100110101
1111101100000001
1111110111100001
1110001110000100
1100101000000111
1100110010000010
10001100110111
111010010110
1010101110
1011101001100
1100101011110101
1110000001000000
110010110011
1111011000101
1111011100101001
1111010001000110
11111101010
1110010010011
1110000110010011
