10010110111110
1001011010111011
1000110011110
1011000101110010
1010011001001110
1010100111
1001000010011100
110100101111
1000000000000000
1101010010011100
1100011101110010
1000000000000000
101010001110010
111111111111111
101100010011001
1000000000000000
101011100000000
1100111101011000
1000000000000000
11110011100000
1000000000000000
10010101010010
1000000000000000
101100100010100
101100110101111
11001010011100
111111111111111
1011100000000110
1011101010110
1100001000101101
100101110100010
1000000000000000
