1101110100100101
111111111111111
11011000101
1111110010001010
1000000000000000
1011000011000110
1000000000000000
1000000000000000
1111001110111
1100001000110000
1001100010110001
1110111001100
11010011010101
11010110101111
1111110000001111
110100011110111
1110001110010010
110100001111110
1010101110011100
1000000000000000
11100111110100
111011011011
111111111111111
10000001001111
1000000000000000
111111111111111
1000000000000000
1101100111110000
1101010111011110
1101111001011111
1100010111100001
111111111111111
