101001100100
1100011000111000
1110011101101000
1101000000000
110001011011
1111001110010110
1000110101001
10010101000011
111111101101
1111001001001011
1000000000000000
1101111011011101
1001101100001
1100101111000110
111111100
101000110010
1011000001000
1110010011011011
1000011111
1100100110111110
10101001011111
1110000010011001
11010110110
1000000000000000
11100011101
1110110110100111
10001001111010
1010100010001
1111101000111111
10111011001110
1111101010111111
1111000110010110
