1000000000000000
100101110000111
1000000000000000
1110001000111111
1101101100101001
1101110010011101
111000001011001
101111111110100
1110110111010
1110011010001000
111100100000010
1000000000000000
1010101011100001
1111010011101011
10000001100110
101101101100101
1000000000000000
1000000000000000
1011110101001011
11101011101011
1011011100110001
1000000000000000
1000000000000000
1000000000000000
1110011100011101
100110100110110
10010011001101
111111111111111
1001111001011111
1111110010001000
11111010101001
1110011011011111
