10001011010000
1111000011110011
100000100001
1010011110001
111011110110
1110001111010000
1101100010110001
10000010010111
1101001110110110
1110000100011010
1011000011110000
10001001001000
1101100011100010
1101000001001110
1111100001011000
1110000101001001
100100010011
1110101001011010
11100001100
10101011010110
1110010100111000
1111010000001000
1000000010100
1010111001001100
1101101000100011
1100111111000110
1010100111111
1100101010010100
1101110110101111
1101110011111
1110010100111110
1111110010001000
