1000000000000000
1011110110110000
1101011011111110
101100110110011
1000101001011101
111011011011000
1111000011000000
1000000000000000
110110100010010
10101011100100
10101111110100
100011100010001
11010111010010
101010011111011
1011110001000000
1110111101011111
100110111111011
1000100101001010
111111111111111
1111101001001
10010100110011
1100100111100111
1000000000000000
100110000011100
100011011011
1010010101001010
1110101010001011
1111111000000010
11110001101010
1000000000000000
1101000100001001
111101010110
