100110100011110
10011110000010
101000001110011
111111111111111
1000000000000000
1010010100111
1111010101101
111000001101100
11001110111110
1000000000000000
1100111010101001
1000000000000000
1000101110010001
1000000000000000
1000000000000000
1111011100100001
1010000100110111
11110101010111
1000000000000000
1000000000000000
100100111000100
1010111101101000
10100100111110
1011111001111111
11101011101111
1001011110001110
1000000000000000
1001001101100000
1101100110001000
10100001111000
100011111111100
1011110010100100
