1111110111111110
1111010000100111
1101101001001001
1111001010000001
1000000000000000
1111011011000010
1011101000000000
1000000000000000
1000000000000000
1110011100110010
0110011011001101
0111111111111111
0010111101101100
1100111011001001
1110001001001001
0000010110000101
1001010011011101
1101001100001011
1100011101000100
1110010100011000
1100000111010100
1011101100100010
0001111101010010
0010110011000110
0101100011010100
1101110000000111
0001111110100001
0101010111010000
1101000110000011
1000000000000000
1110110010001001
1110111010111111
0010101000000011
1100100100010101
1101010111001000
0000110111011001
0000110011110100
0100010111100000
0001010100011011
1100100100111101
1111110001100110
1001100001101001
1001001001001011
1101001101111000
0001000111111000
0000010001010010
1011011111000000
1101010110110110
1011011100000000
0001010111011110
0000110000100101
0001110010000010
0001101001001100
1100011000111100
1000000000000000
1101100111001010
1000000000000000
1101001000101110
1110000110111001
1100110110111111
1111101010001000
0001110100110101
1100101010110100
1110110100011000
1111010000001111
1111011010010010
1011010011001100
1000000000000000
1000111110111001
1100001110101010
0111111111111111
0011010010100000
1100010000011111
0010011001011010
0001000011001011
1100110000111010
1100110110011001
1000000000000000
1100010011101001
1110000000011001
1000001010111110
1100110100000101
0110000110000101
0111111111111111
1001100111111101
1011101101001000
0001000110000110
0011111100000010
1111110011111101
1000000000000000
1000000000000000
0010111101100000
0001001100001111
0000001010110100
0001100010100000
0110100011011101
0100101111011011
1010000001111101
1111110101011101
0010010001001001
0101100000011011
0010111001111100
1000001111000100
1000000000000000
1110001101011001
0000100111001100
1011011000100011
1011110101011100
0011010001010011
1111011110000100
1111011000111111
0010001000000000
0010100110000010
0001111100101100
1100010001001010
1101110011100000
1000000000000000
0100010100011101
0100110011000010
0000011110000100
1100101111111110
1101010010110100
0010001010010010
0000001011100000
0100010100100000
0100100011110101
1110011111111101
1110010101111111
1001100000000111
1000000000000000
0000110010001001
1110101001111101
1110000110010100
1111100010001011
1010000010011111
1111101010011010
0010000001111011
0001100000010101
1111011100110001
1110010010001011
1100111111100100
1000000000000000
1011001101111110
1001000111011011
1000000000000000
0100111001001101
0001001010110111
0100011001110110
0011011001011111
0001000101010111
0001101100011010
0000001111011101
0110010111111001
0100110110010111
0010110001000101
1110100001001100
0000010001110111
1000000000000000
1100011111000000
0001000100101101
0001110100010110
1111001110011000
1111000111011001
1111100011110011
1101101011010001
1111111100010011
1110110100100110
0010110100100111
1111101001101111
