1111100000101110
0000001110000000
0000010100100101
0001110111101111
0111111111111111
0111111111111111
0110101100100100
1110111001101011
1010101101001100
1101000100111101
0011100101000100
0001110101100110
0000101010111010
0011110010101110
0000001111000011
0100101001101100
0011101011101011
1101110001010011
1111001100010101
0000000101000010
1101000010110111
0000101010111100
1001010101001010
1111010011001101
1000010010110111
1011000110100011
0011101010001011
1010011101111011
1101001110001000
1101001110001010
1110111100011001
1011110000000010
1101110111111110
0010000111110010
0010101111011010
1101101000001000
0001101000110111
1010011000100110
1000000000000000
1101110100010111
1111001000010110
1011001011100110
1011011010111010
1001100011001101
1101010111101011
0011011101001111
0110100100111111
0000000011101001
0000000011001001
0010110001101010
1001101101001101
1000000000000000
0111101010011011
1010111001000010
1100110100000101
1000101101000111
1101000111110100
0001110111101100
0000001010100011
1110011101000111
1011010100000111
1110111000000110
0001100110101000
0011011110010001
1011000010111110
1111111101110110
0000011011011011
0111001011110110
1101010000111010
0001011011100010
1011111010101010
1100111110110010
1000100100101111
1111010000111010
0010110110010110
0010100100011001
1011001101110011
1000110011011011
1110010011100010
1001001110011101
0000110011100101
1111110101000000
1110101011010111
1011000000111000
1000000000000000
1111100101001000
0001111001111010
0011010100001000
1011111011001110
1001111101011101
1010101111001000
1000000000000000
1010011011001011
1110101100101101
0010000001110000
1101101100111011
1001101111101000
0101011101001011
0001101110011001
1101000000110100
1000101010010110
1000000000000000
1000000011100110
1011010000011111
1010110000001001
1110110010110110
1011111010101010
0001100000101100
0010100001111000
0100011011000011
0101000110110101
0000011110110011
1100001001111001
1000000000000000
1000000000000000
1010000110111000
0101011100000110
0011110001110011
0101011101101011
1111110000010001
1100011101011000
0011010001000111
0011000000110110
0000100001100111
1011000111011111
1100001111010110
1101001001011000
1010101011000001
1011100111100001
1011110010011010
0101001100100100
0101111001111000
1011101010111100
1101000101110000
0010001110111100
0101011000010111
0100111001001000
0100111010011111
0101101100010101
0011111101010000
1101101000010110
0111111111111111
0110100111001010
1111101111001010
0101010010010011
1000000000000000
1011000001101010
1101100111111100
1110010010010100
0001101111011000
0011000110000100
0101011001011000
0110011010000010
0010001110011010
0111111111111111
0011011110010001
1110100011101100
1111000010011000
1001001100111010
1000000000000000
1000000000000000
1100111110010000
0101101011110100
0101000110011001
0110011011101101
0111111111111111
0111111111111111
0111010001101000
0011000111000100
