0000010101110100
1111101000011101
1111010011000010
1100000100111010
1001101001110101
0101100000111101
0001010001010010
1101011011001100
1001010001010000
1001111111010111
0010000010000000
1101110110001100
1111010101000111
1011001001111110
0100110001001001
0001000110001111
1011011011110011
1010011110011101
0010110110101100
0011001101001111
0011011100010100
1110011101111010
1101011101011110
0101100111011110
0111101101110011
0001011010100000
1101111100011001
0010100101110011
0000001110000011
1011101110101000
1011010000111001
0000000111111010
0001010011111010
0000010101101111
0001111011110110
0001101110011101
0011010101001111
0100100100101000
1101111000010110
0100001010011110
1011110011110101
1000000000000000
1000000000000000
0000001101110101
0100000110000111
0100000010110001
1111110101000100
1101010111110001
0000100110100110
1101101110001011
0001010000111011
0001101111001100
0000100111101000
1101011110110010
0011110011001001
0010001011010010
1110111010001011
0000010010001010
1111101001101010
0000001010101000
1110000011011000
0001110011101101
0100011000100010
0111111111111111
1110101011011010
0001011010001101
0101011100011110
1111011010111111
1011111010101100
1001111001100101
1100000011100010
0111011100110111
0100101011010011
0110100011010101
0100100011111011
0000111111000111
0100011110010000
1100111101010111
1000100101010000
1110100101100110
1100010010100100
1010111001101011
1000000000000000
1011110101100101
0111111111111111
0100100000001010
0001010110000001
1111111110000110
1010100011011010
1000000000000000
1011011110001111
1101001111100110
0001111001010100
0011000111111111
1111010110101100
1011111011010000
1110010111111100
0011011010011101
1101010010100010
1000001011001000
1100000010000110
1101000111110001
1000000000000000
0010001011011100
0010110001101001
0100101001111101
0011110111101000
1111100010100001
0001000101100000
1100000110001000
0000101001111000
0010101000101000
0001110100010101
0001001000001101
1000000000000000
1100000101001111
0101010010110101
1001011010010101
1111111000011000
0011110011000001
0000100011110100
1111000010010010
1010111100001100
1101101011001010
0001111001000001
0111111111111111
1010100001001010
1000000000000000
1000000000000000
0100100011101000
1001110011110101
0000101011111101
0011001010011100
1101000010111110
1111111110100101
1111110011111000
0001000110111101
0010001110000110
1111101001101011
1000000000000000
1000000000000000
1000000000000000
0011110001100010
1111101101101101
0000110110110110
0000010001000001
1110111000011110
1100001001111111
0010101100011011
0001111011100011
0000100111101111
1010011000001110
1000000000000000
1001000010000101
0001011110001110
1110111001010010
0001100111111011
1010101110100101
1111001110100100
0010101000111001
0101110101011000
0000101100110110
1111001010101010
1011010010000000
1000000000000000
1111101101111100
0001010001111000
1101101110011001
1111101111010010
