0000001000010100
1101011011111001
1011000111110101
1101101011100000
1100001111000000
1000000000000000
1011101110110110
1000000000000000
1000000000000000
1111010101010100
1110001111000101
1110011000001100
0000110011000011
0000001000111010
1000000000000000
1011110000001011
1011011111000100
1011111111110000
1001101110110111
1111110100100000
0001001110111111
1111010110100011
1010111110100111
0000101101111011
1000000000000000
1110010110100100
0011001001010110
1011110111111101
1111111111110000
1111000010111001
0000111110011101
1110101111111100
0000100110100110
0010011111011011
0100110101110000
0000111111001101
1101101110101001
1000000000000000
1000000000000000
0001101001100111
1100001001011000
1110110001010000
1100010101010101
1110000000111100
0001110010001010
0000111100111100
1110110000111011
0010101110011100
0000000110110101
1011100001101101
0010001011110010
0010110010011101
1011010110000111
1101111010010111
1110001011000111
0000011101110011
0000001011011101
1111101101100001
1110000110100010
1001101001000000
0011000100101100
0111111111011111
1011011000110010
1100010110100100
1001101111000111
0001100100101000
1101100001100010
0000101001101000
1111111110010110
0000111111001111
1110000000010100
1010001111111001
1000000000000000
1010011001111110
0011001110001101
0001110010101100
0000000111011010
1011010011110001
0110100001000111
0100111011010001
0010110001100011
0001110010110001
1111110100111010
0000110100010101
1011001101100000
1000000000000000
1011001011001011
0001100110010111
0001101010000110
0100100010111011
1110000010001101
1110110111011001
0111010100010110
0110101000100010
0100111010000110
1111100110101111
0000010011111101
1011101010111100
1001111011100011
0010101011000001
0110101000101000
0001110101101101
1011000001000010
1001110101010111
1010111010001101
1110010011011111
0001100011100001
0011000001011000
0000101111000111
1100110000000011
1101011110011001
0110100111100111
0011111100010110
0011001000010001
0001111100001100
1011100111001111
1111000100100111
0010110101110010
1111100110001000
0000011110010100
0001100111000110
0011101011000111
0000100011001101
0001000110101110
0110001101110101
0001011010101110
0010101101111010
0101010010010101
0000101111001000
0101001111100101
0111111111111111
0010000101100001
1110010010100011
1111111010101100
0011010111110001
0001101101111010
1011101010111001
1111001000101000
0000010101010111
1111101111110100
0000011110011010
0111111111111111
0010010110111011
0001110001110010
1100111111110001
0101110010101010
0011001001010101
0001100011000010
0001001010101001
1100110101011000
1100010001011110
1111000100001010
1010010000001111
1011110000010101
0000111100100010
1010010011000011
1011111010111000
0001110010110011
0101010000100100
0011011000110101
0110000010001010
0101000001100010
1001001101100111
1011110000101000
1010101001010011
0010110010000110
0111010011001111
1110010111111100
1011101001100011
