0000100101000011
0000011111101010
1111111110001000
0010110110010010
1011101110100100
1010001011011111
1000000000000000
1000000000000000
0101110111011001
1110010000011000
1010110110001011
1101100001110011
1111101001101100
0100100001100010
1100110101000001
0010011010110000
1100001010010100
1001001110111001
1000000000000000
1101000101000010
1111101011010101
0011100010010000
0001101010111111
0111111111111111
0111101011110110
1110100010011011
0101110111001111
1111000111101001
1100100111111101
1100101101111100
1011110011001100
0010100001101100
1110011101111001
1101001010000111
1110100100010101
0001101100010101
0011101101010111
0001010100010101
0011100111110010
0001000100011010
0111111111111111
1100001110111100
0101011000110110
1110011101001010
1101111111000001
1100010000010001
1101000010111101
1100111000010000
0001101000011101
0100010100111001
0110010100111101
1011101000101010
0000000101110110
0101110111011110
0010111101101100
0010011111001111
0000111100100001
0001010110111010
1011111111000000
1110101101000000
0000110001010100
0001011011111110
0010011011001110
0101101000110100
0011111000001101
1100000101111100
0010111111111011
0011001111000101
0100010011000001
0100000010111111
0011000110100101
1100100100011110
1101000100001100
1111100100001001
0000000101101110
0011011110010001
0000111001100010
0000000000101000
0100111000001010
1001011101111111
0011100100111000
0010001011000111
1111101011111100
1010010000010001
1100001001100001
1110010100110110
1111110101110110
0000111010010101
0000100010001111
0010101011101010
0100101110010101
0111111111111111
0101000010110011
1101011110101010
1000000000000000
1000000000000000
1011101010011001
0101000001111100
1101001011001110
1101111001001101
1100010000101000
1000101110110001
0100111100111000
0001011011011110
0010111110100000
1000001011011111
1000000000000000
1000000000000000
1000011101100101
0111111111111111
0101110001011110
1111111011101001
0010111000100100
0000110110100101
1110111101100000
1111010100010100
0111111111111111
1111100101110101
1010010111010101
1000000000000000
1110000110101010
0100110011001001
0111111111111111
0001101001111100
0001101011011110
0001111000110110
1010001010110001
1011011010101000
1111010100011111
1001011000011101
0001100100111000
1000000000000000
0000100011110111
0000010001010011
0001100101110010
0011100100000101
0001100110100011
1111100101111101
1111011010001010
0001000010111100
1111011100010101
0100111111100001
1101011110100001
1001010111010111
1001011010000111
1111001001000011
0001110000111111
0010100101010010
0100011001111101
0100001000010001
0011010010110110
0101100001110111
0001011001011110
0000100110111011
0111111111111111
0011110001110111
1101110100110101
1000000000000000
1110111100100000
1010010001101010
1011101010001100
0001101101000101
0010011010000001
1111010101011101
0001010101011100
0101000101000010
1100110010011110
1101101100000000
0011100010110100
