1111010111111101
1111101000011001
1111000010111000
0000111010010100
1110001010010110
0000111100110001
0001111100000010
0001100001011101
1111110111001000
1111011111110011
1110110100101010
1111111011101111
0110011001011111
0000100010000010
0001001101110110
0000111100111011
1110000110010010
1111111111000000
1100010110011011
1010101000010011
0000000011110000
1100100010010010
1110001001000010
0010101001100111
0001000110110010
0011111001001001
1110110111100101
1101110001110010
1110111111101111
1101100001111100
1111111110101110
0000011001110001
0100101111111010
1101011011010111
0010101001011111
1001011100100010
0001101111011011
0010111101101110
1110100000001101
0001000101011010
1101101001010000
1110000111101000
0000101001100111
0101001100001111
1100111101111110
0000000010000110
1110111111000110
0101100010010000
0000110011011111
0000011101000100
0001101001110110
1001101110110011
0000001000000000
1110001100010111
0010100000100001
1011100100011100
1111101010111100
0010001001000011
0000101100100010
1101111000101111
0011011001111000
1100011000111111
1011101010101110
0011010111111000
