1111000100000010
0001000010110101
1011011011000000
1110111111111001
0001001000001111
1111111010100010
1110000000110001
1101100110100101
1110111001011000
0000100001000011
1001010101110000
1111111011101100
0001000110110001
1000101011011110
1111110010001111
1111001011110010
0010011101011110
0001010010001010
1111001011001010
1111110000001000
0001001101010001
0010010110110001
1101101010100000
1100110001100111
0000100101011001
1011010111110000
1111000001111010
0100011001111011
1101101110010111
0010100010001001
0000011101010100
1111010011001010
1110100111110000
1000000000000000
0101111101000111
1111010101101000
1111010110000100
1111110100010000
0111111111111111
0001101111100111
1010001101011010
1110011100010100
0000010100100011
0110111101111010
0011010010010100
0001010110001100
0011100011001001
0011010000101100
0000101010000111
1111011110111111
0000101110010110
1101101011001110
0000000011100111
0001101011100110
0001010100001111
0001101101011110
0001010110001101
0001101110110010
0001100100111001
0010001011000110
1110110101010011
1110001010110010
0010110100001001
0001000011110101
