11111111101010111011
00000100000010001101
00000011111011010010
11111111001111101001
11111101100011001110
00000011010000100001
00000000101000110101
11111111010010000000
00000110011100100101
00010100001100111111
00001110001110110111
00000110001110101010
00000100100110000111
11110110011000001100
11110111010001000101
11111110011100011101
11111101001100000010
11111100111000111011
11111101011000110110
11111100011001011000
00000001011101100011
00000000110100001111
00000011011011110100
00000101000101110110
00001001100000000110
11111110110010011101
11111001001101001111
11111110001111101110
00000010000000011110
00000000000101001110
00000010111110101011
00000000011001100110
11111101110110001001
00000011110011101111
00001000011110100011
00000111110010011000
00000101011001110110
00001010010101011101
11111101100100001101
11111000000001111010
11111001110001000000
11111100100010001100
11111101010111011101
00000000000110110110
11111111111011101001
00000011010010110101
00000010111110101110
00000000101100110110
00000011100101111110
11111101100110101100
11110110111111111001
11111001001110011100
11111000101001010111
11111000111001100011
11111011010000000110
11111110011000011011
11111110101110011101
11111110001011000001
11110111101000111010
11110100110110101100
11101010000011001100
11100000011101101101
11011100011100011000
11101101101110101011
11111010010000110010
11111101011011001111
11111101010011011010
00000001110000011010
00000000110001100001
11111111101111000000
00000000000101110000
11111111110110001110
00000001011101110001
00000001111111110001
11111100010101000001
11111010000011101111
11111000011111111010
11111111100111110111
00000010101101110111
11111010001010110110
00000100101011001111
11111101101101101010
00000001110010100001
11111111001101010011
11111110001100110110
00000000011110110000
00000100101110100110
00000011001000010011
00000011010000110000
00000010011100101110
11111000010000011011
11111111010111011111
11111111011110110000
00000100110011010010
11111111100001011011
00000010001010000001
11111111111010011001
11111100111100111110
00000001001001101100
00000001000000101111
00000100010011000010
00000001110011010010
11111100100011001010
00000011001010010101
11111000101101001110
00000000010111010001
11111111111101000110
11111110100110100111
11111111000000101101
11111101100110010101
11111111001111001111
11111111110000101110
00000010000100111011
00000001000010001010
00000101000000011001
00000000010100011110
00000010011101000100
00000100011010001111
00000001111110010010
00000010110101010001
00000010100100001010
00000000011111111110
00000010011110000011
11111110111100101001
00000011011011001000
00000001011000101000
11111110100101010111
00000000011110101011
00000001011110101100
00000010111010111111
11111111010101000101
00000011101011101001
11111110001011000001
11111110100010000110
00000001100100100000
00000010100101111010
00000010111011100111
00000010111010111101
00000000010010111110
00000000101111011101
00000100011000011011
11111111111110101000
00000010100101111100
11111000011100100010
00001000111100110110
11111110101100110010
00000001000011110010
00000001010011011011
11111110110110000001
11111110101010011111
00000001010010111010
11111011001101010010
11111110010010110011
11111111000000101100
11111111000101100100
00000110101000101111
11111111101011110100
00001001010110010011
00001010011101011100
00000110101011011001
11111111011100100110
00000101101001100010
00000100011011100000
00000011111101001000
00000100100100001110
11111110111101100001
00000000011111011100
11111100010111100000
00000001100011000110
