11111111111100111011
00000001010110010101
11111110010010011110
00000100001111011011
00000011010111010011
00001000101010000110
00001001100011110110
00000100110110011000
00000111100001000010
00000010101000101001
00001101001010010110
00000101100111011001
00000000010101010000
11110110101100010111
00000001100101100011
00000000011111100011
11111110111111100010
00000011100101100011
00000011010101111011
00000001101111000110
11111110101110001011
00000000010101111100
00000000001100110001
00000010101100101011
00000000101010000001
00000000000001111101
11110100111110100000
11111011111010111000
11111100011000010000
00000001010001101111
00000000010101111010
11111111101110011001
11111111000000111110
11111101111001101101
00000000111000000001
00000010010001000101
00000001000000101100
00000100100011110001
00000010001100011101
11111100110010100101
11111010101110010100
11111001000111110001
11111110101010001000
11111101000110001011
11111101101001101111
11111101010000001100
11111110101100000011
00000000110010000011
00000010010100011000
00000011111001101001
00000011001110110111
00000000111011011010
00000000100001111100
11111010110111001100
11111101111111010111
11111011110011010001
00000000011111111011
00000001110010011111
11111101000111110010
11111010110100000001
11111100110000100111
11111110110011100101
11111111011111000001
11111100111001011110
11111111111111010101
11111011100011011110
11111111010011001001
00000000000111101100
00000001110011011100
00000011111110010110
11111111001001101110
11111010001111010010
11111001110000110011
11111010110111000110
11111111010101011110
11111101111111001001
00000010100110010011
11110111110111101100
11111111110011101111
00000001000111100000
11111111101011101010
00000000111101001011
00000001110001100001
00000011000111000001
00000100100100001101
00000100111011100101
00000001110011110011
00000101110010110001
00000111000001110001
11111100111010011110
00000000001101001101
11111111101010001111
11111001010001011001
11111110111101111100
00000000100010100010
00000000111111000110
00000100101111011001
00000110100100010010
00000011000111011001
00000000011010111110
00000010011101111110
00000000001111111100
11111100000001000101
00000010001001011010
11111111100001000101
11111011100000001110
11111101001001001111
00000100000001100001
00000011001100010010
00000110001000100101
00000011000110111011
00000001101011001110
11111110100000110110
11111011100010100111
11111000010001101011
11111010111001010011
11111100010001000111
11111010011010001111
11110111001010010111
11111010001110000100
11111011010110010110
00000011101000110010
00000100001101010000
00000001101000000000
00000000010100101010
11111101101001000011
11111101110010111000
11111001011000111111
11111101101000010100
11111100011101001110
11111001100011101001
11110100101000011001
11111100101111111111
11111111111100101111
11111110100101101101
11111111100000100011
11111111111111011101
00000011000111011100
00000100001001110110
11111100110101111101
11111101111011000101
00000010001110010001
11111111010000100101
11111101110011001010
11111010111100111101
11111011110111001110
11111100101110010101
11111001111110101011
11111110101100010000
00000001001110100000
00000010100000111010
00000001101010101011
00000000111011110000
00000100001011010010
00000001001110101100
11111110000110010001
11111111000110010110
11111110101000011010
00000010001111000011
11111101010011110100
11111111101101110111
00000001010100010011
00000000011100000011
11111011110011100101
11111111001111001100
00000001110100000000
00000000100100110111
00000011011001100001
11111101101011110100
