11111111110001111011
00000000000001111110
11111111110000011010
11111111011011100100
11111101001011101001
11111101001101110111
00000011011000110001
11111101111010010011
00000100000011000000
00000100010110010001
11110111111110011101
11111101100110000011
00000001011010000100
00000010000010100000
11111010100001001111
11111110010110111100
11111101100001010010
00000000100011100101
00000001000100001111
11110110110001100011
11111100001100111100
11111011111100111000
11110101101110110010
11110100010001011110
11111100111110100011
00001000010101111110
11111110111000100001
11111100111000000001
11111011011011111011
00000000100000000111
11111101000000011001
11111001001101000011
11111001000011011000
11111010001011110101
11111111010001111100
00000010001000010010
11111101101111000001
00000010111101010100
00000111000100001001
11111111100111100111
11111001001001101000
00000011011101101000
11111111010000100001
00000000110100010001
00000010111100000000
00001010011110111100
00001110010100111010
00001010110100110001
00000110100000001000
00000100101001101110
00000011000101011000
00000010000000111100
11111101011000001010
11111000101001110001
00000001111010010110
00000100011101101001
00000001100110110011
00000010111011101101
00000011100111011010
11111110001101110011
11111101110010010100
00000000111000111110
11111101010111100100
00000010110110110101
00000100000100111100
00000011001101010010
00000010011001111111
00000000001110010111
11111110101011011110
11111100100011111100
11111100010001010101
11111000001110110110
11111000111101110000
11111101111101001000
00000001110011111100
00000001001101111010
00000010000011101100
00001001010010011011
00000000010100010100
11110111011111011000
11111010101010001000
11111101010100111100
11111110111000011111
00000000011100001011
00000011100101010110
00000011101100100010
00000000101011111000
00000000110011100101
00000000010001110100
11111011100111001010
00000000011011110101
11110111001110011110
11111100010111111111
00000000011000000100
11111101010101000001
00000000000000101011
11111111011001101111
11111101111111110000
11111101000111110001
00000000101011000011
11111101101001110000
11111111100111000101
11111001000111011110
11111011011011001111
11111010001011011000
11111111101001100110
00000010111010100001
00000000000010011010
11111111000001011000
00000000001011111100
11111101101000001101
11111100110100000100
11111110111011011001
11111011100001101000
11111101110100010110
11111110010100011101
00000010010110000101
11111101000001000000
11111011001100000001
00000000110101010111
00000001000110101010
11111101010100000111
11111110111110010000
00000001110101101110
00000001000000010010
11111111001111111011
00000100010011010010
00000010101000001111
00000000101001001000
00000110001100111001
11111010011001010101
11111001110110011100
11111110010011000000
00000000111010000101
00000001001110010100
00000000011101011110
00000000101111111001
11111111111000101001
11111111010001011010
00000011100010111010
00000000110000101010
00000100100111110001
00000101100110000101
11111010010010001010
11111111011100011100
00000000000001100000
11111100100111100111
11111110100101000000
11111111100100100000
11111101100100010011
00000000000000101011
11111111011010001010
11111100100001000111
00000001110101011011
00000101111110000111
00000011010110101010
00000010011011000000
11111100011001110001
11111101001010100110
00000010100010010101
11111100101100000100
00000010000110101001
11111110001111100011
00000000001010110110
00000010010111010111
11111110000100111110
00000000100100010110
00000011111001001010
00000000110110000110
