00000000011011010000
11111111100101101011
11111111010001001001
11111111100010010000
11111100010101101001
11111000100111110010
11110101011110110000
11110111000000010101
00000010010011001011
00000010110111100110
11111110010101101010
11111110100010110010
11111111110101101100
11111111101100010101
00000000011011110000
11111010011000010000
11110111011111010011
11110010011110100001
11110101101111111101
11111001010111001011
00000000100001100101
11111110111110001010
11111111111111111011
00000000000010101111
00000111011110000011
11111111000011010011
00000001111101101010
00001010000011011100
00000011100011000101
00000000011000000010
11111101101100101001
00000101010110000011
00000010001000101110
11111110110011010011
00000010101101111100
11111110110010010001
00000001000000111010
00000011011100001100
11111100011110101101
00000011011100000010
11111100101111101111
11111100110111000110
11111110011000000100
00000010010100001100
11111101011111100010
11111110111000000000
11111110010001000101
11111111011010010011
11111101110010001000
00000001000010110010
00000010010011000010
00000000101010000010
11111110110101101000
11111011001000110110
11111100100100010101
11111101110011001110
11111110001110101111
11111111110001001011
11111110111100110001
00000100011110001110
00000100000111000101
11111111111000101010
00000011111101100101
00000000011101000100
00000110010011100011
00000010011101000010
00000010010111001101
00000011000110110001
00000011000110011011
00000001101111001011
11111111011111100100
11110110110101000111
11111010110110100100
11111100110010100111
11111111111100110101
11111100110000000001
00000100111010111101
00000101000001111000
00000110110001011000
00000101110110100001
11111110000101011100
11111101100011111110
00000000110100100011
11111100101100101001
11111000010000000101
11111010110111010001
11111011011000110100
00000000110010000011
00000011111000100100
00000000101110110100
00000011001100100000
00000000010110010001
00000010111011111001
11111110110011001001
00000010000000110101
00001000000010111011
00000100100001001110
00000100101100000010
11111111100101011010
11111100011001011011
11111101111000011100
11111110001111101000
11110111100010011101
11111001100111101011
11111101001001011010
11110001011111000010
11111001010111110000
00000011110100011011
00000110110100001001
00001001101111011000
00000110111110101111
00000010000011011110
11111101010111000110
11111011100010001110
11111011011111100000
11111110001011100011
11111001010001111111
00000000100011101110
11111100010001011101
11110100111111001000
11110011110100000100
11110100011111000011
11111011101000011001
11111100001110000111
00000001111111001111
00000010000111111111
11111101010001101100
11111111000001110111
11111010010110010110
00000000100011001101
00000101111011010100
00000000110100101011
00000010011111111010
00000001001011110101
11111110111001001001
11111101100000100001
11111100010110101010
11111111100011010100
00000010100100110011
00000000010110000011
00000001100010010010
00000010100000000100
00000110001101101111
00000110110100100100
11111111000101110001
00000011010010010101
00000011010010100000
00000110010100010111
00000011100100110101
00000001111111010011
00000010110100000000
11111111010101111011
11111101101011111101
11111111100000000000
00001010001001000000
00000101100010111101
00000010100010101000
00001000010000111011
00000110010010000111
00000000000111100001
11111111000001100010
00000010101000000110
00000100100101101110
11111111000110011110
00000000000101101110
00000001100011110000
11111101011101001100
00001001100110101010
00000000000100100000
