11111111101001111100
11111111111101100111
11111111011010110111
00000000011000100000
00000000010101100101
00000000010010101110
00000000011111100111
11111111111111101011
00000000100010001101
00000000011011110010
00000000000010011001
00000000010110100001
00000000011001000011
11111111110110100101
00000000101000011100
00000000010100111101
00000000001100111100
00000000011011010111
11111111010110101001
00000000110110111000
00000000100011010111
00000000000010010100
11111111111001100000
11111111101000111110
11111111100010000101
00000000011011011011
00000000001111100010
00000000011000011000
11111111101010011001
11111111010011111011
11111111001000011001
11111111001100001001
11111111001100001000
11111111111000110101
00000000001110111100
11111111011000100100
11111111100101000101
11111111110100010101
11111111110001100101
11111111110111001100
00000000010001111000
11111111100111011100
00000000010101001001
11111111110100111010
11111111010011110101
11111111010011011110
11111111001010000000
00000000000100011111
11111111100010111001
00000000010100100111
00000000010110111110
11111111100110111010
11111111110101101001
00000000100011011110
00000000001101000001
00000000010111111110
11111111100010011110
11111111011110111100
00000000001000000100
11111111011010011110
11111111010110100111
11111111110110000000
00000000010110110111
11111111110001001100
11111111101101001011
00000000010110010110
11111111101111110010
11111111010011111011
00000000011110001011
00000000000110100101
00000000001000010011
11111111000001101111
00000000001010001011
11111111000011011100
00000000100000111101
00000000001001110101
11111111101111010000
00000000001000111101
00000000010110011111
11111111101100011101
11111111001101001110
00000000101100110111
11111111011000011110
11111111110100101100
11111111100101010100
11111111111100110111
11111111011110010010
00000000010100101001
11111111101111110000
11111111010000011001
11111111110001111001
11111111001101010101
11111111110011011000
00000000010111001001
11111111111010100011
11111111111011000101
11111111001011011110
00000000001110001110
00000000000000100010
11111111111010000110
00000000001011011010
11111111110101011001
11111111101111000110
11111111100100100001
11111111001000010000
11111111111010100000
11111111101000011111
11111111101111110001
11111111001010111110
11111111101000110001
00000000001100011000
11111111110011010010
11111111110001111100
00000000001100011100
11111111000100110011
00000000010000111010
11111111100101110111
11111111001110001100
00000000001001001111
00000000000001011001
11111111110011111100
11111110111111101011
11111111101101001111
11111111011001110100
00000000000000110010
11111111010101011000
11111111101110010100
11111111100101110100
11111111100110101000
11111111010011101110
00000000001100001101
11111111001010100010
00000000001101111010
11111111001011100001
00000000000000010000
11111111010011011101
11111111000101010111
11111111101100110010
00000000010011000001
11111111100110101011
11111111111000011001
00000000101010111010
11111111101001001010
11111111011100001011
11111111110011100000
11111111010010001010
11111111111010110100
00000000011010101100
11111111111110100001
11111111111001010011
11111111010111100000
11111111001100000101
00000000001000110011
00000000000000000001
11111111111001001110
11111111011011010100
00000000010010001010
11111111100110110100
00000000011101110000
11111111101111001100
00000000010110001100
00000000000011001110
00000000011000001000
11111111110001101101
00000000011011011000
11111111011101000111
11111111111010001001
11111111101010000101
00000000100110001001
