11111111101000010110
00000000001101001000
11111111011001001001
11111111111111111101
00000000100111110011
11111111011111110110
11111111111110101101
11111111100111110011
00000000000111010101
00000000010111101111
00000000001011011100
00000000001001010100
00000000010010100011
11111111011000011100
00000000100000111011
11111111010111000111
11111111100010010110
11111111110101000000
11111111011010000111
00000000100000100100
00000000001100001000
11111111111011010110
11111111110110100111
11111111011011000000
11111111101100001100
00000000010100001011
00000000100010010011
11111111101011011111
11111111111101001101
00000000010001001111
11111111010100100010
11111111100110101000
11111111010000001001
11111111111101011100
11111111111100010110
11111111101010100000
00000000000001000001
11111111011011110001
00000000100001110001
11111111111111000111
00000000011110010010
00000000010011101110
11111111110001001101
11111111001100110000
11111111111110110111
00000000001111111101
11111111100000000100
11111111111000011100
11111111000101011011
11111111011101110011
00000000000111111000
11111111100010100011
11111111101100101001
00000000000100000111
11111111010010101011
11111111010111110010
11111111011110011010
00000000000110111011
11111111001101000101
11111111000110100110
11111111001110000010
11111111000100000111
11111111110101100010
11111111001100001011
00000000001010111010
00000000001000111101
00000000100101101000
11111111111111010110
00000000010011011001
11111111001100110100
11111111111100101000
11111111110111011101
00000000001010011110
11111111101111011111
00000000000001001000
11111111110100000101
00000000001111010110
00000000001000100000
00000000010001000101
00000000001111101010
11111111111111010011
11111111101100111000
11111111001011010100
11111111110001111000
11111111101100000111
11111111001111000001
00000000010010111111
00000000001111011110
11111111000111000010
11111111100110111100
11111111010111010011
00000000001110110100
00000000001000111000
00000000001011011111
11111111010101100011
11111111110010010100
00000000011000001110
00000000001011100110
11111111111010111011
11111111010111110010
11111111100001101011
00000000010110110001
11111111010010111101
11111111101101101011
00000000010010001010
11111111011110011111
11111111111011110001
00000000000011000010
11111111110011111111
11111111110110111000
11111111100010100011
11111111010101100001
11111111101001100001
11111111011010011011
11111111111010101001
00000000001100011110
11111111001010101101
11111111011101100110
11111111101110011010
11111111110001101000
00000000000110101100
11111111110111010110
11111111001111101000
00000000000001100100
11111111110010101010
11111111100100111000
00000000010100100001
11111111001011011100
11111111011101111110
00000000001100000100
11111111001011010011
11111111011100101000
11111111100000100101
11111111101010010110
11111111111110110111
11111111100010111100
11111111011111110110
11111111000101000001
00000000000101110011
00000000010100111000
00000000001000111111
11111111010111001001
00000000000101100101
11111111011101111111
00000000100101000011
00000000110111000011
00000000101111000111
11111111110101001011
00000000001111100001
00000000001000000100
00000000000100011010
11111111111001000011
11111111101001101101
11111111111000000010
11111111101010001111
00000000100010010100
11111111100010110100
00000000011001100110
11111111011111111011
11111111111100100100
11111111110001001110
11111111101111001000
00000000011101011111
00000000010010010111
11111111111110010010
00000000000110011010
00000000011001010000
11111111011101100000
11111111011010010110
