11111111011111001001
00000000011000011011
11111101110111101111
11111100011010110001
11111001100100010111
11110101000101110000
11111000100101011010
11111010011001110000
00000011111110111100
11111011000011111010
11111010011011111110
11111111001000000010
11111111110100010001
11111111111000010111
11111101100001100011
11111000101110111001
11110110110001111010
11111011011011101110
11111011001101110001
11110100111000100001
11111000110010110000
11111010111010000010
11111110000100111011
11111110011011100111
00000000000000100011
00000000000100001011
00000101000101011011
11111011001110100011
00000010011000100010
00000011011110111001
11111111110011100000
00000000111110110010
11111100010001100110
11111110111101010111
11111110001011010010
11111111101000111010
00000011110100000100
11111110111010111100
11111010110010110011
00001111010100110010
11111111110010101011
00000000100111000100
00000011010111101001
00000010001101101010
00000010011101000001
11111110101111101010
11111111001011111001
00000100011011010010
00000010100101101110
00000010100111001110
00000001000110110001
11111000110100110010
00001010001011000100
11111111101010010100
00000001000111101000
00000100011000101000
00000000000001010111
00000000000001111011
00000000010001111000
11111111111101011101
11111101111001110001
00000001101111111011
00000001001001011010
11111100011001000000
11111010000110010111
00000101100011010111
00000010101101011101
11111001011111101111
00000011101000100011
00000000011101110001
11111111011110110111
11111100011100100110
00000011010101000101
11111100110010000100
00000001011110010010
00000010001001101101
11111000011001110110
11110001101110101000
00001000100001110110
00000100000111011010
00000100111111000100
00000001001001111110
00000010100100111101
11111010111111100010
11111111010010111101
00000011010011010110
11111100001010010001
00000010101001011110
00000011010001111110
11110100110100001111
11111101111001011111
11111010111000001010
11111011101100110000
00000011101111000010
00000001100110111110
11111101101000100010
11111101001011010001
00000000100011110111
00000011111110101011
00000001110100101110
00000101110101111010
00000011001000110101
11111100011010011101
11110111000010011010
11111001100011101011
11111001100010101111
00000001101101010001
11111110111001110010
00000001001001111100
11111111011101001011
00000011111001000100
00000001010110100101
11111111110011000011
00000010111000011100
11111111100110000110
11111011010101110100
11110111011111000010
11111111101010101001
11111011111110110101
11110110010101100100
11111010101001010000
11110111011000011100
11111110001010011010
00000101101000101101
11111100010001010111
11110111110010111010
00000010000000001001
11111010001001011011
11110111111001011100
11111100010111010001
11111100000001111110
11111010001011110000
11110110100111000010
11110111011011010010
11111100011010111101
00000010000100111000
00000101111000100110
11110111001010010101
11110001001100100101
11111000100101000010
00000100011000100101
00000000000011111010
11111101011010000100
11111110001101011000
00000000110011010001
11111100001110101011
11111000101100011010
11111110111011100010
00000100100001100100
00000100111111110010
11111010111110101001
11110001111011111010
11110001011001111111
11111011000110111101
11111010111000000000
00000011010100101110
00000001010001001000
11111111010001111110
11111000110111111001
00000000001011111111
00000011010011010111
00000011010001000101
00000110111010011000
00001000101111101110
11111000100011101001
11101101010010011010
11111010101110110110
11111010010010101111
11111111001101110010
