00000000001010010010
11111111111110100000
00000000000111000111
11111000100110011110
11111000000100000000
00000000010001000100
00000110011011100110
00000011101110011110
00000110010000100010
00000111000011110101
00000001001011011001
11111110100001001111
11111110010100111011
00001000101010010100
00000011011100011001
11111111000001011101
00000111100010010001
00000000011001110001
11111110000101010000
00001000110001001110
11111110001100100010
00000100011000111010
00001000100011100010
00000001011000000011
00000000111100110110
00000001011111100000
00001000111010101111
11111110000010001011
11110011111110101000
11110110010010000110
11111001100101010111
00000000111010000010
00000001001111000110
00000001111001101001
11111110101001111010
00000001101111001110
11111001111001100100
00000000101100100110
00000000011000010001
11111101110001111111
11111111010011101011
11111001110000010011
11110111001101101101
00000000110010010001
00000111011111100110
00000100101101000001
11111100001100000110
11111000101000111101
11110111100111100111
11111001000101100111
11111011001101100011
11111111000101010111
11111010011010001001
11111100100100010100
00000000110101100010
11111100011000110011
00000100001111010000
00000010010111111000
00000100101100001100
11111011000111011100
11110111010111011011
11111011000000011011
11111111110000111010
00000011100000111111
00000000110110101101
11111100101011110001
00000001001101010011
11110111001101100000
11111011011011001111
00000011010110010010
11111110101001100011
00000110101001101010
00000010001011010110
11111110011111011011
11110110011010001100
11111110001011010011
00000001110111011011
11111101000001101100
11111110110000111000
00000010110101110111
11111100101101111111
00000000000101010010
11111011001101010001
11111111001101100001
00000001001011101000
00000001011111110100
11111101100011011111
11110101101001101001
11111000011011111000
11111001100010101100
11111100111001011101
11111110100100101100
00000000010100100010
11111100111011110100
11111011000001111111
11111001110111110100
11111110010011011000
11111110010101110100
00000000101100001000
11111101100000011110
11110100000100001111
11110110100111010110
11110010011110000110
11111011110010111101
11111110100110110001
11111110011001110010
11111111000010010011
00000000010010100000
11111110001011100010
00000000101010110110
00000101011100111000
11111111110110101111
00000010001101001110
11111011101010001100
00000010000010011111
00001000110100111100
11110110010100011110
00000100100101110111
11111110111011010110
00001010000100111101
00000110110100110101
11111110010011010001
11111101110000010111
00000110011110001011
00000000101010101100
11111111111100000010
11111111100100100011
11111100100010110001
00000011111111001111
11111001011101101001
00000000110010110101
00000000110001101101
11111110110100011100
11111100011110100111
11111001010001001000
11111110011001111000
11111111101001000110
00000000000111111110
11111111001111010001
11111111101010111100
11111011010000100100
11111111100100111011
11110111100110001111
11111111000001111100
11111101011011100010
11111010100001111010
11111111010101101000
11111010001001010110
11111101100001110000
11111111110010110000
11111111001101001011
00000101000110100110
00000011101111101111
00000010100101101000
11111000101001001111
11111101101001000000
00000000000100010111
11111111010000000001
00000000011100001001
00000001001111111100
11111011011010110100
11111100001001000111
11110111110111101101
11111101000110111111
00000001010010000001
00000011100110001001
11111110001000010000
11111110100000011111
00000000010100000011
