00000000101010011011
00000000001110101110
00000001011011010001
11111111100001101001
11111010110001101101
00000000011100000000
11110100001001110100
11111110011111110111
11111011100011010110
11111111001100011010
11111100000111100011
11111111011000100000
11111111110010010100
11111101011111010111
00000010011011010110
00000000001101101111
11111101010011011001
00000010110110010001
00000001000110101101
11111111010101111001
11111110101110100110
00000011100110101001
11111001110010110110
00000001000011110011
11111111100101100101
11111110100001001111
00000001000001111100
11111011111100100111
00000010000001000001
00000001011111101001
00000000000100010000
00000001000100110011
11111110001010011111
11111011100010001110
00000001100110000101
00000000000011000001
11111111110100110110
11111100000011111111
11111011011110010000
00000011011011011001
11111110100001011100
11111101010000110000
00000010001110001001
11110011110111100011
11111101101101001110
00000001100111101111
11111010110010110000
00000000111011011000
11111111000111101001
00000000010010110110
00000010110110010000
00000101100110110101
11111110110111010101
00000100011000010011
00000010010111011111
00000001001010001110
11111100100100101011
11111010001010101000
00000001101111000110
00000001101010111110
00000001111001010111
11111111010000010001
11111011111011011110
00000100001110000111
