00000000111110011101
11111111111000100001
00000000101000101100
11111111000000100101
00001000010110000011
00000000011100101000
11111011010011100100
00000100000000111000
00000011001100000111
11111110101110011100
11111011001000001101
11111111101101101010
00000001000000010100
11111100010010011000
11111100001111110000
00000000111001011101
00000100010000110100
00000010100111001011
11111101011100111001
00000001100111010011
11111111110011001010
00000101001111000110
00000011110101111110
11111111001110101100
00000000110101011101
00000000000010010010
11111100110010101000
00000001111010101111
11111101100011001110
11111010110110110111
00000000110100010111
00000000010011001100
00000001011101010100
00000000000010100100
00000000111001101010
11111110000110111000
11111100000000101011
00000010100010010101
00000101000111001001
00000000111100100001
00000011110100010111
00000001100110011001
11111011010000010110
00000011010100000100
00000001010011111000
11111011000100110011
00000010110001000101
11111111101110101011
11111111101000000010
00000000010111011111
11110011000100111001
11111101001101010100
11111111100101100101
11111111101101010110
11111101100101101010
11111010111110001111
00000010011010111010
11111110110101000110
11111101001111101001
00000010101101110010
00000000100010010110
00000001000011100110
11111001100111111011
11111101101000011110
