00000000001100010111
11111100011000101111
11111010110101011000
11111100000110101111
00000000111101011101
00000001101110100110
11111101100000110000
00000000001001100010
11111100111101001100
11111110010110101100
11111111110101111100
11111101111001000000
00000010000100011100
00000000101111011001
11111101110101010101
00000000110011101110
00000000001000000011
11111110010111111000
11111111111011000011
11111110110100101101
11111010101111111110
00000001110100101110
11111100011110110101
11111011110000110001
11111100000001010010
11111001100101100011
11111110100111100110
11111101010010011010
11111001100010100111
00000000011000011110
00000010110001001111
11111001100111010001
