00000000110101101010
00000001010101000000
00000000011111101011
00000000100011111000
00000001001101110101
00000001100001001100
00000000100110010100
00000000111101010101
00000000000111110101
00000000001111011010
00000010010010011101
11111101100111101001
11111101111010111011
11111110001110100100
11111110001001000001
11111111111010101010
11111111100011000000
11111101010001010111
11111011110111010011
11111101101100011010
11111110111000111100
11111111011010111111
00000001010101011111
11111100101010011000
11111001111111000000
11111110010000010111
00000000110100111011
11111101011100011011
11111110000100100000
11111110000010011100
11111111100110111010
00000000011110000111
