11111111100001000001
11111110110010001010
11111010111111110101
11111110010111000100
11111100100001001001
11111100001011101110
00000000110000110001
11111110100110001011
00000010010111011100
00000011011011110110
11111110110111011100
11111110011111111010
11111100101001010011
11111110111111111101
11111110010100101000
00000000111001111001
00000001010110010110
11111100111000110100
11111111010100111100
11111101100110000001
11111100110100001001
00000000101011011101
11111101000011000011
11110001000000001111
11111100000011101010
00000001111011010010
11111111001000110100
11111110110110010000
11111100011100000011
00000010000100000001
00000001011011110101
11111110100110001111
