11111110
11111100
11101000
101
1011
11111101
11110000
11111111
0
11110011
11111110
1111
10
11111001
11101101
11101101
11110110
10
100
111
0
1111
0
1011
101
10
11100100
10
11110100
11110110
11
11110101
0
1001
1101
1010
11110100
11110111
11111010
11110111
11111010
11100110
11101111
10
11111100
11111101
11111101
100
1
11111000
1
10010
110
0
1
11111111
1101
1100
11101000
11100111
11111110
10001
11111110
11110110
10011
100
10011
11111111
101
1110
11111011
11101110
11100000
11111010
111
1001
10101
10001
0
111
1110
10000
10001
11111101
11100110
11101011
11110101
1011
111
10001
11
11110110
1000
11
10000
11011
1101
11111001
11110110
1
10000
11
10
11111111
11111111
11
111
11000
10111
110
0
11111111
100
111
1101
1011
11
11111101
111
1
10000
1000
11100111
11111110
11110100
11111001
1
1011
101
10001
1101
1011
1111
1100
100
11110111
11110001
11110011
11111111
1
11
1
110
10000
11111010
11111100
11111100
100
101
11110111
11110110
11111111
100
11110110
11111110
11110100
1011
11111100
11111000
11111000
11110100
11110110
11110010
11101011
11111101
1011
1010
11111011
11100110
