00000000010001000000
11111111101011001010
11111110111010101101
11111111011111100111
00000000100110000110
00000011101100111101
11111110111000010011
11110000010111001001
11110100011001110101
11111101001100100111
11111111010100110111
00000000010000011110
00000000001100110000
00000011010011101001
00000000111100000110
11111101010011100101
00000110101110110100
00000001100011011101
00000010111101011010
00001001101110110110
00000100111001000110
11111110101100110000
11110110101000010000
11110011111011111000
11110111001000111111
11111100111010101001
00000010001001111100
11111100110000111001
00000000101001110100
11111110011000101000
11111101011010111010
11111011100000111010
00000001000101101010
00000101011000101111
00000110011100100101
11111101101101111101
11111111000110100011
11110100111101101100
00000000011110110001
11110111111001010111
00000101110110010011
11111010111111110111
11111000000010111011
11111001011011000101
11111001000001010011
11111101111100101000
00000100100100110101
00001001111111100111
00000010000011100010
11111011110110101001
11111010110001011011
11111101011010100010
00000011110101010011
11111111000111100010
11111001011101001110
11111100110011110010
00000000101101101100
00000000000010111111
00000011010111100000
00000010111101010011
00000100011010100110
00000111001101001100
00000100111011110100
11111011111011010100
11110101011010001011
11111111101111011001
11111100000100111111
11111110000001111001
00000010110010100101
00000011111010011011
11111110011111000011
00000011100010000100
00000001010011101100
11111101111101111110
00000111101000111110
00000100011111001011
11111100111000110110
11110100010111110000
11111111100011111111
00000011011000100110
11111110111000001001
00000010000111000101
11111110101010000011
11110111011000110100
00000000000101101011
00000011100010010000
11111111100001100001
00000100001100001010
00000001100101101011
11111001011001111011
11110110010010101000
11111000110101111011
00000010111000111011
11111110110111011000
11111110111111011100
11111110010011101101
11111110001110000011
00000010111001011111
00000000100010110010
00000010111101001110
00000000011110111001
11111110011010110010
11111101001000110111
11110011100111011111
00000011000001011100
11111011100000011010
11111101110111000101
11111111100000101100
00000010010010011000
00000001001100110000
11111010110111101001
11111100100001011001
11111110010111001100
11111100101101100000
11111110111110010000
00000001100001111000
11111111111000100001
11111111111001101111
11111100100110110001
00000010011111101000
00000000011111011100
11111111010011011001
11111001110010010101
11111101011010110011
11111101100100001110
11111110111100100111
11111111100100110000
00000100001000110100
00000100000110101000
11111000111001011010
00000111110110011111
00000100111101011110
00000100010110100111
00000000111011101111
11111010101011100110
11111101111101010010
00000001100100001001
00000000001010000101
00000000100010100000
11111110000000111101
11111110111111110010
11111111011010101111
11111110110101011011
00001001111110111100
11111001110111010101
11111111101001010100
11111110111001001100
11111100111100010001
00000001000111011011
11111101001110111101
11111101101100001000
11111110001110000011
11111000001011010010
11110011000011001011
11111000010000100010
11111000110110111011
11111111010100010110
00001000100010010011
00001010100111001000
00000011000001100110
00000100000100000111
00000000111011101010
00000000111010010010
11111111010011010110
11111100101111000100
11111110011100110101
00000001011100110101
00000000010101111010
11111101110111110111
