00000000010101001001
00000010010001001010
00000101000110110100
00000111101110110011
00001101111110101101
00001001011111000001
00000001011100111100
00001010001110100001
00001000111101101101
00000100110111111100
00000110111001110110
00000010011110111010
00000000011111000011
11110110001101000111
00000010110010111000
00000110111110001100
00001101001110110110
00000010111110110001
11111111000110001011
00000001110010110000
11111111110111111010
00000000101100000010
11111101111101111000
00000000010111001110
11110010111000101100
11111010010011110110
00000000010000011101
00000111000111110001
00000000001110010100
11111010011111111011
11111100001100010010
11111100011111111111
11111011010000010011
11111100010110000111
00000000110001010101
11111000110100100101
11110110001000100011
11101100101100010100
11110101101001101111
11111011011101000111
11111101100101000110
11111101010000011001
00000011011010010011
11111111100100010111
11111111011110111010
11111101010001010111
11111000010000010100
11110011000010000110
11110111100011001000
11110110010001110110
11101111111010101101
11111110101100101011
11110011100111101010
11111100010000111011
00000011010001110110
00000000101101100110
11111110010101010011
00000000000101000100
00000000111100010010
11111011001000010100
11111000001101110011
11111100111101001100
11111110000010000110
11111100111111000110
11110001011111101000
00000100101111000000
00000011010111100001
00000011101101101110
00000100000001101111
00000001100110111100
00000000110110111011
00000011011000011101
00000010111110001011
00000101010010001111
00000101010000110101
00000101010100010011
00000001011000110010
00000011011001111110
00001000001101000000
00000111011100000011
11111111100110010101
11111110100000001011
00000000100001001010
11111101010000110101
11111111010010110101
00000010001001001110
11111111000100111011
00000001001110111001
00000111011100010011
00000111011100111111
11111011000110110000
00000010001110001001
00000000101110110001
11111110001110101001
11111101110001100000
11111110010101110001
11111110101110110010
00000101100100010101
00000000000000010010
11111101111010001001
00000010111101111101
00000100001001110110
11111111010001110100
00000000111000000001
11111111011110110110
11111100100110101101
00000000100101100001
11111100110010001011
11111111101000101100
00000010000000001001
00000001110100110001
11111111001111000001
00000011010110000001
00000000100001001000
00000010011011101010
11111110010001110000
00000111000111100000
00001000110100010000
11110110001011111000
11111100110111111110
11111111011111101111
00000011010100011100
00000101000010110010
00000100000000010000
00000100111101111111
00000101001001101100
11111111000100000111
11111110110111101001
11111111111110010100
00000011101100101000
00000001100001111100
11110111111011000111
11111110000000001100
00000001101000001001
00000101000010010110
00000100111111100111
00000101100101011001
00000001000000010110
11111101100111010001
11111100011001000101
11111010000000010100
11110100001111100110
11111101010011000011
11111110000101011110
11111101000001100000
11111011001110110101
11111010111100011000
00000001000010000010
11111011010001000100
11111010101000101011
11110011111000100011
11110100111110111110
11110111101000011011
11111000010010110001
11110001000010011100
11111000001000000001
11111111101101110100
11111101110101100111
11111100100100111011
11110101010111101011
11110000100001000111
11110011010001010010
11110101100111101111
11111110100110100101
11111001010010110011
00000010011001001111
11111011010100111010
11110111100110111100
11111111111010010100
