11111111011010011010
00000000011101101110
00000000000001010011
11111111011110101001
00000000001110010001
11111111100010000011
11111111110111001000
00000000010011000000
00000000001010110000
11111111001010011110
11111111111111010101
00000000001000101101
00000000011000111010
00000000001000010001
00000000100110011100
11111111101111100011
00000000011011100010
11111111100101111001
11111111110010001010
11111111010101000001
11111111110101010110
11111111011110100111
00000000010110011101
11111111100001110101
00000000000010010000
11111111100111100111
00000000100101110010
11111111110010110100
11111111101110111100
00000000001101010010
00000000010000110111
11111111100111110100
11111111100011101011
11111111101001110010
11111111111110011101
11111111110011101001
00000000001111000000
11111111011010010110
11111111011011000100
00000000001101001001
11111111111000101010
00000000001101100010
11111111111000010111
11111111100100100000
11111111001011000001
11111111101110111000
11111111111001011001
00000000000010011000
11111111010100111011
11111111101110010100
11111111101001001001
11111111111100000000
00000000011001100110
11111111110011101001
00000000000011101000
11111111101110110011
11111111010001101010
00000000010000001101
00000000000011010110
11111111111111111101
00000000001011101110
11111111100111100001
11111111111101011100
00000000000010101110
00000000001101000001
11111111110101010000
11111111111110100001
11111111111110011010
11111111101000110000
11111111111110000010
11111111001010111110
11111111010101111010
00000000001011010011
11111111001010001101
11111111110010110101
11111111110101111101
00000000001110001000
00000000010000001001
00000000010000111001
11111111101000110010
11111111111010010011
11111111110011001001
11111111001000100101
00000000000101011110
11111111001100110001
11111111011111010010
11111111011111011101
00000000001101100111
00000000000011000000
00000000000111001110
11111111111001001100
00000000110110100010
00000000010000110100
11111111010100011000
11111111001101100100
11111111111000011011
00000000010100000001
00000000000110101000
00000000001110101101
11111111111111100000
11111111111111011010
11111111100101111111
00000000000010011011
11111111110110111100
00000000101010001111
00000000110111000110
11111111011101001111
11111111100111100101
11111111101011001111
11111111111011001010
11111111111001000100
11111111010001001101
11111111001101000110
00000000000001110100
11111111111000100100
11111111100110101001
00000000110001011101
00000000100100110011
11111111100010101100
00000000010010010010
11111111000110000101
00000000011000010010
00000000000011010100
00000000000110011100
11111111001110101100
11111111111100001111
11111111111000111110
11111111100100011100
11111111110110101101
11111111111000100111
00000000101111101000
00000000001001001110
11111111010101100111
11111111100001000101
00000000000011111110
11111111001001111110
11111111110110100001
00000000001011110101
11111111101000001010
11111111010111000111
00000000000000111101
11111111101001010000
00000000101101111111
00000000010000111011
00000000001011011101
11111111110111001100
00000000001101010011
00000000001001110011
11111111011110000100
11111111110101111110
11111111011001010011
11111111010000010110
11111111011011110010
11111111010101111000
11111111001000111110
11111111011110111101
11111111111000010001
11111111010111110001
00000000001101110000
11111111001000101001
00000000011000010011
00000000000110011001
11111111101000010100
11111111100110010111
11111111111001111111
11111111111000001111
11111111100011111101
11111111011000010110
11111111100111101001
