00000000001000010100
11111101011011111001
11111011000111110101
11111101101011100000
11111100001111000000
11110111111101110011
11111011101110110110
11110110101000100001
11110110111000110000
11111111010101010100
11111110001111000101
11111110011000001100
00000000110011000011
00000000001000111010
11110111010111101110
11111011110000001011
11111011011111000100
11111011111111110000
11111001101110110111
11111111110100100000
00000001001110111111
11111111010110100011
11111010111110100111
00000000101101111011
11110110000101000111
11111110010110100100
00000011001001010110
11111011110111111101
11111111111111110000
11111111000010111001
00000000111110011101
11111110101111111100
00000000100110100110
00000010011111011011
00000100110101110000
00000000111111001101
11111101101110101001
11110111011100100000
11110000011000000100
00000001101001100111
11111100001001011000
11111110110001010000
11111100010101010101
11111110000000111100
00000001110010001010
00000000111100111100
11111110110000111011
00000010101110011100
00000000000110110101
11111011100001101101
00000010001011110010
00000010110010011101
11111011010110000111
11111101111010010111
11111110001011000111
00000000011101110011
00000000001011011101
11111111101101100001
11111110000110100010
11111001101001000000
00000011000100101100
00000111111111011111
11111011011000110010
11111100010110100100
11111001101111000111
00000001100100101000
11111101100001100010
00000000101001101000
11111111111110010110
00000000111111001111
11111110000000010100
11111010001111111001
11110110100010010101
11111010011001111110
00000011001110001101
00000001110010101100
00000000000111011010
11111011010011110001
00000110100001000111
00000100111011010001
00000010110001100011
00000001110010110001
11111111110100111010
00000000110100010101
11111011001101100000
11110100011100010101
11111011001011001011
00000001100110010111
00000001101010000110
00000100100010111011
11111110000010001101
11111110110111011001
00000111010100010110
00000110101000100010
00000100111010000110
11111111100110101111
00000000010011111101
11111011101010111100
11111001111011100011
00000010101011000001
00000110101000101000
00000001110101101101
11111011000001000010
11111001110101010111
11111010111010001101
11111110010011011111
00000001100011100001
00000011000001011000
00000000101111000111
11111100110000000011
11111101011110011001
00000110100111100111
00000011111100010110
00000011001000010001
00000001111100001100
11111011100111001111
11111111000100100111
00000010110101110010
11111111100110001000
00000000011110010100
00000001100111000110
00000011101011000111
00000000100011001101
00000001000110101110
00000110001101110101
00000001011010101110
00000010101101111010
00000101010010010101
00000000101111001000
00000101001111100101
00001000110001111000
00000010000101100001
11111110010010100011
11111111111010101100
00000011010111110001
00000001101101111010
11111011101010111001
11111111001000101000
00000000010101010111
11111111101111110100
00000000011110011010
00001001001100010001
00000010010110111011
00000001110001110010
11111100111111110001
00000101110010101010
00000011001001010101
00000001100011000010
00000001001010101001
11111100110101011000
11111100010001011110
11111111000100001010
11111010010000001111
11111011110000010101
00000000111100100010
11111010010011000011
11111011111010111000
00000001110010110011
00000101010000100100
00000011011000110101
00000110000010001010
00000101000001100010
11111001001101100111
11111011110000101000
11111010101001010011
00000010110010000110
00000111010011001111
11111110010111111100
11111011101001100011
