00000000110001101010
00000000111010111110
00000000001111101101
11111111011010011010
11111001101111111111
11111110100000101001
00000000000010011010
11111001111110001011
11111010011011100111
11111001011011100001
11111101000001111111
11111110100110000100
11111110100010011100
11111111101110110101
11111110010110100101
11111011101101101101
11110101000001010111
11101111111100001100
11110000111011100001
11110100000000101000
00000000011001100101
00000000000111100110
11111100010001000111
11111100101011111111
11111110000011000011
11111101100001000100
00000011011111111101
00000101001100000001
11111001111001110100
11110100011110000010
11111101000111101110
11111110100111010001
11111010111001111010
11111001110000001110
11110101011010001101
11111001010110001001
11111000001001110101
11111001011110001110
11111010001110011000
00001000001000001001
00001011011100010111
11111011000101110000
11110111100101101101
11111111111001100011
11111001110111011101
11111000011100001011
11111011110110101110
11111100001101100011
11111111001100100001
11111111100111100101
11111111011110101110
11111111010111001011
00001010000110010111
00000101000110001000
00000000001110000110
11111100001001011011
00000001110010101001
00000010001001100111
00000101101010110110
00001010011010110111
00000111101101110110
00001001010010010111
00000100101000111100
00000110100111010111
00001011110001010111
00000111110001010100
11111010110011110010
11111110101111010111
00000010000101010110
00000000011000101001
00000100001001000011
00000010000110101110
11111110110011111000
11111110110100110011
00000010100100011111
00000001011111000111
00001101101011110110
00000111111110110101
00000110000100010011
11110110010001101110
11111101101011110000
00000001011111111001
00000100100001010010
00000010001111111011
11111111111010001111
11111011100000111100
11111000101101111111
11110011001111011101
11111100110010010111
11111111101011111001
11111110011100010000
11111100010111110100
00000110011010100010
00000100010100111011
00000000110100111111
00000001010111000001
00000000101111100111
11111011110001010000
11111010011010010000
00000000001000111000
11111100011100011100
11111110101111001100
11111111110001010111
00000000100010000100
11110010001011110001
11111101001000101100
00000001010001100001
00000001100001110001
00000001110100111000
11111111101011111110
11111011000011101101
11111110110101000000
00000001111011011000
00000000001110010010
11111010100011000111
11110011100100011110
11111101010000001000
11110101100010110011
11111100110110100101
00000001110000010101
00000001001011111001
00000001101100101111
00000011000000111101
11111110010011100100
11111111100100010101
00000011000111111101
11111100110000001010
11111101101001101010
11111101010010100000
11111010101000000111
11110111101001000101
11111001100101111111
11111100111010111101
11111101001001101001
11111110101011111011
11111110101101011110
11111111011101010010
11111011011001011110
11111110100110111011
11111100110000110011
00000000011100101000
00000101101111110000
11111110111000000101
00000000101011100000
11110111011001011101
11110110000011101001
00000000011110001010
00000011101000100001
00000010001011010001
00000001011001010000
00000010000101010011
00000000001001000111
11111110101000001110
11111110110001101010
00000010011101111100
00000010100100001110
00000000110000111110
11111110110010011011
11111100111101010000
11111011110110010111
11111101001111010111
11111111111111010101
11111100111110010111
11111101101100000001
00000011100001100110
00000010110110100011
00001010101111111010
00000010111110100000
00000000111100111010
