11111111100000101110
00000000001110000000
00000000010100100101
00000001110111101111
00001011000110011101
00001011100110001001
00000110101100100100
11111110111001101011
11111010101101001100
11111101000100111101
00000011100101000100
00000001110101100110
00000000101010111010
00000011110010101110
00000000001111000011
00000100101001101100
00000011101011101011
11111101110001010011
11111111001100010101
00000000000101000010
11111101000010110111
00000000101010111100
11111001010101001010
11111111010011001101
11111000010010110111
11111011000110100011
00000011101010001011
11111010011101111011
11111101001110001000
11111101001110001010
11111110111100011001
11111011110000000010
11111101110111111110
00000010000111110010
00000010101111011010
11111101101000001000
00000001101000110111
11111010011000100110
11110101000111000010
11111101110100010111
11111111001000010110
11111011001011100110
11111011011010111010
11111001100011001101
11111101010111101011
00000011011101001111
00000110100100111111
00000000000011101001
00000000000011001001
00000010110001101010
11111001101101001101
11110101111101100111
00000111101010011011
11111010111001000010
11111100110100000101
11111000101101000111
11111101000111110100
00000001110111101100
00000000001010100011
11111110011101000111
11111011010100000111
11111110111000000110
00000001100110101000
00000011011110010001
11111011000010111110
11111111111101110110
00000000011011011011
00000111001011110110
11111101010000111010
00000001011011100010
11111011111010101010
11111100111110110010
11111000100100101111
11111111010000111010
00000010110110010110
00000010100100011001
11111011001101110011
11111000110011011011
11111110010011100010
11111001001110011101
00000000110011100101
11111111110101000000
11111110101011010111
11111011000000111000
11110111100011111111
11111111100101001000
00000001111001111010
00000011010100001000
11111011111011001110
11111001111101011101
11111010101111001000
11110110111011000101
11111010011011001011
11111110101100101101
00000010000001110000
11111101101100111011
11111001101111101000
00000101011101001011
00000001101110011001
11111101000000110100
11111000101010010110
11110001111010010100
11111000000011100110
11111011010000011111
11111010110000001001
11111110110010110110
11111011111010101010
00000001100000101100
00000010100001111000
00000100011011000011
00000101000110110101
00000000011110110011
11111100001001111001
11110010100101101110
11110101011001110001
11111010000110111000
00000101011100000110
00000011110001110011
00000101011101101011
11111111110000010001
11111100011101011000
00000011010001000111
00000011000000110110
00000000100001100111
11111011000111011111
11111100001111010110
11111101001001011000
11111010101011000001
11111011100111100001
11111011110010011010
00000101001100100100
00000101111001111000
11111011101010111100
11111101000101110000
00000010001110111100
00000101011000010111
00000100111001001000
00000100111010011111
00000101101100010101
00000011111101010000
11111101101000010110
00001011010100000100
00000110100111001010
11111111101111001010
00000101010010010011
11110111010010000100
11111011000001101010
11111101100111111100
11111110010010010100
00000001101111011000
00000011000110000100
00000101011001011000
00000110011010000010
00000010001110011010
00001010110100110010
00000011011110010001
11111110100011101100
11111111000010011000
11111001001100111010
11110100011110111100
11110100110001001011
11111100111110010000
00000101101011110100
00000101000110011001
00000110011011101101
00001000101111001110
00001101010001111001
00000111010001101000
00000011000111000100
