00000000100011011110
11111111110110000110
00000001001001101110
11111100000110001111
00000000000000101100
11111011100110001011
11111001110100101010
00000000110010101000
00000001100111101100
00000001010111001100
11111101101111101100
00000000101100111101
00000000011111000110
11111111000010111100
11111101001010001001
11111111000001010100
11111010111000101110
11111101100111110000
11111011001001010101
11111010110000111000
11110111011111111000
11110111001111010100
11111011111100110001
11111100000001101100
00000010010111000101
00000010000110000000
00000011110010000010
00000000111100101110
11111011100101001100
11111111101000110101
11111110101010111100
11111001111101111110
11111111001000110101
00000011100011110111
00000000011010110110
11111101100001011111
11111111100111111010
00000000101011100101
11111001100110010110
11110110111101001000
11111111110111001011
11111100101011100011
11111100111000010011
11111011101100000110
11111110000110000000
11111101010011111000
11111110111100000110
11111111111111011000
00000001111110111011
11111111100000010100
11111100111100001111
11101110001101110110
11111110010011001011
00000001111100110010
00000100010101110010
00000100100100010111
00000110101010100000
00001000001010010000
00000100001010101111
00000001011011101110
00000011010101001110
11111111110110011000
00000001010111110101
00000011111000010100
11101101000010101001
11111101101011010111
00000010001110111101
00000111101110110001
00001010011000111100
00000100101001001101
11111010100000011101
11111100011111100010
00000000101101000001
00000001001010101010
00000001011010010011
11111110111101001000
11111000111010101110
11111110111000010011
11110101011001011101
11101110001011001110
11110011100000010011
11110100100011100111
11110010000010000110
11110100100011001110
11111101011101011110
11111111000001010110
11111110011011110010
11111101000000010010
11111100100011011011
11111110100110000110
00001000000010101010
11111111110011100011
11101111100111100101
11110010100010110011
11111010001001001000
11111011011101110101
00000011011000101101
00000001001011100000
00000000111000010111
00000100001111101011
00000100111110100010
00000100110101001000
00000000010000100111
11111101110011111000
00001010011011011000
00000010111100001100
11111111011110100111
00000001110101110111
11111111000000010100
00000001000100111000
00000001101000101010
00000000101011000010
00000100001111111111
00000010000110101010
00000000100011110101
11111110010010011001
11111111110100001101
11111110001111111011
00001011001010100001
00000101100111101010
00000011101111100010
11111110111001110110
11111101000101001110
11111111101100010001
00000010100100111000
00000010011111110011
00000001101110000001
11111101100011000001
00000001001111011101
11111111001000010000
00000110001010101101
11111111111111100110
00000010000101000011
00000001101010101100
00000001001001010010
11111110001101110011
00000001000000110010
00000001000110000010
00000001110011000100
00000000010010000011
11111001001101000101
00000010001010100011
11111111011011000110
00000011111000000100
00000001101011110001
00000100001010110001
11111101110011010110
11111100110100010100
11111101110001111101
11111101111111001101
00000001101100001111
11111101111000000000
11111111110111111011
11111101001100000111
00000001101110110001
00000000000010000110
00000001100001111001
00000011000001010011
00000001011011000100
00000010111101101001
11111111000000000111
11111110001001000011
00000000101100000111
00000100011101110000
11111111111000000011
00000001000101000101
00000000010111110000
11111010001010111100
00000001010010010000
