00000000111001000000
00000000101000011001
00000000101011011110
11111111010000100100
00000010011100000110
11111110101111011010
11111100001000000101
11111111010011011011
11111100101010101111
11111101011101101110
11111110010111100000
00000000100100100000
00000000011111000110
00001001101001001001
00000101010000100101
11111111010111100110
11111100111001101111
11111001011101000110
11111000001000011000
11111111010110011010
00000100101111010100
00000001011100000001
11111010100010001111
11111010011000011111
11111110011011000110
00000000101111111001
00001000001100000100
11111110010000101011
11111001110101000101
00000100001011011101
11111011100010010001
11110010101100010001
11111111101000100000
00001000000100001010
00000011011010000010
11111001010101101010
11111000011011110000
11111000000110110000
11111100101101111110
00000000001011011100
00000010000011101001
00000000110111110110
00000011101110011000
11111111001000000010
11110001001111001110
00000000101011000100
00001000110101110001
00000010101011100001
11111110000111111010
11111000011110011010
00000011111100101100
00000001000101001010
00000000111010011110
00000010011111101011
00000001011010001110
00000011010001000100
11111100000011111101
11110101001101000110
00000010000101111101
00000100111101101010
11111110010011001110
11110101101001111011
00000001111000110110
00000111011111111001
00000101011000010110
11111110001010010110
00000000110101011010
00000000101111110011
00000101010100111010
00000100100000110101
11111011110001010011
00000001001100011110
00000110100110110011
11111001110000100100
11110101110001111011
11111100111101011100
11111111101100010010
00000000010101001110
11111110001100000110
11111101011000000100
00000000110000010101
00000011010001111010
00000010001111010111
11111010100101010010
11111111011010010011
00000010110110101100
00000000100000010001
00000101101011100011
00000111010100100110
00000010001001010110
00000100000101101100
00000011100001000011
00000010010110100001
00000010101110100000
00000010111110100110
11111111000001001001
11111011110111111100
00000100010111111001
00000010101000001100
11111101110111000101
00000100110010001101
00000011011101000001
00000000111011000011
11111110010011010010
00000001111011010001
11111111011100101000
11111111010100100101
00000010011010011100
11110111011011010101
11111111011001110011
00000100000101111010
00000000111000100111
11111110100110111010
11111011011001000000
11111101110110010101
11111100110100101101
11111110010001010101
11111100010101110001
11111010100011010011
11111100111011001011
11111111010010101010
11111000110111101000
11111100010110011001
00000010110000000110
11111101111011000011
11111011101100011101
11111010001101100111
11111010101101001100
11110010101001000101
00000010010010010100
11111111111001111011
11111100010011111110
11111110010011000100
11111111010101001111
11111101111100101011
11111101101110010100
11111111001110000101
00000000111000010011
00000010011101001010
00000001110100001110
11111110110000000001
11111001000101000100
00000100010010110110
11111111111111011010
11111111001110110101
00000011000010101001
11111111001000011000
11111111010010011111
00000001100011010011
11111111001011011011
00000010010000101110
00000011110100001111
00000101000000101001
00000010011100000100
11111010101110001011
00000010101001001100
00000000110110011000
11111111101110100010
00000001100000100011
00000011110011111111
11111000101101100011
11110110100010010111
11111100011100100001
11111100000001000010
11110111100110001100
11111011111111010000
11110110101110100110
11111001010110100110
00000001001001001000
