11111111101110001101
11111111010100010101
00000000010110100100
11111110111010011011
00000100010001101110
00000101000110101011
00000010110010010001
11111100111100110111
11111101001101001110
11111101100010011000
11111111101010111010
00000000000011000100
00000000011011111100
11111111111101001100
00000011001100010111
00000001100000000010
00000000101101011111
11101111011010000011
11111000101110110110
11110010010100110100
11110110110110001101
11110000011110001100
11111101111110000111
00000011011001010101
11111101101001110100
11111111010000100110
00000010101011111001
00000010011011000011
00000011110010010110
11111110101000101111
11111100111111111110
11111100111110010100
11111111110101010110
11111111011011010100
11110111001101101110
11110010110111000010
11110110110011000000
11111000010000100100
11111101100011111101
00000001010011100000
11111111101001011101
11110101100111000000
00000000000010000100
00000001011111101110
00000110011000011000
00000110000000101001
00000001010110110100
11111100001101001000
11110110100110111010
11111010101001001110
11101100000101111010
11111010010010101011
00000010110111100000
00000001010011110011
00000100010100001000
00000100101100011000
00000100101000100001
00000000111010100110
00000101111110111000
00000100100110010011
00000101000000011101
11111101101010101101
11111001101100011100
11101111110111011111
11110110000111101111
00001001111011001111
00000010111111101000
00000111000100000100
00000010000110000011
11111110100001101111
11111101001001111011
00000001111010110111
00000100110011001011
00000101100100001110
00000100101101001100
00000000100000001110
11111110101000110001
11110101010100010110
00001001110111000110
11111110010110111011
00000000111001011100
00000010001100010000
11111011000000110101
11111001001011101100
11111111001111100011
00000010000110100010
00000001001100010010
00000000010000000111
00000000000101101100
11111111001011100011
11111110011000101110
00000000111001111111
11111111101110111101
00000000001010110010
11111110100100011100
11111101111100111110
00000001101011001000
11111110010111101110
11111101111001010010
00000000111001101111
11111101101000111100
11111111001100101001
11111001000000101111
11111011010001001001
00000010101011010010
00000001100110100000
11111111011001110001
00000010111101000101
00000000111101000101
00000011110111110100
11111111010010001000
11111100010001110101
11111111100101110111
11111100010010101100
11111001110001111001
11110011001010000001
11111100000110010010
00000001000110101001
11111101111010101111
00000011001001000101
00000001111100101000
00000100110100000110
00000000000001010001
11111100111111101010
11111101101001100010
00000001010000100101
00000011010010110010
11111101110101011101
11111111101111100010
00000011010001111010
11111111011111010110
00000000011100111010
11111001110000011001
11110010100011101100
11110101101000100101
11110100100101110100
11111111011111110010
00000001000100011111
00000000111000101001
11111110100110001100
00000000101110010000
00000000101010111100
00000101000011000001
00000001001001111111
11111111100110110010
11111101111110000111
11111100111001001100
00000000011001000100
11111111000000010110
11111110101000001101
11111101000000000011
11111011000010010000
11111110001111111111
00000000110011100000
00000010101001001011
00000010010101001101
11111111111111010101
11111111010110100001
00000100101000101101
00000111110001001001
00001001000110110010
00001000000001001101
00000010010001100101
00000000110000011101
00000000101111010100
00000110010110010011
00000110001100110011
00000000000100000110
11111111101111010110
