00000000100101000011
00000000011111101010
11111111111110001000
00000010110110010010
11111011101110100100
11111010001011011111
11110100111010101111
11110101110010011111
00000101110111011001
11111110010000011000
11111010110110001011
11111101100001110011
11111111101001101100
00000100100001100010
11111100110101000001
00000010011010110000
11111100001010010100
11111001001110111001
11110111011110100111
11111101000101000010
11111111101011010101
00000011100010010000
00000001101010111111
00001010010111000000
00000111101011110110
11111110100010011011
00000101110111001111
11111111000111101001
11111100100111111101
11111100101101111100
11111011110011001100
00000010100001101100
11111110011101111001
11111101001010000111
11111110100100010101
00000001101100010101
00000011101101010111
00000001010100010101
00000011100111110010
00000001000100011010
00001000011111110100
11111100001110111100
00000101011000110110
11111110011101001010
11111101111111000001
11111100010000010001
11111101000010111101
11111100111000010000
00000001101000011101
00000100010100111001
00000110010100111101
11111011101000101010
00000000000101110110
00000101110111011110
00000010111101101100
00000010011111001111
00000000111100100001
00000001010110111010
11111011111111000000
11111110101101000000
00000000110001010100
00000001011011111110
00000010011011001110
00000101101000110100
00000011111000001101
11111100000101111100
00000010111111111011
00000011001111000101
00000100010011000001
00000100000010111111
00000011000110100101
11111100100100011110
11111101000100001100
11111111100100001001
00000000000101101110
00000011011110010001
00000000111001100010
00000000000000101000
00000100111000001010
11111001011101111111
00000011100100111000
00000010001011000111
11111111101011111100
11111010010000010001
11111100001001100001
11111110010100110110
11111111110101110110
00000000111010010101
00000000100010001111
00000010101011101010
00000100101110010101
00001011001000000011
00000101000010110011
11111101011110101010
11110110011111111011
11110100000110001011
11111011101010011001
00000101000001111100
11111101001011001110
11111101111001001101
11111100010000101000
11111000101110110001
00000100111100111000
00000001011011011110
00000010111110100000
11111000001011011111
11101111010111100010
11101100000111000001
11111000011101100101
00001010000001100100
00000101110001011110
11111111111011101001
00000010111000100100
00000000110110100101
11111110111101100000
11111111010100010100
00001011000001110100
11111111100101110101
11111010010111010101
11110011000110100101
11111110000110101010
00000100110011001001
00001001011010001000
00000001101001111100
00000001101011011110
00000001111000110110
11111010001010110001
11111011011010101000
11111111010100011111
11111001011000011101
00000001100100111000
11110101110010010101
00000000100011110111
00000000010001010011
00000001100101110010
00000011100100000101
00000001100110100011
11111111100101111101
11111111011010001010
00000001000010111100
11111111011100010101
00000100111111100001
11111101011110100001
11111001010111010111
11111001011010000111
11111111001001000011
00000001110000111111
00000010100101010010
00000100011001111101
00000100001000010001
00000011010010110110
00000101100001110111
00000001011001011110
00000000100110111011
00001101011001100000
00000011110001110111
11111101110100110101
11110110111011011100
11111110111100100000
11111010010001101010
11111011101010001100
00000001101101000101
00000010011010000001
11111111010101011101
00000001010101011100
00000101000101000010
11111100110010011110
11111101101100000000
00000011100010110100
