11111111100101110000
00000000000001110011
00000000000111101111
11111111110110000011
00000000001000010110
11111111111100010001
00000000100011100011
00000000010111010111
00000000011011101110
00000000100011111111
11111111011101010110
11111111111001110000
00000000100001111110
00000000011000101011
11111111110001110010
00000000010000000110
11111111101111011110
00000000010111110111
00000000001101111101
00000000000000011001
11111111101011010011
11111111111001111001
11111111100001011110
11111111011111001110
00000000000000101100
11111111111001111110
11111111100100001011
11111111111100000100
11111111011101111001
11111111111001100000
11111111011000011000
11111111101010110011
11111111100101010101
00000000000011101000
11111111011111010011
11111111111100010101
00000000001010011100
11111111011000111010
00000000000110100110
00000000010011001101
00000000000010100111
11111111100110101010
11111111011100111101
11111111101011101011
11111111000000110001
11111111011100001101
11111111001111110101
11111111000111100111
11111111010011110111
11111111001100111111
11111111111001011000
00000000011111001000
11111111101001100110
11111111011001110010
11111111001111101001
11111110111000000110
11111110101100110110
11111110111000011000
11111110110100110100
11111111101001011000
11111111000000100110
11111111001011111111
11111111011010101001
00000000000111011001
11111111100100001111
11111111011011110101
11111111101100001011
11111111110100100011
11111111011001110110
11111111010011111000
11111110110001001001
11111111110010000101
00000000011101110001
11111111000101001011
11111111110101010011
11111111110011011000
00000000100000111001
11111111011010111101
11111111101111000101
11111111011100011100
11111111000000000110
11111111011100010100
00000000000101111000
11111111100011011000
11111111110010100111
11111111011111110110
11111111000011100111
11111111010000001101
11111111010000101010
00000000011001010001
11111111111010100011
00000000100001101010
00000000000001000001
11111111100110110111
11111111011100000011
00000000001101111001
11111111101111000101
11111111110011111000
11111111100011110010
11111110111111011101
11111111100100110010
11111111001100110111
00000000000011110101
00000000000010100111
00000000001110110000
00000000000001110011
00000000011010101110
11111111100100010101
11111111100001000001
00000000011001001010
11111111111011011110
11111110110001001110
11111111101110001110
11111111000000011110
11111111110100010101
11111111111101100101
00000000011111000000
00000000001011101010
00000000000111111110
11111111011011000101
11111111101011011001
11111111101101111001
00000000011010001001
00000000100101001101
11111111001110001001
11111111000001110100
11111110110111001110
00000000100111000010
00000000011000010000
11111111100111010001
00000000001110111110
11111111101011101011
11111111100011111001
00000000011011101010
11111111111101111000
11111111011101000111
11111111010101110100
11111111110101101010
11111111011011011001
11111111100111000001
11111111011000100111
11111111101011110011
11111111110010000000
11111111011110101011
00000000000111110111
00000000000110010011
11111111011110110000
11111111101110011110
11111111010001011111
11111110111000111111
11111111001110001010
11111111111110100101
11111111011111110011
11111111101101010010
00000000100100011010
11111111111111000101
00000000001100000110
11111111110110010110
00000000011111001111
00000000100111000100
11111111000100011100
11111111110000011110
11111111111000111100
11111110111000000010
11111111111010100010
11111111110101010110
00000000100010000001
11111111101110111101
11111111010110111101
