11111111010111111101
11111111101000011001
11111111000010111000
00000000111010010100
11111110001010010110
00000000111100110001
00000001111100000010
00000001100001011101
11111111110111001000
11111111011111110011
11111110110100101010
11111111111011101111
00000110011001011111
00000000100010000010
00000001001101110110
00000000111100111011
11111110000110010010
11111111111111000000
11111100010110011011
11111010101000010011
00000000000011110000
11111100100010010010
11111110001001000010
00000010101001100111
00000001000110110010
00000011111001001001
11111110110111100101
11111101110001110010
11111110111111101111
11111101100001111100
11111111111110101110
00000000011001110001
00000100101111111010
11111101011011010111
00000010101001011111
11111001011100100010
00000001101111011011
00000010111101101110
11111110100000001101
00000001000101011010
11111101101001010000
11111110000111101000
00000000101001100111
00000101001100001111
11111100111101111110
00000000000010000110
11111110111111000110
00000101100010010000
00000000110011011111
00000000011101000100
00000001101001110110
11111001101110110011
00000000001000000000
11111110001100010111
00000010100000100001
11111011100100011100
11111111101010111100
00000010001001000011
00000000101100100010
11111101111000101111
00000011011001111000
11111100011000111111
11111011101010101110
00000011010111111000
