00000000101101101000
11111111100100100010
11111000111100110100
11111111011000010100
00000010110000101001
11111110110011011011
11111010110011110001
00000101101000100101
00000010110010011100
00000000000010111101
11111010100110101111
00000110000001000000
00000000011110000001
00000010001010100111
00000000111111100110
00000000101110000110
11111010111001001000
00000000010000111001
11111110100000101000
00000000110001111101
00000000011000001010
11111111010111110111
11111110111111000000
00000001011100111101
00000000001110100100
00000001010001001110
11111111100011000011
11111110010111110011
00000000110101000001
11111001111111110111
11111111111010101100
00000011101011001111
00000001100111100100
11111010011100111000
11111110000001111000
11111100100001110001
00000000010100001001
11111110011000010011
00000000011100100101
00000000000000010000
11111001001100001011
11111100110000101010
11111111110100010011
11111110101110111100
11111101110000010010
11111110011010011001
11111111010101011010
11111101100010101111
11111111001110111111
00000000100111111010
11110111011100111100
00000000101000110101
00000000111011101000
11111110011111000100
11111110100111011110
11111100010101110001
00000011000010000111
11111010101010110110
00000100100100011000
11111111111011111100
00000010110110001001
00000001000001110100
11111110101001100011
11111101010100110111
