00000000100110001011
11111111011000010001
11111100111100000000
00000000111100101010
11111011010010000110
11111111100000011110
00000000111010011100
00000101111011000011
11111111000100011101
00000000110101100001
11111101000110101100
11111101111100100010
11111101011010111001
11111101010110111010
11111110101110101111
11111111010001111100
00000010010111000011
11111011100101001010
11111000111010111011
00000001000010111011
11111111110111111000
11111111101100101111
11111010101110011100
11111010100110001011
00000001000111110111
00000000000101010010
00000000010010110010
11111110010000100101
00000010001110100100
00000010101111101101
11111111111011001010
11111010000001101010
11111100110010010111
11111010001011100111
11111100011000011110
11111111101000001100
11111100100001001101
11111101110100011010
00000001001011001111
11111100111010011000
11111111100110000100
00000000100000101101
00000000101001100111
11111101111001010110
11111011101111101111
11111100110001101101
11111001000110110000
00000001000110100000
11111111010010011110
11111111010011101100
11111101000100010101
11111001111100100010
00000000100111100000
00000000100000001101
11111011101101111000
00000001100100100010
00000010111111111111
00000001010110001000
00000000010010000010
00000011011100000101
11111011100001111011
00000000101011010111
00000011111010000110
11111101010001110000
