11111111110000100110
11111111001000000111
11111011001100100110
00000000010100000101
11110111111011011100
11111111101111111000
00000001000010111011
11111010010111001011
00000000110111001001
00000000110111000000
11111100101001100001
00000000110100010111
11111010100110111010
11111101100111010000
11110111000000101101
11111111001011111010
11111110101101001011
11111101011110001110
11111111001000001101
11111110100001110000
11111110101101100011
11111100111011010110
00000000011010111000
00000001010000000111
11111111011110110011
11111100101011100101
00000000010110101000
11111111000111110101
11111101110010010011
11111110000110010100
00000000011101010001
11111101011111100110
00000000100001100011
11111011011101111010
11111001011011011000
11111100011111011111
11111110000000101010
11111100111110101011
11111111001010011100
00000000100010101111
00000000100110011000
11111100001010000101
11111101111000010011
00000110110001011111
00000000100001100101
11111000000000110101
11111011001010000010
11111110000110010000
11111110111100011111
11111111000011010111
00000100010010110010
11111110100111101110
00000000000100110101
00000011011101100101
11111111001111100010
00000101111110100100
00000100101110110100
00000111110110101011
11111110001000000000
11111001011110010010
11111001011100101111
00000001001011110111
11111100101110110111
11111111110001111101
