11111111100100000100
00000000001101001101
00000010111011001001
00000001000110110000
11111100111101110010
00000000011110111000
11111000101001000110
11111110101110111000
11111000010101100001
11111111111100000110
11110111010010000100
11111100010101010000
00000101010111100100
11111001101011111011
11111111000110110001
11111111011110110010
00000011010000001001
00000000101111001000
11111100010100101100
00000100101110110001
11111111010100011111
11111001101110010110
00000000101101000001
11111101100100000010
00000000101101000001
11111001001010101111
11111110110011001101
00000010101000111000
00000010110111101100
00000110000001100010
11111111111110001000
00000000001010010110
11111011010110101010
00000000000111000111
11111001010001111110
11111111111001111111
11111011010110010001
00000001011110001110
00000110001000001010
11111101111111011011
11111010111100100010
00000000101110000001
00000000111011001001
11111110100000011101
00000000100000111101
11110111001110000111
11111110101111011001
11111110010010100000
00000000110010100110
00000000000110111000
00000101000011110100
11111011001111001111
00000000001010011111
11111101110110100000
11111001101111001111
11111011111101110001
11111101100101010001
11111011010000110110
00000001001001010110
11111111011100100011
00000010101001000100
11111101110001010111
11111000111011010000
00000000111011111011
