11111111000100000010
00000001000010110101
11111011011011000000
11111110111111111001
00000001001000001111
11111111111010100010
11111110000000110001
11111101100110100101
11111110111001011000
00000000100001000011
11111001010101110000
11111111111011101100
00000001000110110001
11111000101011011110
11111111110010001111
11111111001011110010
00000010011101011110
00000001010010001010
11111111001011001010
11111111110000001000
00000001001101010001
00000010010110110001
11111101101010100000
11111100110001100111
00000000100101011001
11111011010111110000
11111111000001111010
00000100011001111011
11111101101110010111
00000010100010001001
00000000011101010100
11111111010011001010
11111110100111110000
11110111111010001111
00000101111101000111
11111111010101101000
11111111010110000100
11111111110100010000
00001001111010001111
00000001101111100111
11111010001101011010
11111110011100010100
00000000010100100011
00000110111101111010
00000011010010010100
00000001010110001100
00000011100011001001
00000011010000101100
00000000101010000111
11111111011110111111
00000000101110010110
11111101101011001110
00000000000011100111
00000001101011100110
00000001010100001111
00000001101101011110
00000001010110001101
00000001101110110010
00000001100100111001
00000010001011000110
11111110110101010011
11111110001010110010
00000010110100001001
00000001000011110101
