11111110011001111101
11111111010110101111
00000001011010111101
00000010101001001001
11111110110101111110
11111100101100000010
11111111100100110011
11111101010101111010
11111011000111010111
11111110101001101100
00000000000111001000
00000000000100110111
11111110001010011010
00000010110110011110
11111110010000010011
11111111110000101001
00000001110000100110
11111110001101100100
11111101111001001011
11111110110010100101
11111011111001100011
11111100000100100111
00000001110111100010
11111010010010100001
11111010110011100100
00000001010010001101
00000000011101011001
11111111100010100100
00000001111100000100
00000000011010101010
11111101111011000011
00000000111000001010
