00000010101111100101
00000000000000101000
11111111110101011110
11111100001100001000
11111101111010010001
11111111111010001111
11111100011101001011
00000000011000001101
00000000001010100111
00000001011010000010
11111111100001111011
11111110000101011101
00000000111001011010
11111101111111011110
00000001011101111001
11111100011110100110
00000001111010100010
11111101011010110001
00000010000101010000
00000001001011100111
00000001111111100110
00000000111000100000
11111110000100111010
00000010000010000010
11111011101000101110
11111110110000001011
11111111111100000101
11111111001011011011
11111101000110010011
11111101110111101101
11111101000100110100
11111100101001110100
