1111111010011011
1001111100
1111111101001111
1110000111101110
111001111100011
1001001110001
1000011111011111
1101110000101001
101001110010
1110101000100
10011011010100
1000101001101
100001110011
1101101010111
111111111111111
100111011010001
100100000011
111111101111010
101110010110001
1111101101010100
10111110101111
1101101100111001
10000100111000
1110111011000000
1110100100010011
10100000010101
1111110001010011
10110100001101
11001101111111
101111100110110
11111010100110
1000001001111
1111000101111010
10111011000101
1101000100100011
1100001011101001
1111001111110111
100111111010
11111111001111
100110101101010
1011000110010011
1100110010101111
1010001101001
10101011001110
10001111111000
10101011010100
100000101010110
1011001110101
1000010101
10010011001001
1110110011011110
1101011010010001
11011101000100
1111001011011111
1110011011001001
1101001110100
100001000101001
1110101100111000
1000111100011010
1101000110101000
1110010111101000
1111000000000001
1110100110001011
1001111100111100
1101101100010010
1000000000000000
1001101000111
10000100110100
100011110000101
100101100101110
110101001101000
111111111111111
101001111000111
10111000100000
1000110001
110101011101
1000000000000000
1011000011010100
1001010101111010
1000110011011011
10010111001
1111101101101101
1100011110000110
111111111111111
111111111111111
1110010010010111
1110100010011111
1101100101000010
1100010110000101
1001111011000110
1101001111001011
1001100011001110
1000000000000000
1000000000000000
1001111000101001
1000000000000000
1100100110000110
1111100111101000
10010010111111
11001011101011
1100110100111001
1110000100101000
10111010010110
101110010110110
101001111111
1001111011110100
1100110001011110
101111101
1101011001111111
1000100010010010
1001010000100101
1000011000000
10111000100001
11100101100101
1001111000100
1000001010
1000000000000000
1100011011110010
1011010110100001
1101010000110100
11100110101100
1110101000100010
1011111110010001
1001111000001000
1000000000000000
1111000000001110
1100010110111
110001111111
1110110010011110
1001010000001001
1101100101110101
1110111000111111
1111110000001001
1010011100001
1011000011001101
1111011111101101
1101011000010000
1110101010100110
1110001001000100
1101110000101
1110110010011
1000000001100110
1000000000000000
1110110101101111
110001010011
1110000111001110
1110100000101001
1101110001011010
1111011001000111
1111101110111011
11100011111
1001111111110
1111101101110
1101101110101110
1000011110111001
1010001110000001
110000000
1011110101010000
1111011110111010
110011110001
111111111111111
1001110111011
1101101000100110
1100110011100
1101001010100010
1000011111110100
1010001010110001
1011000101101
100011110110
