1111111001110110
1100101110
11110011101
1010011111
100100101
1111010111110111
1111001010111001
11000101111
1111100100111100
1111111110011110
1111111100011000
1111011111001101
10110011010
1111011010111100
1111110000111000
1111110111111001
1111110110011100
101111010
1111110011010001
1111110010101110
1100110111
1111111010101001
100100101
1111111000100011
10110100001
1100100010
1111111101001010
11010011010
1110010000
111101001
1111101111111100
1111110110111111
1111010100101100
1111111100011001
1111110000011101
1001110101
110100101
100100000
1101010111
1111011100010100
1111111100100100
10111010010
1111110110010011
1111010100010010
1111011110000101
1111100100011100
1000101110
10001001100
1111011011010010
10110001010
1111010100001000
1111101110111000
10111001111
1111010111010010
1111101111011001
1111011101011101
1111100000001011
1111110101110011
10001111100
1111001000110101
1111010111001001
10111001111
1111111110010011
10100100101
1111101011100001
1111011011110110
100011101
1111101101111111
1111110000001011
1111001111000011
1111111011101001
1111111100001000
1111101100000001
1011100110
100110100
1111100011010011
1111010001100110
1111110101100001
10110000110
1111010011110101
10111111111
1111100110111001
10010110001
1111010010000100
11000100011
1111111100110000
1111110010010011
1111010101000000
1111101110111111
1111110000100000
11010110011
11010000100
1111100010
1111100011010001
10010000010
1111111110010111
101000010001
1111011011001100
1111111011010100
11001101101
1111010100101011
11100101010
1111010111101011
10010001011
1111111101111110
100110000001
10001000011
1111011010110111
1111111000010111
1111110000110010
1111001101001100
1111010010111110
1111010000101100
1000101100
1110011011
11011111010
1111011001101010
10011010100
1111010101001011
1111110111001110
1111101001110010
1111110100011100
1111111100011000
10100011011
1111101011000001
10010100
1111001100010110
1111110010110011
1111011011100010
1111011010111111
1111011011000111
1111110110110111
1111100100101100
1111001100010111
1111111000000010
1111010010010101
10100010111
1111111100010001
1111111100000100
1111011101101000
1111111010001111
1111110000001011
1111010111101000
1111101010111001
1111010111100111
1111100101010000
1111011101011100
10000100111
1111001110001100
1010000100
11011101100
1111100111001011
11011011100
1111110101010110
11101000110
101000110001
10111000
10101101110
10100101000
1111100111111111
10100001010
1111100000111110
1111111111010101
1111111100011110
1101101011
1111110010101110
1001011101
101110010
10100101001
