10101001000
10010001001010
101000110110011
111101110110010
111111111111111
111111111111111
1011100111100
111111111111111
111111111111111
100110111111011
110111001110110
10011110111010
11111000010
1000000000000000
10110010110111
110111110001100
111111111111111
10111110110001
1111000110001100
1110010101111
1111110111111010
101100000010
1101111101111000
10111001101
1000000000000000
1010010011110111
10000011100
111000111110001
1110010100
1010011111111011
1100001100010011
1100011111111111
1011010000010100
1100010110000111
110001010101
1000110100100101
1000000000000000
1000000000000000
1000000000000000
1011011101000111
1101100101000111
1101010000011010
11011010010010
1111100100011000
1111011110111011
1101010001011000
1000010000010100
1000000000000000
1000000000000000
1000000000000000
1000000000000000
1110101100101100
1000000000000000
1100010000111100
11010001110101
101101100101
1110010101010100
101000011
111100010010
1011001000010101
1000001101110011
1100111101001101
1110000010000111
1100111111000110
1000000000000000
100101110111111
11010111100001
11101101101110
100000001101111
1100110111100
110110111010
11011000011100
10111110001010
101010010001110
101010000110100
101010100010011
1011000110001
11011001111110
111111111111111
111011100000010
1111100110010101
1110100000001100
100001001001
1101010000110101
1111010010110101
10001001001101
1111000100111011
1001110111000
111011100010011
111011100111111
1011000110110001
10001110001001
101110110000
1110001110101001
1101110001100000
1110010101110010
1110101110110010
101100100010100
10001
1101111010001001
10111101111101
100001001110101
1111010001110100
111000000000
1111011110110111
1100100110101110
100101100000
1100110010001100
1111101000101100
10000000001000
1110100110000
1111001111000010
11010110000001
100001001000
10011011101001
1110010001110001
111000111100000
111111111111111
1000000000000000
1100110111111111
1111011111110000
11010100011011
101000010110010
100000000001111
100111101111110
101001001101011
1111000100000111
1110110111101010
1111111110010100
11101100101000
1100001111100
1000000000000000
1110000000001101
1101000001000
101000010010101
100111111100110
101100101011000
1000000010101
1101100111010001
1100011001000101
1010000000010100
1000000000000000
1101010011000011
1110000101011111
1101000001100000
1011001110110101
1010111100011000
1000010000001
1011010001000100
1010101000101011
1000000000000000
1000000000000000
1000000000000000
1000010010110001
1000000000000000
1000001000000001
1111101101110100
1101110101100111
1100100100111100
1000000000000000
1000000000000000
1000000000000000
1000000000000000
1110100110100110
1001010010110011
10011001001110
1011010100111010
1000000000000000
1111111010010101
