100101000010
11111101001
1111111110001000
10110110010010
1011101110100100
1010001011100000
1000000000000000
1000000000000000
101110111011000
1110010000011000
1010110110001011
1101100001110100
1111101001101101
100100001100010
1100110101000001
10011010110000
1100001010010100
1001001110111001
1000000000000000
1101000101000011
1111101011010101
11100010010000
1101010111110
111111111111111
111101011110101
1110100010011100
101110111001111
1111000111101001
1100100111111101
1100101101111100
1011110011001101
10100001101100
1110011101111010
1101001010001000
1110100100010110
1101100010100
11101101010111
1010100010100
11100111110001
1000100011010
111111111111111
1100001110111100
101011000110110
1110011101001011
1101111111000001
1100010000010001
1101000010111110
1100111000010000
1101000011101
100010100111000
110010100111100
1011101000101010
101110110
101110111011101
10111101101100
10011111001110
111100100000
1010110111001
1011111111000001
1110101101000001
110001010100
1011011111101
10011011001101
101101000110011
11111000001100
1100000101111100
10111111111011
11001111000100
100010011000000
100000010111110
11000110100101
1100100100011111
1101000100001100
1111100100001010
101101101
11011110010000
111001100010
100111
100111000001001
1001011101111111
11100100110111
10001011000110
1111101011111100
1010010000010001
1100001001100001
1110010100110111
1111110101110110
111010010100
100010001110
10101011101010
100101110010100
111111111111111
101000010110010
1101011110101011
1000000000000000
1000000000000000
1011101010011010
101000001111011
1101001011001111
1101111001001110
1100010000101001
1000101110110001
100111100111000
1011011011101
10111110011111
1000001011011111
1000000000000000
1000000000000000
1000011101100101
111111111111111
101110001011110
1111111011101001
10111000100011
110110100101
1110111101100000
1111010100010100
111111111111111
1111100101110101
1010010111010101
1000000000000000
1110000110101011
100110011001001
111111111111111
1101001111011
1101011011101
1111000110110
1010001010110010
1011011010101001
1111010100011111
1001011000011110
1100100110111
1000000000000000
100011110111
10001010011
1100101110001
11100100000100
1100110100011
1111100101111101
1111011010001010
1000010111100
1111011100010101
100111111100000
1101011110100010
1001010111010111
1001011010000111
1111001001000011
1110000111110
10100101010001
100011001111100
100001000010000
11010010110101
101100001110110
1011001011101
100110111010
111111111111111
11110001110110
1101110100110110
1000000000000000
1110111100100000
1010010001101010
1011101010001100
1101101000101
10011010000000
1111010101011101
1010101011011
101000101000010
1100110010011111
1101101100000001
11100010110100
