11001010
100000111001
100001010010
1110101110000110
111111111111111
100010100101010
1000000000000000
1000000000000000
1000000000000000
1101110010001000
10010010010100
10000101101111
1110000110011000
1111110011011001
11111110010000
110000110000010
111101011
100000111010010
101111100101001
111001
1100000010011010
1100100010010100
110100001001111
101110000011
101110001111
1111010011001000
11000011010110
110001001011111
10010111011101
1101001110110001
1011100111001001
1000000000000000
1000000000000000
1000110101000111
1100101011011011
10000001001111
1110111110110101
1010110010011
1010010001001100
1111100011011
111111111111111
110010111000110
10101110100101
1100110110000111
1000000000000000
1000000000000000
1101000001101011
100011100110
1011100110111
111100001010
1101101100110
1101100100000100
1101001001100
100100111010000
10000111000111
1011110010101011
1101001010111101
1000000000000000
1000000000000000
101110011001110
10111000100000
1101011000010010
1111100110111101
1111000101001101
1101110000010101
11100110110100
110011010011101
10000110110011
1000000000000000
1011010010001011
1001011001001010
101110110
111111111111111
10000000011100
1111100101010000
1100101010011110
111111111111111
111111111111111
1110111011101100
111111111111111
11010101010110
1010100101111110
1111010100011001
1100111000101010
11110111111101
1111100010100110
1110000000101110
1000000000000000
1000000000000000
1110100110011011
1001000001110111
1001011010001
111011000100
111001100101011
110100111010011
1110001111111001
1101111010101
10111111000111
1111111011100000
1001100011110101
1000000000000000
1111110000111100
1110100000001
1011101100001101
1110101011010111
1111010001111011
10001010001100
1111110010111111
11010010011
10101000110101
1111010100110011
10110100001111
1000000000000000
1000000000000000
1101011101011000
101100011101111
101010111010000
1100011000101011
1111110111001011
1101001011010111
10101111111011
101111110000000
100111000101111
1010101100001101
1110110001000100
1000000000000000
1001001111010111
1100101010000100
11101010111011
110000111010010
1100011000110010
111111111111111
1010010000100
1110111011100011
1001110011010
1101111001001000
1000000000000000
1000000000000000
1101011001011011
1011000010011100
1011100010011000
11001110101010
110001100110011
1100010100011011
1111010101100011
1101100001100110
1000001011001
1100100101
1110010011111100
1110100101101110
1000011110011001
1011000011011011
101101100001000
100011000101000
10110010111101
101011001010110
1001100000
1101000001011000
1000000000000000
100010111011100
10010101110010
100101010111110
1111010110110101
1100001011110111
1101011000001010
1100000001101
11010111100010
1011000000111100
1101101100
