1111111011011010
10101110001
11011011100110
1110001101
1101011111111101
1111110101000101
1000101011011000
1111110000111010
1100110000001110
1111011100000111
1011001100010111
1111000001111000
1110100110100110
11001100100000
1011111111100001
1000001001010
1100010100011111
1101001100111001
110100110111010
1111111001010011
10111110011
1111110000101001
1110101010000101
10101111010111
1111111110001001
1101101001100000
1100101010010000
100100010011
100101000
1111101000000010
1111100010100010
1110000000011101
1001010111100101
1111110101011011
1100011101000
100100100101101
1110100100101000
1111110001110101
1101000101100101
1101100100010000
1101110000101011
11000100110
1101011110001000
10100101001
10010000100
1000100010100
1111100110101110
1101100101111010
10100000101
101010011001
1001101010111000
1100101111100110
1111101101111101
10011110001001
1111001101000011
10101001000001
1100110001001001
100011110110
10000011000011
100101000011101
1101011011010
1101110010110011
1001110000000000
1001011110100
