0000001100010111
1100011000101111
1010110101011000
1100000110101111
0000111101011101
0001101110100110
1101100000110000
0000001001100010
1100111101001100
1110010110101100
1111110101111100
1101111001000000
0010000100011100
0000101111011001
1101110101010101
0000110011101110
0000001000000011
1110010111111000
1111111011000011
1110110100101101
1010101111111110
0001110100101110
1100011110110101
1011110000110001
1100000001010010
1001100101100011
1110100111100110
1101010010011010
1001100010100111
0000011000011110
0010110001001111
1001100111010001
