0000010100100010
1111110000111000
1111110101110001
0000001100010010
1111101101100010
1111101110111010
1111101000000101
0000001011100111
0000011010000001
0000010100000000
1111110011111001
0000001010111000
0000011101101011
0000011000011000
0000010101100100
1111101010011110
0000100001010010
1111101010110010
0000000000000001
1111101011110100
0000001001110111
0000000010111110
0000001000010100
1111101110100001
0000010111000110
0000000010100110
0000011100111000
1111110100110110
1111101010111111
0000011101101111
0000011101111011
1111111011000000
1111100101100000
0000011110111111
1111111101001111
1111110100001000
1111101101001111
0000001001000111
1111111011111101
0000010111010101
1111101001000111
1111110110100011
1111110010100110
1111100001010101
1111111000001010
0000010011100111
1111111001000010
1111100010010101
1111100011011010
0000001010000110
0000001011111111
0000010011110011
1111111010101001
0000010011000101
0000011110001010
0000001101101100
0000000101010101
1111111000111100
1111111001111111
1111111010001001
0000011111010101
0000011010110101
1111110001110100
1111101011010000
1111101110011010
1111110100000011
1111101010111000
1111100001011010
1111111010010010
1111100110111011
1111111010000100
1111100100010011
1111110011100111
0000011010111111
1111101000100111
1111110100000111
0000010110011111
1111100101101001
1111111101111000
1111100000111010
1111100000000011
1111100011110001
0000000010111110
1111100000010110
0000000001110101
1111110110110100
1111101100000010
1111100011110110
1111110011100010
0000000001111101
0000011111110111
0000001010101011
1111100110010010
1111100100010101
0000100001000011
1111100111100000
1111110011000011
0000011110010111
0000011000101111
1111100100100011
0000001110011010
1111110000100110
0000010100010110
1111011110111101
0000000010110001
0000011100010100
0000011111000010
1111011111011001
1111111100110100
1111101001000011
0000000110111101
1111100001101010
0000011010111001
0000000011010010
0000001011101000
1111101010111111
0000000010000110
0000011000111000
0000011100111111
1111101010011001
1111110000000111
0000011100000111
1111100011001001
1111100111110100
1111101000010000
0000001011101110
1111110111010001
1111101111001110
1111101000110010
0000001110100001
1111110111011001
1111101001000100
1111111101110000
0000011001111001
1111101010101001
0000001111110100
1111101001101011
1111101110101010
0000011111011001
0000010111111100
1111100101111111
1111100101001001
0000011100000110
1111111001101000
1111111010000010
1111100001010110
0000010101011001
1111011110101101
1111111000110000
0000010111111011
1111111101001000
0000011110010000
0000000101100010
0000011100100001
1111111001100110
1111101001101010
0000010010000110
0000010111001100
1111100011111101
1111101101100111
1111101101111000
1111110100100000
1111111010001001
1111110000110100
1111110011001011
0000001000110000
0000001000010010
1111100001100010
0000001111111111
0000000100010100
0000001000011100
0000010110101100
1111111011100101
0000010010110000
1111111110000011
1111110001010111
1111101001100010
1111111001100110
1111101111101011
0000100000010001
1111110011110000
1111100111111100
1111101110110111
0000001110000010
0000000011000000
0000011111110101
0000011101000010
0000001110011010
0000011100110111
1111011110110000
0000011010001111
1111111111000001
0000011100001011
1111110111010110
0000000100111111
0000001011011110
0000001000110100
1111111110110101
1111110000011000
1111111101011101
0000000110000010
1111100100101111
0000100000100110
1111101010000001
0000000100010000
1111100000111111
1111100111000001
1111101101010010
1111101001000001
1111111110110111
1111101010011111
0000000111100000
1111101000111000
0000011111110111
0000011000000001
0000010101011111
0000001011110010
1111101110100101
0000010010010001
1111111011100000
0000011100101011
0000010001000001
0000010001011001
0000001010010111
1111101101101000
0000001100111010
1111111100011011
1111101101001110
0000011000000110
1111101111100010
1111101001101101
1111111110011100
1111101101011101
0000001101011100
0000001010101001
1111111001100110
0000010101011110
0000001000111101
0000011111100001
1111101010011110
1111011111011100
1111101111110101
0000001000000011
1111110111100011
1111101101000111
1111100011100000
1111011111010101
1111111111000101
1111100100110011
1111100010101000
1111110000110101
1111110111011110
1111100100111011
1111110001100001
0000000101011010
1111111101010001
0000011001010000
1111100011110110
0000100000000011
1111110011010111
1111110110011011
1111110010001100
0000001110101011
1111100000000100
0000000111110000
1111111100001011
1111110011000111
1111100010111110
1111110010010100
0000011111001000
0000001111111101
0000001011000001
1111110000001100
1111110001110101
1111101000101111
1111100100101100
1111100111101011
0000011010111110
1111101110110100
0000001110100001
1111011111101010
1111011110101101
1111101010110001
1111101001100010
0000001011101011
1111110001000011
1111101011000101
1111101101110011
