1111110100110111
0000000101101001
1111110011011010
1111100100010011
1111101101010100
0000011011110110
1111111011010101
0000010110101011
0000100001000100
1111110101110010
1111110010100010
1111110010001001
0000011001010011
0000001010100000
0000010000111000
0000011100010011
0000100000111010
1111101111011101
1111111101111010
1111101010011001
1111110000000100
0000001101010011
0000000001100010
0000010110110100
0000001100001011
0000011010111010
0000001000001111
1111111010110111
1111100101010100
0000001000101100
0000011010101101
0000011001001010
1111111000010000
1111110110001101
0000011011010101
0000001000110000
0000000001111010
0000010011111111
1111111000111110
1111101111110001
1111111000011000
0000011111001101
0000000010000001
0000010111000010
1111101101100000
0000001011110111
1111101101000100
0000000101010010
1111111101001111
0000011001011100
1111101111010010
0000100000101000
0000011010001101
0000000111001110
0000011001110110
0000011011100000
0000011010000111
0000010110110001
0000011111111001
1111100110000001
1111101100011110
1111110100101011
0000001001101110
0000011100111110
0000011011110011
1111110101010101
0000010010100110
0000001100011101
0000011101000011
1111111110011100
1111101101011111
1111100011011110
1111110111001010
1111101010111001
1111100100000001
1111100010101101
0000001110000111
0000000001101110
0000001001010000
0000000010010010
1111110000100101
0000001001101011
1111110101010111
1111110111011011
0000001001111100
0000010000010100
1111101100110110
0000011011111000
0000000110011001
1111100111111111
0000011010111000
0000001101110000
0000010101100101
0000010000000101
0000100001000110
1111101001110011
0000000110011010
1111100101001000
1111111001011011
0000001010001011
1111111001000110
1111110110110111
0000000000100100
1111111010110000
0000000111001011
0000100000101111
1111100001011100
0000001101001110
1111111110011100
1111100000011000
0000011011001001
1111100101011011
1111101110001110
0000001011110010
0000001010010000
0000001101010001
0000010010100001
0000010100100001
1111100011111001
1111111011011001
0000011010001111
1111110101010111
0000010110110011
0000100000111110
1111101001101011
1111101110011100
1111110111011001
1111100100000111
1111110111110101
0000001101100101
1111111011011001
1111110110010001
1111110111100000
1111110100010010
0000000000101110
1111111100111100
1111111101010101
1111100011111101
0000010011001011
0000011001010101
0000001001111010
0000001110000010
0000000000000111
1111111100100110
0000000101010101
1111111001110110
0000011100010100
1111100011100101
0000000010110111
0000000001100001
0000001100101101
0000011100111101
1111110011100010
1111101001100011
1111100111110110
1111111111000110
0000010100000110
1111101000010111
0000011010111001
0000001001110010
1111100111010100
1111111100000101
0000011101011011
0000011111001000
0000011011101101
0000011010100110
0000010111110001
0000001111110101
1111111000111101
0000000001101111
0000000100001100
1111110001000110
0000001011101001
0000001111110111
1111110110001100
0000001001010011
0000010010110101
0000010110010010
1111100100010001
0000011110111100
1111101011001011
1111110111001011
1111111100100000
1111011111101011
0000011110000011
0000011011111100
0000000001111010
1111101100011001
1111100000001001
0000001011100001
1111100100011010
1111110111101000
1111101110110111
1111110010100000
1111110111111010
1111100101001110
1111110000000101
1111111110011011
0000000000010110
1111100011100110
1111101111000100
0000001000110100
1111111100110011
1111100110100010
0000000001010010
1111110100111111
0000010001111011
0000011111111111
0000011010001001
1111011111000011
1111101101011010
1111111100110000
0000010001011111
1111110110010010
0000001011110100
0000000110101011
1111111111110011
1111101110001010
0000010111010011
0000000001101101
0000000100100110
1111101110001110
0000001001111000
0000010000100111
1111110010001101
0000001001001011
0000001010011010
1111110100011101
1111111101000010
0000001001100110
0000011000100000
1111100110110001
1111110100001011
0000001000101011
1111100110111101
1111101111100000
0000001011100001
0000001001001010
0000001000001100
0000000001000010
1111110001011001
1111111011101100
0000011010111100
0000000010111011
1111111110011001
1111101001011011
0000001110100010
0000011100010000
1111110110010011
0000001101111100
0000100000111101
0000011000101111
1111111110101001
1111110001011010
1111111100001000
1111110000000011
1111011111111110
1111110001011001
0000011011101100
1111110111110000
0000010101011101
0000010111100001
0000010101000001
1111111000001001
1111111111111111
1111110001001001
0000001100101000
1111110010001111
0000000011101011
0000011010011001
0000000111010011
1111101101001100
1111111000000001
0000001110101011
1111110001100111
1111101011100011
0000011100110110
0000010001101111
1111101001100011
0000010000010000
0000001010101001
0000010011100011
1111101011101000
1111101010000010
1111111011011000
1111100000001101
0000001101111101
1111100111000000
