0000001010011110
1111100101111001
1111111110001111
0000001111011111
0000010001111000
0000011001010001
1111111010000001
0000000011010101
0000001100011000
1111011111111111
1111111011000101
0000000110100011
0000010011110010
0000011111001001
0000100001010010
0000001000011111
0000001110000011
0000100000110010
1111110011101110
0000010000110110
1111110100001000
1111100111011011
1111101100111111
1111111110110100
0000011010010110
0000011000010001
0000000011110001
0000010111110100
0000010001001010
0000011010100101
0000100000100000
1111100010010000
1111110100110010
0000000011110101
1111111000110010
1111100010010000
0000010010000111
0000010100110011
1111110000110011
0000011101101111
0000001111110100
1111110000001111
0000001110001100
0000011010110111
1111111011010101
0000000010010001
0000001110101011
0000001110110110
1111110011001000
1111111010011010
1111101111000010
0000001011101000
0000011110110011
0000011010001110
1111110110100000
1111111011101101
1111111111100110
1111110001110001
0000010010010000
1111011110111001
1111101011010010
1111101001010100
1111110010110111
0000011010100000
0000001001110011
0000000100011100
0000001110001011
1111100100101101
1111100010111111
0000000010001110
0000011100001111
0000011010001001
1111111100101000
0000010101010100
0000011101010010
0000010010000101
1111100110111010
1111100000010000
0000000010111010
0000010001000010
1111101100011111
0000000101101100
0000010000010011
1111100010000011
0000001001111010
1111110100101101
1111111011001010
0000011101110000
0000011101001011
0000000001001001
1111101010111110
1111111001011110
0000001101101111
0000011011000000
0000011010110101
1111111010111010
1111110101010011
1111111101011000
1111100111101010
0000011001010101
0000000110001100
1111111100011110
0000000011000101
0000000111000011
1111100000000001
0000000100000100
1111100101101101
0000011101100101
1111110110111110
1111101010100100
0000010000110010
0000001001000101
0000000110110001
0000000111011111
0000010100101010
1111111101111001
1111111011010100
0000001010010111
1111110110100111
1111101101110100
1111111101110010
1111100010011011
0000001100111110
0000010000111000
1111111011000011
0000011100100001
0000010100100000
1111110010100100
0000000111100111
1111100001011101
0000011000010111
1111111001000110
1111100110101000
0000010110001110
0000001100100001
0000010000100000
0000001010111110
0000010001110010
0000010000110100
0000010101100011
0000000000000100
0000001011011110
1111100011100001
1111110001111001
1111110101100100
0000000110010011
0000011100010101
1111100111110101
1111100111100101
1111101101011000
1111100100011011
0000001111010000
1111110110001011
0000010011101111
1111100011001111
0000011001110101
0000011110011110
0000100000001100
0000010001010111
0000010100011010
0000011110001010
0000010110110000
0000000100010111
0000001000010100
0000010000011110
1111101000011010
0000001111011001
0000001000000001
0000000111100000
0000011010101100
1111111101001011
0000001011111011
0000010111001010
0000001011100100
1111101100100110
0000000010111110
0000011010101011
1111101001001000
0000010101001111
1111100001001010
1111110100000010
1111101001010001
1111101110101000
1111100101001111
0000000010101100
1111100010001001
1111111000110000
1111100110100101
1111101111110111
1111111000000100
1111110101110101
1111101000010011
0000010100111011
0000001000111000
1111110111010101
0000011111110000
0000011110111001
1111111111101111
0000000000100101
0000011100001011
0000001010011111
1111111011010101
1111101000000110
1111101100110101
1111111001100000
1111110000100101
0000001110100011
0000010001110101
0000011010010000
1111101010111011
1111110110000100
0000011101000110
1111110101111001
1111111010111011
0000001011010001
1111100010100011
0000010101101011
0000001000011001
0000001011011000
0000001110101110
0000001011100010
1111110001110001
0000010100000111
1111111000000001
1111100001011011
0000001110000000
1111101111001111
0000001100101010
1111101101011000
1111101110110100
0000010010000110
1111100111111000
1111100011011011
0000001101110110
0000001111101010
1111100111111010
0000001101011101
1111110010011010
1111111111010001
1111111010101011
1111100100111110
0000011101010011
0000011001101011
0000001001100000
1111011111000101
0000010001010011
1111101011100010
1111110110011101
1111110000111110
1111100010001001
0000010100011011
0000001101100000
0000000100010011
0000010000100010
1111110110000001
1111100100011101
0000010110110011
1111110000100111
1111110101110111
1111101010001001
1111101011010010
1111110100011011
0000000011111001
0000010111100110
0000000011111011
0000010111011100
1111111100000000
0000011001101100
1111111110101011
1111100001111000
1111101100011011
0000011100001001
0000010110101110
0000001011110000
0000011101111011
0000100000010100
1111100111110011
1111111011101000
1111110110111001
0000001001110100
1111100010101111
0000011000110011
1111011110101010
0000000011001110
0000001010101111
0000011111010101
0000000001010110
1111111001101101
