0000010010110010
0000010011010001
1111100111010010
0000010000110100
1111110101110010
0000011010001100
0000000110110101
1111110011010101
0000011010110110
1111101101111101
0000011010011110
0000011111111000
1111110001011001
0000011101110000
0000011100101110
0000000110100000
0000000100010110
1111110000011110
0000010100001011
1111111000100000
1111110111111111
1111110001101100
1111100001001001
0000000111000100
1111110101110011
0000010110011100
1111011111000010
1111110011110101
1111111101000111
0000000111000101
1111101111111111
1111110100100101
1111101000000011
1111100001111001
1111111100011111
0000000010101000
1111110101010001
1111100100100000
1111100011011100
1111111011011110
1111100011111011
1111100110111101
0000010111100110
0000010010001111
0000011111110110
1111111111101010
1111100000001100
1111101100100001
0000001011111101
0000000101000101
0000011011111000
0000011111111001
1111101111010010
0000000010111100
1111101111011100
0000011101010001
1111111010010111
0000001110111010
1111100010001010
1111111101000001
0000010010101101
1111110011010110
0000011011011011
0000011110100101
0000000110011110
0000011001001101
1111100011100011
0000001111010110
0000011011100001
0000000011011001
1111101011000111
1111100110000101
1111101100110001
1111110001101100
0000001011101100
0000011100111100
0000000110000101
1111110110100010
0000001101101100
1111101001111010
0000001000100111
0000000001110101
1111101111110111
1111101101001100
1111101011011101
0000001000011101
0000010000101001
0000000110111110
1111011111000111
0000011001111000
1111100111111000
1111110101011010
0000010100000111
1111100000011001
1111111011100111
0000001111011111
0000000111100101
1111110010101111
0000001000101011
1111110110110110
1111100110100011
1111100111000001
1111011111010111
0000000001010110
0000011000111110
0000011001010010
0000011000010101
0000011011110001
0000000110001010
0000000010011000
0000001001011001
0000010010010100
1111101001111111
0000001101111011
0000010110000001
1111110001011110
0000000101101111
0000001001110010
1111111101001001
0000000111001100
1111110011000111
0000000111100010
0000100000001101
1111100010100001
1111100100001000
1111110101001001
1111101100000101
1111101010001100
1111110100000010
0000010000111111
1111101010011001
0000001001010000
1111101000011101
0000000010100000
1111111110110000
1111111000011010
1111110110010101
1111101001000010
1111100111110110
0000010101100111
0000010110111001
1111101000111010
0000011110010110
0000010000110101
0000010101100011
0000100000110010
1111110000001000
1111100111000101
1111111000111101
1111100101001011
1111110000011101
0000001011000001
1111110010011010
1111100100111011
0000001110001000
1111101100111011
0000010010000111
0000001101101000
0000010011111000
0000011101100011
1111110000111000
0000011010110010
0000001011010011
1111110010101001
0000000011101001
1111111010000111
0000010011110001
0000010100111011
1111111000110011
0000010010110011
1111101001010100
1111101011111100
0000010011111100
1111100011001100
0000011110001000
0000000010111000
1111100101101000
1111101100100101
0000001101110001
0000000011010010
1111011111111000
1111110000111111
1111111010111000
1111111111111011
0000011101101111
0000000111011100
1111100010000010
1111111001100000
1111100111010001
0000000000111001
0000010010000010
0000001110111010
1111100111111010
0000011011101000
1111111000100011
1111111101100101
0000001110101000
1111111100110110
0000001101101101
1111110110100000
0000100000100000
1111111011111101
0000011000110111
0000000001111000
0000001101100011
0000011100010011
0000001001010100
1111110100010010
1111100111101011
1111101100000101
1111100010010110
0000011110100010
0000010101001101
0000000100110100
0000010001011111
1111111100011010
1111111101101011
1111111100111001
1111100010101001
1111101101010000
0000001100111110
0000011110111011
1111011111000011
1111111100000000
0000001111100111
1111011111001001
0000011110011011
0000010111110010
1111011111110111
0000000010101001
1111111110011111
0000010111001110
1111111000000010
0000010010011011
1111111011100110
0000001110001011
1111101110111111
1111110010100100
0000100000001011
1111111000111101
0000011110111001
0000010001110110
1111111000001100
1111100100110010
0000001111010101
0000000111000111
0000010101000110
0000100001001010
1111110011011101
0000001111110111
0000001111101011
1111101001101111
0000001101001111
0000001111100100
1111101101000000
1111110111101010
0000000101101001
1111101000101101
1111011110101100
1111101011001100
1111110000111010
1111110111011111
0000000010010000
1111111110010010
0000001101111110
0000011000101110
0000001001110110
1111111001101111
0000001010110010
0000010001100001
0000100000101011
1111110011010111
0000000111100010
1111110111111111
0000001111110100
1111110100000101
0000001110101100
0000001101011111
1111110001001100
1111100101001101
0000000001001100
0000000100000111
0000100001010000
0000000111001010
0000010011100001
1111011110110011
1111110110101110
1111101010111001
