1111100010001010
0000001101011001
0000000011010101
0000001011111001
0000001000110011
0000011110100110
1111011110111110
1111110000001100
1111110011000011
1111111010001001
0000010001110101
0000000000100000
0000000001001111
0000000111000001
1111100100110111
1111111110111011
0000000100011000
0000000110101101
1111101100100011
0000000011000111
0000001101100101
0000001010001001
0000000000100100
1111111000100001
0000001011110011
0000000111010100
0000011000000001
1111101011011101
0000011010010000
0000010001010100
1111101110000000
0000010110101000
0000011010000000
1111111000100011
1111110000001010
0000000001001010
0000010010101000
1111101111010111
1111110001010010
1111111010011110
1111100011000011
1111011110111100
1111110000000101
0000000100001111
1111110001111010
0000011000000111
1111011111001110
0000000011100000
0000010011010001
0000011001111001
0000011011100011
0000010011011100
1111111101101010
0000001100101000
1111100001111000
0000011110111011
0000010110010001
0000011100010101
1111110001010100
0000000100111000
0000011000100110
1111100100001000
1111111110110101
1111100011100001
0000000001010101
1111111000110001
0000010001111111
1111110010110100
0000001001111100
1111110111111001
1111101000011011
0000001001111001
1111110111100011
1111100000011001
0000010011001000
0000010110111100
0000010011000010
0000010001001011
1111110101100001
0000011011001101
1111110010110000
1111110100000011
1111100011100011
1111110110011010
1111100000010000
0000001001011101
0000000101010011
1111101110101100
1111111101111110
0000001000100000
0000011001101000
0000000101100010
1111100100101100
0000001001010000
1111100111010101
1111101101111011
1111011110110111
1111111110010100
1111011111110011
0000010111101011
0000010101101011
0000001101001110
0000100001001011
1111110011110111
1111011111100010
0000000010000111
0000001101010001
1111111001111011
1111100111100111
0000011001011111
0000000001010011
1111111010101010
0000010001110000
0000011000011000
0000011101110011
0000000001001000
0000001000110011
1111111011011010
1111101110110010
1111110010001101
1111110000110101
1111111100110000
0000000001001000
0000011111011101
0000010001011001
1111110010001111
0000010000000000
1111100000100111
1111101001010111
1111100000111011
0000010010101111
1111100100000011
0000000001111110
0000011101001100
0000011110101001
0000010011101010
0000010000000110
0000010011101111
0000000010001101
0000001010101000
1111101000010110
0000011011100111
0000011001010001
0000010001011100
0000100000001111
0000001111110111
1111111000011100
1111100011100111
0000001011010101
1111011111010010
1111111011010011
1111100110110000
0000011101111111
0000000001000111
0000011111101101
0000001000110101
0000010101111111
0000011110011110
0000011110010110
1111100001111010
1111100100101100
0000011101000001
0000011010001111
0000011100110110
0000000101001110
0000000101001000
0000001000111001
1111111111100001
0000010111100001
1111101011101100
1111111101111101
0000011110100010
0000010101111010
1111111111000111
0000011100010111
0000011011101100
0000010001001111
0000011110101101
1111110001001010
0000000101110100
0000001010101010
0000010100110111
0000000001100001
1111110111101001
0000011011111111
0000001000010100
1111101100001001
0000010010001101
0000010101001100
1111101001111000
0000001111001011
0000011000000110
1111111011000101
0000011100111000
0000000110000110
0000000110110100
1111110110001000
1111100110001100
0000010010001000
1111100011010000
1111101000011101
1111101001111110
1111101100100110
1111110101001001
0000001111100100
1111110001001100
1111110101010100
0000000110101011
1111100100010010
0000010011100100
0000000100011110
1111100010110010
1111100101001101
0000011011010010
1111011111011001
1111111100011011
0000001100011001
0000010000010110
1111111010001100
1111101001101001
1111110110110110
1111111110001110
0000100000000001
1111110011101110
1111101010000101
0000010101000100
0000011011001010
1111101101011001
0000011010000101
0000011110110000
0000000100000100
1111111101110110
0000000001100001
0000000000110100
0000001001111000
0000000101110000
1111110010010111
1111100011000001
0000000010110110
1111100111100100
0000010111010100
0000010101110001
0000011000101110
1111100001111111
1111100111111011
0000010010000010
0000000110010000
1111111000100010
0000011111110111
0000011011011001
0000011001100110
1111110011111011
0000000000000111
1111100100111011
0000001110101011
1111101100110110
0000001100110101
0000100000110010
1111110011101100
1111111010000000
1111100011101000
1111011111110000
1111111101110010
1111100010101111
0000011001100110
1111111111010010
0000010001000010
1111100010010000
0000011011100111
0000001111100101
0000001100100010
0000001111001100
0000011011000111
1111111111010000
1111111000000110
0000000111011110
0000001010010110
0000011011001011
1111101011000001
1111110101000001
0000010110011001
1111101010110101
0000000110100100
0000001110001100
0000011110000110
1111100010010101
0000000010001111
1111011111110111
