0000010011101101
0000010101011001
1111111000000110
1111101111111011
1111100000111010
1111111101100101
0000011110111110
0000100000101010
0000011111110001
1111011111111011
0000010101000011
0000000000111000
0000001001100001
1111111101000000
1111110110011011
1111111110111000
1111100101001010
1111110111110000
1111110011011011
1111101010110001
1111101000111011
0000001010111111
0000001011011110
1111110110101010
0000011100011111
1111101111111110
1111101110111111
0000001010010101
0000010000101100
0000000011000001
0000011010000001
0000001111000110
1111111110010000
0000001111101001
0000001000001101
0000001110010110
0000001000010011
0000000000000101
0000000011100010
1111110110111110
0000000110000111
1111111100100011
0000001000111100
1111111010100000
1111101011101000
0000000100010111
1111101101110001
0000010000000011
1111100101100110
0000011001001101
0000011010110011
0000011010011010
1111111010110100
0000011101010101
0000001110000001
0000011000101001
0000000100101111
0000010100110100
0000001011101101
1111101101101011
1111101001011110
1111110010001011
0000010111111000
0000001001100000
0000001101100111
0000000100111000
1111101000111110
0000000011010110
0000011101111101
0000000111100111
1111100110011011
1111101011010000
1111100110010011
1111101011011010
0000011000100010
0000000010000100
0000001000011011
1111111100100000
1111100010101100
0000100000100110
1111101100001110
0000000010110001
0000000111110011
1111110110101001
1111111111111011
0000001000110111
0000000100011101
0000010110111010
1111100100100110
0000011100100101
0000001110110111
1111111101111000
1111101000010110
0000100000000010
0000010001110111
1111100110110010
0000000111100110
1111100111000000
0000010110101010
0000001110110011
1111110101110010
1111100000111111
0000000010001000
1111100101101000
1111011111000000
1111111010011001
0000000110110110
1111110101010011
1111110110001110
1111101111101110
0000001011010110
0000000000000011
1111101011111001
0000011000111011
1111100101011110
1111111110000011
0000011100101111
1111011110101111
1111100111000000
1111100100100000
1111111110101011
0000011011010001
0000011101001101
1111100000101010
1111101011010111
1111101000010110
1111110111101101
0000010101000111
1111101010111111
1111110010000101
1111100011000000
0000010000110100
0000011111011110
1111011111010111
1111100111011100
0000010010111001
1111100100110111
0000000101001001
0000010011010000
0000001010010000
0000001100001011
1111111011101100
1111110111111110
0000001101000011
0000001011011011
0000000011001110
1111110000111010
1111101110010001
1111101111010011
1111110110010101
1111110001100001
1111101100110001
0000001010101100
1111100010101100
1111011111011001
1111100100110010
0000011110000001
0000000100101010
1111101011010111
0000010100111110
0000011101000011
1111110101011101
1111111010011101
0000000101110100
0000011100100010
1111101011101010
1111110111111010
0000000011101010
1111110111111010
1111111000000101
0000000001000101
1111110111110101
1111111001010111
0000010111100001
1111100001010110
1111101011010100
1111111111110011
1111110011010111
1111101010101110
0000000101011101
1111110000000010
0000001100110011
0000011110000011
0000011001000101
0000010111101111
1111100001011101
0000001001011111
0000000001111101
1111101001100100
0000000101000011
1111110000100010
1111101111010010
0000011000100010
1111100100100111
0000011000001010
1111100110001011
0000011101100111
1111110101100000
1111110001100110
1111111111110111
0000011110010101
1111110110101111
0000001010110000
1111111100101100
1111111111110110
1111011111100100
1111111100011001
0000000100011101
1111110110010010
1111110110011100
1111110111111111
0000001011100001
0000010110011101
0000000000111111
0000010110001011
0000001101111110
0000011100001001
0000010010001000
1111101011101101
0000100001000011
1111100000110000
1111100101100000
0000000001111010
1111111101110111
1111110101100000
0000000100100010
1111100101101010
0000011011011101
0000011010000011
0000001000111100
0000010101001101
0000010001011010
1111111011001101
1111110100110000
0000011101001000
1111111001010010
1111101011111001
0000001000000010
1111111110100111
1111100101101010
0000010000010000
0000011000011000
0000010101100010
0000001100010101
1111100111010100
1111100001010100
1111111111011110
1111110001100101
0000011111110101
0000010110001011
1111011111010001
0000011010000111
1111111101001010
1111111110010100
0000001110011110
0000001110111100
1111111111100110
0000010010100101
1111111111100110
1111101110100101
0000100000111110
1111100111010111
1111111110101001
0000001100111000
1111101111100111
1111110010101101
1111111110110111
1111101100110100
1111110010001011
0000010001111100
0000011001010010
1111101000110101
1111110100111100
1111111010110101
1111111001000010
1111111001101101
0000011101100110
1111100011001100
0000000101101110
0000010111010110
0000010110111001
1111111101000110
1111100000010011
1111100101010111
0000001000010100
0000100000000011
0000000011111011
1111111011011000
