0000000010001010
0000001000111101
0000000001010010
1111101101100000
1111110010101001
1111101011101010
0000011100111001
0000011110101110
1111101010100001
0000000001010101
1111100100010101
1111100000111100
1111011111111100
1111101101100011
0000001100110100
1111110001011011
1111110111111001
1111011110101000
0000001111001110
0000011011101111
1111100100001111
0000000101010010
1111100000101010
1111011111110111
1111100110110111
1111110111010100
0000011110010011
1111110100000011
0000011011001101
0000010111110111
1111110100000101
1111101011010110
0000000010101001
1111111011100101
0000000010110001
0000001010000001
0000011011111110
0000000110110000
0000011111001001
0000011110100010
1111110010001001
0000001110111001
0000010101100100
0000000000001010
1111101000111001
1111111010011001
1111101010010000
1111100110011111
1111111010100111
1111100011101010
1111100000011111
1111101101101101
0000010000010111
0000000101110010
0000011111111100
1111111000101011
1111101010010001
0000011111000000
0000000100110001
1111111010100110
1111101000100110
0000000110100101
0000001010001001
0000010100001101
1111111011000101
1111100010110001
1111100001011000
1111111011101100
0000001110111001
0000000010010100
1111111010100010
0000000011110001
1111101001101100
0000010000100101
1111110001110100
1111100111101110
0000000101111010
1111110001010010
1111111011001011
1111101100111110
0000000001000010
1111110111000011
1111110000100111
1111100101000010
0000010100100110
1111101100011011
0000000100100001
1111110001010011
0000011110100001
1111110101101110
1111100111101111
0000011000110001
0000010111010011
1111101000011001
0000010100010110
1111110101010000
1111101110000110
0000001001010010
0000000101111110
0000011001111110
0000000111100011
1111110110000111
1111110111000001
1111110000001000
0000011101010110
1111100101010111
0000010111001010
0000010110010010
0000001011101110
1111111101101011
0000011001001000
1111101111001110
0000011000100101
1111101000100110
0000001100100001
1111110011110101
0000010010001100
0000100000101100
1111110100001101
1111110101000011
0000001100000110
0000000110001111
1111110110011001
0000100000010110
1111100111100000
1111110000011000
1111110010100101
0000010000111010
0000010101001001
1111100000011011
1111110100011000
0000000010000110
0000001010111010
0000001011010110
0000000100011101
1111110111101011
0000001100001111
1111111110000010
0000001101011101
0000000110111110
0000001111000001
0000000001011010
1111110101001001
0000010001011101
0000000111011001
1111111000010110
0000010001100001
0000011000111001
0000001010111100
0000100000110001
0000010101000110
1111100101101110
0000010010010000
1111100010110010
0000100000111100
1111111111000001
1111110110000011
0000000011100000
0000010100111001
0000000100000001
0000010010110111
0000000111111000
0000000011111000
1111101011011110
1111100101100100
0000010111010111
0000010000010100
0000100000101100
0000010001111010
0000001011010001
0000000011100101
0000010001111110
1111101100101001
0000001100011011
0000010111101111
1111101100100111
0000000011110111
0000000000011011
0000000010100110
0000010110011010
0000100000100110
1111110000100100
0000000111111111
1111101010001001
1111111011001101
0000010010111110
1111100101100111
0000011010100000
0000010000000111
1111111101111100
0000010011010100
1111100011011111
1111110110010001
1111111100101111
1111101101111101
0000011110111110
0000011110000100
0000010100110010
0000001001110111
0000011000001010
1111011110101001
1111111011000010
1111110011010100
0000000001000001
1111011111001010
1111101011101000
1111110110000001
0000010011001111
0000001001010000
1111100101001100
1111110110100010
0000000100101100
1111110100111111
0000001110011110
0000011010101011
0000001111111110
1111111100011100
0000001001100000
0000000001101000
1111100100111110
1111011110110101
1111110101001011
1111110100000100
0000000000010000
0000011101100001
1111100101100100
0000000011011100
0000010000100011
0000001000000101
1111110011100111
0000000001011001
0000011100000101
0000000010110100
0000011001010110
0000010111010111
0000010100010011
0000000000101100
1111111011100111
0000000101110011
0000000001010001
1111101001010100
0000001011111110
0000011001111110
1111110011110101
1111100101110111
1111101000111011
0000011100110101
0000010010001011
1111110001100100
1111100001100000
1111100001101001
0000100001001110
1111100001001100
0000000001001001
1111111111001100
0000001011010100
1111111001010001
1111101000011101
0000011011101100
1111101001100101
1111101000101001
1111100111001011
0000010000110100
0000011101100000
0000010111010011
0000000010010001
0000011100111011
1111111100010000
0000010101100010
1111110011100111
1111111111010010
0000010001001110
1111100011000011
1111110101100000
1111111101000010
1111100010101001
1111110111111010
1111101011110001
0000000111011000
1111110010110000
0000000001000010
1111110111001001
1111101101100000
1111101010110001
1111100100000001
1111100110011111
1111100111111000
1111110011111011
