1111100011111100
1111111010111011
0000000111010110
1111101011011111
1111110010111101
1111101111000011
1111111111000010
0000001010010110
1111110110100010
0000000000011110
0000010000100000
0000010111010101
0000000100100000
0000010000111111
0000100001010101
1111110001001101
1111100101111000
0000001000001001
0000010001100010
1111110100111010
1111100100010001
1111110110100110
1111100110011100
1111110111000101
0000000100100001
1111111111011010
1111101110010011
0000000100011100
1111111010011001
1111110001011111
0000001011100011
0000001110000111
0000010001101001
1111011111101111
1111110010100100
0000011100000100
1111100001101011
0000011110101101
0000010000111101
1111100100111011
0000011010000001
0000011101000111
1111110111000011
1111111100000010
0000010110110000
1111100100101101
1111111110111011
0000000010010101
0000001000010011
0000011101110101
1111111010110101
1111101001011011
1111110010100110
0000000011100010
0000001110001100
0000010011111101
1111100000110111
0000010010101011
1111101100001000
1111101111110111
1111110000100101
0000000001101001
0000000100000001
1111100101011110
0000010111011011
0000001100110110
0000011011110101
1111111101011010
0000010000011000
1111011111110011
0000001010110010
1111111001111001
0000010101100010
0000001000010111
0000001100100000
0000010110110011
0000001010010001
1111100011100001
0000000110110110
0000001110000001
1111111001011001
1111100101000000
1111100011011011
0000001101000100
0000011000101010
1111101111100110
0000000010101100
0000010010100011
0000100000000111
1111110000001010
1111011111100101
1111110101010010
0000011110000000
0000010011010110
0000000000110110
0000001011111100
0000011100010000
1111111011110100
0000011010000100
0000010111110010
0000001110111000
0000001111011011
0000000110111010
0000000000001000
1111110000111011
1111110100100011
1111101010000010
0000000110010100
1111100100101010
1111110001111110
0000010111010010
1111101000000001
1111100010100101
1111111011010000
0000011010111111
1111101011001010
1111100010101111
0000100000001011
1111100111101011
0000000110000110
0000001111110101
0000001001010101
0000011100001111
1111100100001000
0000010010111001
1111100001000011
1111111010010110
0000000101110111
1111100110110100
0000000101101100
0000000000101000
1111100001001101
0000000110010100
1111110111111110
1111110100011100
0000000011001001
1111011110111111
1111111001001101
1111111111110001
1111100000001000
0000000110011101
0000010010110000
1111100100101000
1111110101011011
1111111101010000
0000001111000010
0000010000100011
1111111010100111
1111101100010100
0000000110010000
0000011000001010
0000000111000110
0000001101111111
1111101110101001
0000011111100011
1111100010100011
0000011001111100
0000001100111110
1111100011101010
0000010101101101
0000001110001010
0000011000101011
1111111100011001
1111110011101101
1111111110011111
1111100101101110
0000010110000011
0000000000100110
0000011100010101
1111101111001001
1111111011101100
1111100010001100
1111101000011000
0000010110110000
1111110111101010
0000011111001010
1111110110000010
0000000000001001
1111110000101000
1111111001001000
1111110110011101
1111100010101101
1111110110000110
0000011100110001
0000000100111010
0000100001000011
0000000000000110
1111110111011110
1111110110101100
0000001110101110
0000010111010011
0000010001101111
1111100110101010
1111011111011011
1111100110110010
0000010010010010
0000001100111011
1111111101111010
1111100000110110
1111101001100100
0000001011011000
1111110000001100
1111111111101110
1111100001101000
0000010100001011
1111101001000011
1111111100111011
1111100010001110
0000001000111001
0000010011100101
0000100000010110
0000011001110010
0000010010111111
1111111110100110
0000000001000000
0000010111010000
1111101111011011
1111101000110011
0000010000101001
1111011111110111
0000001111111011
1111101100010000
1111100010011110
0000001001110110
1111100010110000
1111111001100110
1111111010110000
1111111001000011
0000010001000011
0000010101000000
0000000011010011
1111111101100001
0000000101001010
1111110110100110
0000010011100101
0000010011010001
1111101110111011
1111110000000011
0000001010010101
0000001010101001
0000011110100100
1111101100010000
1111110101111010
1111100010011101
0000001010011000
0000010101100110
0000000100010101
0000000111111001
1111100101111110
1111110010011101
1111100011101111
0000011101101101
0000001110110010
1111100001011000
1111100000011110
1111111101101010
1111101010000101
0000001101000110
0000001000001001
0000000111000110
1111111011011110
0000010001111001
0000001110110111
0000001000001010
0000011001001101
0000001011010100
0000010110001001
1111111111011011
0000001101110010
1111111110101110
0000011001001010
1111100001111100
1111101110001010
1111101101100110
0000001101001001
0000000010110011
1111111111111101
1111110110100011
1111111110001110
0000001010001101
0000001001100100
1111100100100111
0000001010110011
0000011001101101
0000001101011000
1111110000111011
0000010111100000
0000010100001100
