0000001011111001
0000001101100001
1111100110011110
0000011101001111
1111101100111100
0000001010010111
1111111100110110
0000011011111010
1111100100110110
0000010010011110
1111110001010100
0000000011001001
1111110001000011
0000001110111010
0000001101100000
1111101101000011
1111111111011010
0000011111101101
0000001111101000
0000011100111101
1111111101011101
1111100011110010
1111101100101000
1111111001101100
1111101101110100
1111110011111001
1111111000001110
1111110110011100
1111101110011101
1111101111011101
1111101111101000
1111101110001100
1111011111001010
1111110010000110
0000100001001011
0000000101100101
1111100011001000
1111110111110110
0000010000000000
0000010011001111
0000000100101001
1111100100101110
1111100001100001
1111101001000111
1111101111011000
1111111111101011
0000011110010110
0000010001001100
0000000111101011
0000011110111111
0000000100001110
0000010011100111
1111111100110010
0000011111010111
0000011010101111
1111100111110001
1111100101001100
0000001110000101
1111100011011011
0000010011101011
0000000111000101
1111100100000111
1111100111101110
0000010100101101
1111100011011000
0000001000100101
1111101110011011
1111100111100001
0000000101010101
0000011101000000
0000000010110000
0000001110000000
1111111101000011
1111111011011110
0000011010000010
0000011100101111
1111101001000001
0000011101000000
1111111110101100
0000000001011111
0000001000010101
1111101111111011
1111111111011011
0000000110101011
0000010010100001
1111100001111000
1111111001110000
0000000101100101
0000010000100111
0000010001110110
0000001001110011
0000001010011000
1111100001101110
1111100011011010
0000011111101000
0000000101011010
0000011101011011
0000010011101100
1111111001101111
0000001011011100
0000010110100110
1111110101111101
1111101010100110
0000010000000110
0000010100100100
1111100011101010
1111110000100111
1111011110111100
1111100100001101
0000011110111011
0000010011110011
0000000100100110
0000100000100101
0000010101000101
1111101011110000
1111111110011010
1111110010010101
0000011010011011
0000001110100011
0000011000010111
1111110111010101
0000011010001110
1111110011101000
1111101111101110
0000010000100110
0000001100010000
0000011001010101
0000010101100000
1111111011100001
0000001001001100
0000000010101101
0000001001100110
1111111001000000
1111100010110110
1111110011011101
1111101110010111
1111100010101001
1111100111001111
0000000111101101
1111101101100010
0000010100110011
0000001100100100
0000001010000001
0000000110111100
1111110000101111
0000011011000110
0000001010010100
1111100001001000
0000010010111100
0000000110011101
0000001010110010
0000010110111111
0000001111101101
0000001001100000
1111110110011100
0000001101000111
1111100100010111
0000011110101010
1111100010100100
1111101111010001
0000000101001101
1111110110111011
0000001100110011
0000100000000010
1111101110001000
1111101110000100
1111111101110011
0000000011011100
0000001100010101
1111110101001011
0000000000100111
0000001001001111
0000011111111000
0000001101001001
1111101010011111
0000010000111001
0000001101011001
1111100111101101
1111101001001010
1111101010000110
0000011011100110
0000000010011000
0000000001110110
1111100001011011
0000011001010000
0000000100111111
1111101000101001
0000000011010010
1111110101110111
1111100011101111
0000000011110101
1111101001010100
0000011100010110
1111011111001011
0000001110001101
0000011101111111
0000001100000110
0000000000110110
0000000001010000
0000001000111010
0000010100001110
1111101101010100
0000001000000110
0000001001010111
0000011000001001
0000001111011101
1111110011101000
1111101010111001
0000000101000100
1111101011010011
0000011110111100
1111110111011010
0000000111011010
0000001101101101
1111111111111010
0000010011001011
0000001001111010
1111110001101101
0000010100001010
0000001000100110
1111111000010110
0000010110100100
0000001110111001
0000011001101111
0000000100111000
0000001001000111
1111101101001000
0000011110111010
0000000000011011
0000010000000101
0000010101001100
1111110001010110
0000000011001111
1111110011110110
1111011111011101
1111101001111111
1111110100101001
0000010111110100
1111110111011101
1111110100001001
0000001110010010
1111100000010010
0000010100110001
0000010111110011
0000001001001101
0000011010010011
1111110111011010
1111100001101001
0000010000110010
0000011001011000
0000000001001111
1111110010001010
0000010010001000
0000010001100111
0000000010101111
0000001011011000
0000000100100101
0000011110001110
1111101010111100
0000010111001111
0000011001111001
0000001110101001
0000011000010001
0000001110001111
1111101110100100
1111100010100000
1111100110100111
0000001010100110
1111100111001101
1111111101111001
0000010100011011
1111100000101000
1111101010100101
0000001101110101
0000001111110010
1111110000011010
1111111001100101
0000001011101111
0000001100011110
1111111001010001
0000000010010011
1111101100001010
0000000100000111
0000001100011101
1111100000010101
0000010111110100
1111111010111001
1111100111000001
