0000001100011110
1111101101110011
0000000100001100
0000001001000100
1111100101001101
1111110001000110
1111110011001110
0000011001000010
1111110110111111
1111111101001010
1111101101101100
0000011111101001
1111110000110101
0000000111001100
1111111110100111
0000010101100110
1111100000100011
1111111001100000
1111110101001110
1111110010011001
0000000110011111
1111011110100101
1111111010110000
0000000011010110
1111100011000110
1111101001001100
0000000111000011
1111111101100100
0000000111111101
1111110000000101
0000001110101100
1111100101100111
0000010110000111
0000000011111000
1111110010101000
1111110011101100
1111011110100111
1111111100101011
1111101110011100
0000011001011000
0000001111010101
0000000000010001
1111111010001010
0000011111011101
1111111001100100
0000010000110110
1111100001001100
1111110000001010
0000011001100111
0000010111101000
0000001011111011
1111100000110010
1111101100011110
0000011111101111
1111110011010110
1111110100100111
0000000010001000
0000000000101110
1111101111010010
0000001100011011
0000010101011000
0000011000111010
1111111000010101
0000010110111111
1111101010001010
0000010111000111
0000000010011010
0000001110000000
0000001101110111
0000010111100001
0000011100101111
1111111010101101
1111110001010010
1111100101000100
1111100111000110
1111101011110000
0000001000111001
0000001101100100
1111110000010100
0000000100100111
1111100111001100
0000001100001101
1111011110110001
1111100110011000
0000010101010111
0000010011110111
1111011111010000
0000000010100011
1111111100100011
0000000010010110
0000000011000001
0000001111101111
1111111111101110
0000011010010000
1111011111101011
0000100001011010
0000011111001011
1111101010101000
1111110010010000
1111100101110011
0000011010110100
1111101001100100
0000000010010010
0000100000000011
0000001000001011
0000001011101111
1111100011000000
0000011111000111
0000010000111011
1111100111010101
0000000000100011
1111110110110011
1111111001000011
0000010100010001
0000011110100011
0000011101001000
1111101010001010
1111111011100100
1111101000111110
0000010101010011
1111100011001110
0000000110001000
1111100100100011
1111100100000010
1111111000000000
0000000100100010
0000011010110011
0000010110110111
0000010011000010
1111011110110010
0000010101111010
1111111100001100
0000001011000010
0000001111000111
1111110101100000
0000000101010001
1111111111101000
0000010010001001
1111011111011011
1111101100010010
1111111111110000
0000001101101111
0000100000100010
0000010001000011
1111101100101010
1111110101010101
1111111101011001
0000001101101101
1111110111100011
1111101101101110
0000011000100010
1111100111111010
0000000000010111
1111100011011011
1111101110000100
1111111000010001
0000010100000100
1111110000000000
0000001011101111
1111100000101101
0000011101000101
0000000000011010
1111110110000101
1111111000001000
0000001111100110
1111101011100110
1111111110111111
0000010000101001
1111101000101001
0000010011100000
0000001101011010
1111101000100110
1111111011110010
0000000001111101
0000010001011011
0000010100110000
0000100000010010
0000000111001000
1111111111111001
1111100011111011
0000010011111111
1111110111011100
0000010010100010
0000001011100000
1111110001100111
1111111001000110
0000010011001010
1111111001011101
1111111001001010
1111101110110011
0000001100001101
1111100100001001
0000010110110111
0000001111011011
1111100001010100
1111111110000010
1111110001110001
0000010101001111
1111110000011110
1111101010011101
0000001101111110
0000010010010100
1111100010110100
0000001011000111
0000100000000111
1111111101000110
0000000011100010
1111111100001111
1111110001101001
0000010100011001
1111110011100001
0000011110111110
0000011100010011
0000010101101010
1111100100111010
1111110011100011
0000000110000011
1111110001011101
1111101110111101
0000000110011000
0000000110000010
1111110000001000
0000011011110000
1111101001000111
0000011111000100
1111101011110010
1111101111001010
1111111100011010
1111100110110001
0000001011001011
1111011111011011
1111110111110010
0000010000011001
1111110001100000
1111111111011001
1111111000110101
0000011111000101
1111110110111100
0000011011110100
0000001000110000
1111110100100000
1111111111100000
1111111110101001
1111011111011111
0000010100001010
0000000011011011
1111111100100011
0000100000111101
0000011011011100
1111111000001111
1111110011011110
0000000001010001
0000011000110110
0000011010001111
1111101101110000
0000011000001000
0000010010101000
0000001101001100
1111101001100010
0000010010001110
0000011000011110
0000001100101101
1111110111100100
1111111101100101
0000000011101001
0000001101010001
1111110100100100
0000001011110000
1111100011011001
0000001000111001
1111111100101111
0000010001000011
0000000000000111
0000011010110000
0000010011010011
1111111101101001
0000000001111000
1111011111011011
1111101011110110
0000000010110110
1111111100101101
1111111010011110
1111100010100010
0000100001011011
1111101011001000
0000000000011001
0000011010100111
0000011110010110
