1111110000011101
0000000101001110
1111111101111111
1111100110110111
0000000110110100
0000001111011001
1111110000110110
0000000001001100
1111100110001001
0000001101000010
1111110111110001
1111100011101110
0000100000011001
1111110101010110
0000011101101000
1111101100101010
0000011010011010
1111100111110010
1111110111101110
1111011111110111
0000001101011010
0000001111000010
0000000001000010
1111110101110101
0000011011011100
1111100010010101
1111101110100001
1111111011001001
1111111001111100
1111101111101001
0000011101101111
1111100100110101
0000011011100100
0000011111101010
1111110111101010
1111111110101000
1111110111100000
1111110100111010
1111111000110011
1111101100111011
1111100001011000
1111110111100000
0000001110011110
0000011001110001
0000000010011111
0000011000101010
1111111000010110
1111110010110001
1111110101000110
1111101001101011
0000001110001001
1111011111101000
1111101011001111
0000001010101111
1111100100010010
1111101011010010
1111111001110101
1111101101101011
1111110001010011
0000000110000110
1111110100101111
0000010100010110
0000010011010100
1111101010011101
0000000111001000
1111111000011111
1111100001001011
0000010001100111
0000010000111111
0000011100001010
0000000010000001
0000011110000110
1111101001011001
1111111110110001
0000100000101100
1111101110100001
0000011101000101
1111110110101100
1111100100111000
1111110101000001
1111110111111011
0000001110101101
1111101110000000
1111110011011000
1111110111010010
0000001010110000
0000001010110110
1111011111011101
0000010101010011
0000011101101010
1111100100010110
0000011001101000
1111110000101000
1111111001011111
1111100100110010
1111101000011110
1111110101110101
1111011111000000
0000001011100010
1111101000110011
1111110001000111
1111101101100101
0000000100111000
0000000001100011
0000011100100101
1111101100101001
1111100100111011
1111011111011111
1111100111011100
0000010100101100
0000100001001100
0000000011001010
0000000100010101
0000011001000011
0000011101110010
1111101110101000
0000001111011101
1111011111101001
0000011010010000
0000011010010101
0000011101010011
0000011000010100
1111101001011100
1111101110111110
0000011100011010
0000001001011000
0000001100110100
1111100001010010
0000011011100011
1111110000110101
0000011100000110
0000001010011001
1111101100011110
1111100001101011
1111100110011010
1111100011011100
0000010100011010
0000010111111110
0000011110101101
0000000111001011
1111110100110011
0000000000000100
1111110101100000
0000000000110111
1111101010100101
0000011100010111
1111100110110011
1111100001100011
0000000010111111
1111111000000001
1111111001001101
0000010100110110
1111101100110111
1111100110101110
0000010100000011
0000011000101000
1111100110010001
0000010100000001
1111100001000001
1111110011011101
1111100000100010
1111110110111011
0000011011010111
1111110010000001
0000000010001100
0000001111011001
0000011011111101
1111111101100011
1111100010100001
0000010100101100
1111110100010111
1111111110100100
1111111001010100
0000001101100001
1111110110111010
1111110111010111
0000011011100101
0000011110110011
0000001101010110
1111110100110101
0000000101010011
1111100001001100
0000100000100001
0000011010000110
0000010001001101
1111110101010111
1111101110101000
1111100110010110
1111101001001011
0000001100111101
0000010000111110
1111101101101000
1111111000101001
1111111010011111
0000000011000011
1111110110010000
1111110001000001
1111110001101100
1111100001101110
0000010001100000
1111101001001010
0000011110110011
0000010001001111
0000010000101010
1111101011001010
0000001010100001
0000011011101110
0000011000100000
1111100001010111
1111110110111010
0000010101001100
1111101100011010
1111101011000001
1111111000110100
0000001000111101
0000000001001011
1111111110001000
1111110000011001
0000010100010011
0000000110000100
0000010010010111
1111100001011001
0000011111010000
1111110100010110
0000001011110001
0000011110001011
1111100110111110
1111101011010101
1111111110110110
0000000001000000
0000011010000011
0000001101110111
1111101101000011
0000011100000000
1111110000111010
1111110001010110
1111101010111111
1111111110001110
1111101011101100
0000000111010001
1111101000000010
1111110101111100
1111110101110010
1111101111011010
1111011111001001
0000001011001101
1111111000001011
1111101000011101
1111101111001001
1111110110101001
0000011010010111
0000000110101011
0000000001100110
1111111011000101
0000001100101110
1111101100001100
1111110111000110
1111101010001011
0000100000110010
0000010111010011
1111110100001001
1111101010110100
0000001000000111
1111110110100000
0000011000111000
1111111110001010
1111110111100111
0000001001001101
1111110010100110
0000010011001000
1111100010111101
0000001101101100
0000000111100011
0000000001101111
0000001001100001
1111111110011001
1111101011100011
0000010100010001
1111100110110111
0000001010001111
1111101101000110
0000001101101001
0000000111011100
0000001000000011
0000000110001110
1111110100000100
1111110011100000
1111110001101010
