0000000000110001
0000100100010100
1111010000001011
0000100111010101
0000000000001101
0000000000010011
0000111111101100
1111010000010101
1111000000001001
1111100010011000
0000100001100001
0000000011011101
0000000011100100
0000011011000011
1111010101101110
0000001110101101
0000100011011110
0000111000010111
0000011110100110
0000110111110110
1111101001011001
0000010010000100
0000101100100100
0000110101111001
0000110110101100
0000110101001011
1111011011100011
1111000011011101
0000000010000110
1111111101100101
0000100001110000
0000101100101100
0000000101100010
1111111110011101
0000100100100011
0000100011100000
1111000111000100
0000110110101000
1111001001100100
1111100100101011
0000001101111001
0000101101010010
1111010000010010
1111101111000111
1111100111001000
0000111111110011
0000001111110101
1111010111011110
1111110110101111
1111100000100010
1111111011001000
1111100010010111
0000110010110100
0000110010111001
1111100111101011
1111111000001010
1111001000001010
0000101101001100
1111010000100000
1111110110100011
0000111111011100
1111101000111101
1111110010101011
0000101101100010
