1111011111011100
0000101001000001
1111010011011000
1111100001110011
0000111110110101
1111011011011101
1111010111100001
1111100100110101
1111110001100011
1111011000111110
1111110001100100
0000111010100010
1111010111000100
1111011101000101
0000100110000111
0000010111110110
1111000110000111
0000001110001110
0000111110110110
0000000101101110
1111010101111011
1111011010000010
0000111101110001
1111100000011000
1111110111001110
1111010010101101
0000110001100111
1111010110011101
0000000110110000
0000000110101100
0000011101110011
1111111101001101
1111111111010110
0000111011111101
1111110111001111
1111100011001110
1111011010100000
1111110000010111
0000110110000100
0000110000111111
1111100000000001
0000010100010111
0000110111100101
1111011000101111
0000011101101011
1111001010110001
1111101110111000
1111000110011010
0000010001111001
1111110010011100
0000011100110111
0000011100010100
1111011100010111
0000101100010110
1111001001011000
0000001001000101
1111100100011111
0000111110110000
1111101110001011
1111100101000100
1111010110101000
0000010011000001
1111110011101110
1111010000110111
