0000010001111011
0000001100011100
1111111110001011
1111000110001011
0000101010101000
0000100101110001
1111000011100101
1111000110011000
1111101111011011
1111000010110001
0000110101010011
0000011101010110
0000000100101110
1111101110111001
1111000101100111
0000111111000111
0000000111100001
0000111001000001
0000011000101010
1111011110000111
1111111000011110
0000100101000101
0000111000101100
0000101110100100
0000011001110100
1111001100001000
0000101111000110
0000110101000001
0000100110111000
0000111011100100
0000111000101001
1111010110011111
0000101001010101
0000010000001000
1111000001101101
0000010001010101
1111001001100000
1111110000111101
0000010000011001
0000010001111111
1111001011101000
1111101011011011
1111001010010100
0000100000100110
0000101001011111
0000010010101011
1111110010101001
0000101101111011
1111100110000100
0000011010110101
1111100011100011
1111000011111010
1111100000000000
0000110001111100
0000110111101100
0000110010100100
1111011101000001
0000110100010000
1111111000011000
1111110110101011
0000110111001111
0000001001010110
1111100101001101
1111011100001011
