0000100011100000
1111101110111010
0000101010110001
1111000111001001
0000101100011011
1111101000101101
0000111111111011
0000011110011011
1111000000000110
0000110011001100
0000101010100100
0000001000001101
0000101011001101
0000111000111001
1111100000010001
0000010100110000
0000100011001111
0000100101111110
0000000110110110
0000011100001011
1111101000001100
0000010111111001
0000011110010000
0000000010011111
1111010110100100
0000110110110111
0000110011010010
1111100011001111
1111101110110000
0000111111001000
1111101010101000
1111001001100100
0000100000110010
1111000101111010
0000100111110101
0000011001010101
1111101000010010
0000111111010000
1111001110001101
1111000011101100
1111011000010011
0000111000001011
0000100110010110
0000000111100001
0000110110011100
1111100110011010
1111001101001000
0000000101011101
1111100011110110
0000110100000110
0000000010011101
0000010001000010
0000001011001001
1111000110010001
1111110001101011
0000011011110100
1111100101000011
0000000001010011
0000000001011101
1111110111101010
1111100000111110
0000001011111011
0000111101100101
0000010000000010
