0000111010100010
1111010010111100
0000111000100000
0000101011000000
0000100101011001
0000101111000011
0000100101011001
1111010110000110
1111111010011101
0000000111000100
1111100111111000
1111111011110010
0000110101100100
1111111111000001
1111101111010101
1111110000111000
0000010000110111
0000011100111000
1111001111101101
0000110001010001
1111000101110101
1111100000001110
1111100110001111
0000000110101010
0000100000010100
1111011100111111
1111100100011000
0000011010000000
0000000111101100
1111100110101001
0000010101010011
0000100101110101
1111111001111011
0000101110001011
0000101100110111
0000110011000111
1111000001010011
1111010001110100
0000001010000101
1111110111110001
1111110100001010
1111101100010101
1111010110111010
1111011101011101
1111101000101010
1111101110100100
1111001111110000
0000110011110100
0000111001010001
0000000100111000
1111010000100001
1111011111100011
0000011100011111
1111111010000110
1111000101101000
1111000010110011
0000010010011111
0000001001000011
0000011101110111
1111111000111111
0000010111101010
0000111010100001
1111101111110100
0000011101100001
