1111011011010010
1111010001001010
0000000000011110
1111110010110110
0000110000010111
1111111011110011
1111111101101011
1111101010111110
0000101110110100
0000001011110110
1111010110011101
0000001101101100
1111010111001100
1111110110000010
1111001000101100
0000100111010010
1111001100101001
1111110001111000
0000111100111001
0000000000111100
1111010011101011
1111001000010111
1111011000010110
0000110011100011
1111100000001000
0000110111100101
0000011101010000
0000100110000101
1111100100100011
1111001111110011
1111110010010110
1111011011001101
0000000010011010
1111001011001000
1111011011101010
0000011001100110
1111111110011010
1111010010101100
1111110000001000
0000110011110101
1111110011110000
0000100001010101
1111111111100001
0000010100100101
0000100011100110
1111000010000010
0000101001001101
0000001011001000
0000111100001101
0000100110000000
1111001010000011
0000111101101010
1111000010101100
0000101001101011
1111110111010000
1111001000011001
1111000101011101
0000011000101010
0000111011011101
0000000110000000
0000110101010010
1111100100111011
1111010100101011
0000010110001110
