0001001000000010
0000011011100010
1111001111101001
1110100111101010
1111111110001010
0000110111011100
1111010101101001
1111000110110111
0000100010111101
0001000000110010
1110100100111111
0000001100010011
0000101100111101
1111111101011100
0000101101110010
0000100100011100
1110101111010110
0000001100011110
0000110010111101
1111000111000001
0000010011111100
1110101001110101
0001000011111101
1111101101111101
1111110001011111
1111000010101110
1111101100111110
0001001011100001
1111110011111011
1111111011000001
0000100110001001
0001001011010010
