1110111101000101
0000100011101001
1111100000010010
0000001001100010
0000011001101001
1111010000100111
0001011111110000
0000100011010010
0000111010000010
1110111111000100
1111011011101001
0000000110101011
0000000100110000
1110111111110001
1111101110011000
1111000001110011
0000001010000110
0001010000010001
1111000111101001
0000101000010011
1110111110001111
0000010000101000
0000010010010010
0001001011110100
1110111011111000
1111101111101001
0000010111100111
1111001101011010
0000100010111101
0000101100010110
1111100000110010
1111010100111011
