1111101101000100
1111110000001001
1111010011100100
11001100101
1111110110111000
1111101100010011
1111110100001010
11100111000
1001101111
110000101
1111101111111010
10111111111
1111100011100100
1111010001111101
1111101101100100
110110110
1111010000000101
100110001111
1111110110010011
10111000111
1111101110111111
1011010000
1111011010001000
100011000100
100000010010
1111100010001011
1111111000110011
1111100101100011
100100001
111000110110
10010100000
100111100111
1010101010
101000101000
110100100000
110000011010
1011110000
110110111110
1111011010110001
1111101010001101
1111111111001110
11001100
11100100010
1111110101001000
11100001011
11100110101
100100001101
100110101001
101100100001
1111110111101110
100011111001
110011000011
1111111111100110
1111111010010001
1111
1111110110111101
1111101010111100
1111111001101100
1001001010
101001110010
1111010001001001
110010100010
1111100110110111
1111110000111010
1111101100010100
1010000011
1111011100000000
11001010101
11010010101
1111111011111101
1111101110110101
100100010000
11110010011
110110101111
110011111
1111111110011000
110100100
1111110010111110
1111100110011111
1111111000000111
1111111101101010
11010010111
1011010000
101000000011
101010101110
1111101110001010
110011011110
1111101100111000
100001100111
1111100010111001
1111011101011100
1111111011110110
1101100010
1010110
1111110001010001
11111010100
11110101111
100110111001
1111101111
1111110001000101
101110001100
100010101001
111110101
1111100000010101
110010001
1111101011001100
111000001110
1111111000010011
10010011111
100101111
1111110111001111
1100101110
11010110000
1100111001
1111110101001111
11111010001
100001100001
1111101001011101
1111101101001011
10110010010
11011100010
101000011100
1010000110
110111001001
100111100101
111001100011
11110110110
110000110000
11010110
1111100010101011
101001001
1111010011000000
100111000100
10010110011
1111100100110000
1111100011
11000000101
101110111000
1111101000010000
1111111100110110
11001000101
10110011001
1111101110100111
10001011010
10100
10110010000
1111010111100010
1111110010000100
110110100110
1100011
1111100011001110
1111111101011110
1111101111110110
1110100000
1111100110111110
1111110101111111
1111100111101100
1111100101000011
101001111000
1111010111010010
0
1111111100010001
1010110011
101011100001
110110011100
1111110010111110
10000110110
1100110000
11110100011
