1111000000001010
1111111000111100
1111101011101011
1111100100010001
1110001001011000
1110111010111000
1101110010100101
1110100001010101
1111010010111110
1110111001000101
1111000100101010
1110111011110011
1101010010
1111011110001100
1100101100010000
1100000001001010
1110100111101001
1101001110010000
1010110100010101
1000000000000000
1000000000000000
11001111000101
11010001
11001110110
1111010010011000
1111010011001010
11000010111
1110110101101010
1100001010000
1100010111001
1011101101000111
1110110010110010
1111100010110000
1111001011011011
1110011100101000
1011101011100100
1110001011111111
1110101100001101
1110101001110110
101101101110
100010001110000
10100011000111
101101110000011
11110101111011
111111111111111
111100010000111
1110011101011
1100101000010000
1100010101000101
1100111010001111
1001011001000101
1110111010000011
10000110011111
111111111100111
10101001010101
111100100101011
11111000110100
100101100111000
1111000101110
11010000101011
1110110011000
1110000101101110
1101010000001110
1100001111101101
1011
11100100100100
11010110011111
1010011111111
101001011000
1110101000100100
1110111100110111
1101001001110111
1111011001001101
1001010010111
1110100101010000
1010101011101000
1101101001111011
1011010111010
1000101001010
1101011011100011
1101000100101101
1110101100011001
1111110010100101
1100110011101011
1011101010010000
1110000011000100
10010001100010
1011110011110
1110110111101100
1111011101011101
1101101010101110
10100110100
1011001000101011
1100010110010000
1100011110010100
1100100111000000
1111101001101100
1011110110100101
1011110001000011
1111100111011
11011111111
11101100001101
110011011000011
1000000000000000
11110011000000
1101010000001000
1111000001101010
1101110010111000
1100010011011101
1110010001011
1111000010100100
1010111011110101
1111000101101110
100010110000100
100110101011101
10011011100111
1000000000000000
10001011101111
1110100001110111
10110010001101
1101111101000
1111011011011001
1110110001011101
1101000000111101
1100101110011001
100100011000
11110011001001
110000101000
1110010100011100
1011001111011010
111110110011
1011010101010000
1111111011000000
1100001000000111
1101111000100001
1100100011011011
1111010111110110
1101011010010
101011010111101
110011100100
1110001100101110
1110001101111000
1111101001001111
100011011100
10000000111101
100001100100100
1101011110
100011100011
10000111001000
1110010101110
101101101101101
1111000100010000
1101001010100000
1100011000000100
11111011010000
1111110101110000
1111111101
1110111000010000
110001011000001
111011100011110
111111111111111
111111111111111
101011111110010
110000100000101
10000101110100
10010010101100
10001111111101
10110000110100
10011010101
