10001000000000
10011101001010
10101000100000
1110011010011
100001110011010
11000000100100
1111001010001011
1000000000000000
1010111110110111
1000010011001
1111101001100
1101101101110
10001011001101
10011000011000
10111001011101
10110011100000
1011000000101
110000011010
1011110110110110
1000101011100101
1101111000100100
1101010111010
1110001011011111
1101010100101100
10110001101101
100010010010
10100000111100
11110011010001
1100011111101
10010100
1000000000000000
1000000000000000
1110100110011111
1101101110010100
1110010010000100
1101001100101010
1011000010011011
10011111001101
1000101000101
10010110101000
11111001011001
10100010101010
111111111111111
1000000000000000
1000000000000000
1100001101011111
1110010001011110
11100100010001
110001000011101
11000101111111
10001100001011
1111101011110
10011010110111
111111111111111
100110100001011
111111111111111
1000000000000000
1000000000000000
1110110001110010
111111111111111
1111010111000
1100110100011011
1100011000111010
1100011100110011
1100000100011
100100000111011
111111111111111
10100011011010
1000000000000000
1000000000000000
1100100010111101
100111010000111
111001101010001
1111111111011111
1011110110111110
1000010110001011
11100011001
10111100001110
10111010110111
111111111111111
10100010001000
1011100100110111
1100100011010001
1001000010100
100010011100001
1111110000100100
10111000011001
1000000000000000
1111010111100101
11101011101110
10101000001100
10101111101010
101101000101001
11111110011100
111011011101111
10111010101011
1101011001010
1111011100011111
10100000111001
1011011110111010
1000000000000000
1100101100000011
11010000001
1110111000110
11010011101100
1100000111011
1111100000101010
1111010001000111
10001011000101
101000010001
1110000010100100
11110010011101
1000000000000000
1000100001000100
1101011100011011
11011111010100
10101011010111
11101010101
1111010100111110
1100000110011010
1110010100101110
1000100011110
10111100010110
1110101110100101
1011001010000100
1000000000000000
1111000111101101
100011111001
100111101010000
100101000001001
110001
11111101110100
11110011101001
1111000111110111
1110010111001110
1111000110100111
1011001111001101
1011000001101011
1100000110100010
1101111010110111
1001111011010
101100111101101
11100011101000
110010101101
11011111101001
11000111011000
100000010000111
10011111110101
1111011000
11000010100
1001110101000110
1111001000000010
101010001010001
100100001011001
11011110110100
11000111001000
1001010011110
10110100100011
1101111101001101
100001101110000
1100000001001011
1101011010110101
1110001000110011
1110101100001100
110011111111
110011010000010
101011111110011
10111101001000
1100110010100
