1110010011110000
1110101100110110
1110000000100011
1110011000100111
1110101011000111
1110010010000111
1101100110101001
1110101101100011
1111001010110101
10001110110100
1110101100011101
1110010000001001
1110001111010010
1110111010110101
1110101010100110
1100111000110001
1110100111111010
111100110110
1110101110101011
1111110001010110
1101010110101011
11011101010
1010010001010
11111000010101
11011011000
1100110110001101
1110110110001110
1110101010010110
1100011010010100
1101100110101000
1111110000010010
1010111011001111
1010011010000100
1011100110011100
1111101010110111
1111000100111100
1001111011011
1101111100100001
1000010000011001
1111110011010011
1011010010111110
1110010000000101
1100111101010
1101000110111011
1100010010001101
10000011110111
10001011000100
1110111000001101
11100
101011101001101
1100000110001001
1000000000000000
1101010010101
1101010010011011
1101011110000000
1111000001100110
1010110010101
111001111101
1101110111101001
1100110111100011
1000101101101101
1011100101111110
110101101110100
100100000011101
1110101000101111
1111101110011101
1011011011001100
110100110100010
100100000010111
10100110111100
1111011001011010
1000001001100011
1010010110100010
1110011011001001
100110001000000
111111111111111
111111111111111
1111101011010111
1110100100100001
100101110111101
111111111111111
101100001000000
11011010101011
1111011111001111
1010100111110010
1110100100101101
110011110001111
111111111111111
110101010000010
11001010010110
1001110100100
1110010010001011
111111111111111
111111111111111
1110010100101000
1100110000110001
1111001110001100
100110011011
10101101101110
10010100110111
100100011100010
1010000100100
1010111011111110
100011101110000
1110100100001110
110010101000010
100001100010
1011110100101001
1110000000101110
11110110000011
111111111111111
111111111111111
1101111000001010
1111001100101100
11110000
1010101000010100
110010011110111
1000100011101
1101101110010101
1101101111001011
1011001011
1010011111001
111111111111111
101010001010101
10110001011111
10101000100011
1010010011100011
1100010101000100
1111010101111
1100100000100
1110101000011010
1110101000101
1111111101001100
1001101110001
11111011111001
11010101101
1100110101
1010001001
1110010001011110
1011001011100100
1101110111101110
111111111111111
1111000011000101
1110001001101011
1011110111101111
1100010000011001
1011100100000111
10011100100111
11000010100110
11010010111010
1110101111011001
1110000111010100
1000100111110
111110011110000
101010011100100
1110110110011111
1111000110101001
1101101100001110
1111100010100000
1111100101110101
1010000110000010
110111101000000
111110001101
1111000111100110
1110001111111000
10001111110000
10100000010011
1111100111110100
1110100100110110
