1111001100010110
1111000000011010
1110001111001010
1110010110000110
1110111111001101
1000100011111
11010101
100110111000
1101000101000010
11001011100
1110101111001011
1110010010001100
1111001011011111
1110111011000010
1110011000110010
1010110001101
110000000000100
111111111111111
110101101101110
111011101011111
1110111100011
1101100001101001
10001101100101
11101011101101
1011001011110001
1110010111000010
1111000100110010
1110011101110000
1110000010101110
1110000011111
1110101101110001
110010100011
10000011111010
10111010011010
1111000111001
1101111000100100
1001111110000000
1000011000110001
1001100010100101
1110011111000101
1111011000011101
110100010001101
1110111111000010
1101000100101111
1111010111001110
1101110100011101
1111001000111110
100000110101
11101010110111
10111100111001
100111001111
1010011000100
1110010110001010
100010011100111
100110100010000
101011101101
110101010111
1111000110011000
111101101
10010100010111
1100000010101101
1100001100010111
1010010001000
1100111101010101
1101011011011111
1100110000000101
1111110110000011
1100001101111
1011100100111
1100011100111000
1010011010100
1010101101101101
1000101111
1011010100010
1001011101101100
1010011111010011
1011100111110100
11010100101
1111000100011100
10000100010111
100010011011000
100101000
1111011001100000
10001001001101
1111000010011000
110100011010
11011101100
1000000111001
110000010001001
111111111111111
1110111100010100
1111001110111000
11011110111111
11100100101
1010000010010101
1101010111110011
1100101001101110
1101001001100
1110101111110100
1110100111100100
1101111101010001
100000001100101
100001101000100
1001001000111
1111000100101001
111111111111111
101110010001011
1010001100111010
1001001011000100
1001000010001110
11001011
1001101101000
1111000000101010
110110000011
110110001100111
1100010010100
1111110101110011
1110101110100000
10011010001100
101100011110000
110111011110100
111011100010011
111111111111111
111101110111010
1111110001111010
1101001010010010
1000000101101
100101010000
1011111001000101
1001110111100010
1110011001011010
11010000011011
110111101110110
111111111111111
111111111111111
111111111111111
10110111110001
1111101111010010
10100001111010
100000010111110
10000100010000
1000000000000000
1001111110001110
1110010000011010
11000000100
110001110001
1001010101011
1100010100110010
1101000011111010
1010101110110100
1100110101010
100110101100
1100110110000
1001111111010101
1000000000000000
1100001110010000
1110011101111010
1110100010001111
1000000000000000
1000000000000000
1011000001110100
1011001011010101
1010100001111011
1000000000000000
1011001100000000
1000100010100100
1000000000000000
1100000010010001
1110010001001000
