1111010011101111
1111010101110110
1111111100000100
1100000010110
10000101110111
1111100010100010
1111011100001001
1101111100100101
1100111011101011
1110010011001000
1111110010001100
1110111110001110
1111100000110111
1111011010010011
1111110100001100
10101010011101
110001111011111
11110000011001
11101101000011
1110110010011111
111101010001
1111111110000001
1110110000011
1110111011000111
1011001110011011
1110100110011011
1101011001010000
1100001010000100
1010011101011
110101100
1110100011010000
1110011101000101
1111101111001
1110000000000010
1010000000011
1010100100110010
1110101101100011
1000000000000000
1110100101001100
1001101001011000
1010001111001
1111010010110011
100100101101
1101011010
100010111010101
100111001110100
1111111010100
1111111111110111
1100110010110011
1110000000011
1000000000000000
1110010010110110
1011110001110000
11111010010111
1100111100000
1110000101001111
1001111010011
10001000100000
1000001000110
1101000110101101
1111010110111100
1111010101001000
10010001001000
1101011001111001
1101101101001001
1111100111111011
1100010111010111
1110011010011001
1110010011001011
10001000011001
1101001100011111
1001100111001111
1010000100001100
111001111101
1101101001000000
1100111101110100
1111101110001010
1100010001010
111100101110
110101010011
1010000001111011
1100101100100101
1101100001010001
1000000110101110
1000000000000000
1001110110001111
1111000011100000
1101000010011101
1101011000001110
1111111011111010
10000101001101
1101101011110001
1011001110111
1011101101001011
1101000011001011
1110111110100010
1110100000010011
1100001101110101
1100000000001001
1100010001100111
1110001001110101
10010000101010
11110011100001
101111111110010
1100111010111111
110100011011
10111011110
1110111001101011
11110101000011
10011100111010
1000000000000000
1000000000000000
1101000100001100
1101111110110110
100000000111000
110010010101101
111111111111111
1111000000000000
10011100001010
100111111100
1100010100000110
10111000010010
101010101010110
1000110000
1100000001100011
1111001110001010
1111001111010110
10100010011001
1110111101001111
10010001001001
111101011010111
11010101011000
1110011101110110
101101011011000
110000001011101
110110000001001
111111111111111
111010001110100
1110000000101101
1110111101010110
10110100010101
101100001101111
1111111010111001
111000010100
10001011110100
1001010000100010
110000101111100
100111011011011
10010011100011
10110010101000
11001101101101
101011110101001
111001011101100
101001110011001
1110101010110
1110001010001001
1101110000000110
1011010010000111
1000000000000000
1000000000000000
1000100111010010
1110000000000111
1111110111001010
1110011001111101
110110101001100
10101010001110
110010110111
110100101011
1111001011111010
