1100001100
111100010
10110110000
1111010010111100
1101101101110110
100111111000111
1110101011111100
1101100010111
100010101101100
11000001101011
101110000000
1001100100000
1111110111011001
1111101111100000
1111011
1111010010001000
1000111011110
11100110101
100111100110100
1111011110100000
1101001001011011
1111100101011110
100000110000000
110001001111101
110010011010111
1111101000101101
1101111110101111
1101111011100000
1111100111110011
1111001111110
110011011
1111010001111101
10111011011001
101001100001111
111111111111111
1111110100011
101010001101001
111111111111111
100000110110101
1011111001111000
1110000001000001
1101100000100010
1101101010000110
1110111101001101
11001011111110
10000010010110
111010001101
1111110100101000
100110011111110
1110101011011001
1000100001111000
1110110101000100
1101100111100001
1101111000110001
1011111111100000
1111110000100101
1101110010011
1101101010111100
1000000000000000
1000000000000000
1000000000000000
1000000000000000
1000000000000000
1000000000000000
1011101100010100
1111111111010100
1100111101101110
111111001010
111010110001
1000100001001
101111110
1111000101011101
101110010101100
1000111011001
1111100101011011
1001100110111100
1000000000000000
1100101100000100
100011101110
1010110010100010
111111111111111
110101111111
10001001001111
1101010111100011
1011110100101001
1110010000011000
1010100001001
10101100111000
1111110111000010
100110010001101
1101000111101010
1110110101000111
1101010101101110
101111101110110
1111101001011000
1111100111101011
1101000010001001
1011001011110000
100001110011
10010110000111
11000111110001
10011111110110
1000010101101
100110011100
1111111101000001
1101001001001111
1110100100100100
1101100010111100
1100110110111011
1101000100101101
1111011000101100
1101011011010111
1101011110010
11101101010110
10111011100110
111001011000111
1111110100110111
101001100010100
1110011100111111
1001101010000
1000000011110
1101111101100110
1001011
11110111011010
10111110000001
10101101000000
11010101
10001111101100
11100110110111
100000011101111
111001111101
110001100000
1110001000010101
10011110101
1110100111010000
1111011111010001
10111001010100
110010010000001
111110110111
1110011001010
10111001100010
1001100010100
100111000001000
1111010010000110
11010000001110
1110010001111001
100111101000
1101110000100000
1110000000000100
1111010001001111
1111011101110
1110010011101010
1110001001001110
1100111101000110
1001100110010
11110010100011
101011000111
1000111000001
110111010010100
111111111111111
111111001111
110010000010100
10110111100000
110101110100101
1110100001000011
101000011
10111111111000
1111111011100
10011011011
