11101101101001
10100101001101
11010100011010
10010011100010
10000100001101
10010010101110
1100011100011
10101101011000
10101101000100
10111000000111
10101010101100
11011100010101
11010111010101
101001011101001
11110111110000
1100100011000
1111100111110
1111111000001001
11011010110111
11001110010110
1111111010100111
11000111110100
1101001000010111
1111010010110001
1111110000111
11100101101110
100110000100010
1100111000110
1110110101101010
1000000100101
101011110001
100100100101
10000101101111
10110100010110
1101010111011000
1011000111110010
1010100100101011
1110001111011111
1101000101011001
11011011111011
10010001010000
100000110111110
10110101100
1110000111101000
1111010010001010
11100000111000
1111100000001100
1011001111101
1101101011011010
1110110010010100
100101010000110
100010110001000
10011000101000
1111110001110000
10111111000110
1111001000111000
101011010111
1111010110000001
101011001110100
1111111011101010
1011001001101101
1111001001101100
1111101101100111
11000110111010
10001110011101
11111101000001
1000000000000000
1110000111001111
1110000111110111
1111000000010100
100011000101110
100011110101010
10111000100111
1111010001001101
1100110110010100
1111000010111011
1011010000110011
1111001010111101
10100011000001
1001101110100000
110110111000101
10010101011000
10000101001001
100000011111111
110011011111011
101111111111110
10101011001111
1110010010001001
1111010100011011
1101101100000110
101100110110
1000001111101
1101111101001101
1100010000011100
1111000110111100
1110101101101
11111011101111
111001010
111011111101001
111010000010111
1101001111001101
10010100010011
111101110000110
10100110000000
1101010011111
1100100101000111
1000000000000000
111101000111
1110011000011
101001000001
1100000001111
11010000100011
1110011100110000
1011110111110010
100011000100010
111111111111111
1101110001111
1111100000001
1111100001000110
1010001000010110
1010001000111110
1000010001000001
1110101010110011
11010001110110
1000000000000000
1000000000000000
1000000000000000
1000000000000000
1101001110101011
1111100010010
10110010110110
1110100100011100
1110001010111100
1110011110001001
1011010000100001
1010000111111011
1101011111100100
1001101110000000
1000100000010110
1000000000000000
1000000000000000
1011010010111110
1001010100111
10110101110011
1100100101010101
110000001
1110100011010001
1100001110
1101100111011010
1101010100011001
1101110100001000
11100111001100
110001110000111
1011001111001001
1111100101110010
11011000100111
10101000110011
10110111001101
100001100010
1011010000111110
1110001001100011
1111010101000110
10101100111110
1111001111010
1110111001011
1101110010000101
1110100110111001
1100011011100
11101000111110
