1101000111111111
1101001010010110
1101001000000010
1101101010001111
1101010110110010
1101100000101000
1110001001011101
1101100111010111
1101000101111101
1101011111110000
1101101011100010
1101011101111100
1101011000100000
1101011010001010
1101100001010011
1000000011100
100000100111
1100110001010
10011110111101
1110000011010101
1111010
1110010101111101
1101101000100111
1101010010011100
1101011100110001
1101010000110111
1100111101111101
1101101110000011
110011110011101
110100000011011
111111111111111
111111111111111
111111111111111
111111111111111
111111111111111
1110100000111000
1111101110001001
1111000111100010
1101101111001011
1100000100101000
1010101000001011
1111111000101011
10110001110001
11011001100100
11000000001111
100100101011101
100101101100
11011100010010
10101010000000
110010000011011
11111010100
1110110100000011
1101001011100100
1000100000011011
1111011010000110
1101011100001
1100100101111011
110001001101
100111011001100
100011111001100
1001001011111
1011110110101010
1010110111111010
1001010111101011
1011010111111
1000101100001101
1010011100100111
1100010011111001
1100000011011101
1001010010100110
1111101111011
11011101111010
10111110011
1101010100010101
1011110001111000
1100000100111110
1011001000000110
1110010110101100
1000000000000000
1110010010001001
10000010011
1011010010001101
11000000000111
111111111111111
110010100011101
100001111110011
1100101001011
1110000000011100
10000100111110
1101101010111
1110100100101001
1100001011110100
1100011001100
10110010110000
1100010010000010
11000011011101
111111111111111
111111111111111
111111111111111
1110110101011001
1101001100001011
1100111000100100
1101011000001
1111111110111100
1101001101110101
101011111111
11011110011100
1100011000010111
100101110101011
111111111111111
110010010100010
111001101111
1101111001110001
1011111111101
1111001110010000
11110000110011
1101101101011011
1100111001001001
1110101010010100
10100011100000
1111001011011100
111111111111111
111111111111111
1111101011111101
10000001110001
1101001111000111
11010110100101
10100001010000
100110011011010
1101110101111111
1101110000100011
10011101000010
11110000011111
111111111111111
111010101111111
1111000111010010
10101110011010
1101010100001011
1100111100000000
1100010100000110
1110010011010000
11000011011010
1101110111111001
1101101101100010
1111011000001111
101001011
1111111101110100
1110110111111010
111000000010111
1110100011000011
1101001101101110
1110100010010000
1011001000101110
10101000010011
11010111101101
1101100101110100
1100111110011111
1101010100100101
1111001001010010
1000000000000000
1000000000000000
1010110101010
1010001000001101
1110111101101100
1100011010110011
1100001000001000
10110110000011
1111011001100000
1101101111111010
