1100101100101101
1101011101101111
1100101010010010
1101101011100110
1100111111000001
1011101100100000
1100001111100101
1111100110100110
11000011101010
1100001011110110
1100011101100010
1100110001001001
1101011000111111
1100111011011100
1100011101000101
1101110000000000
1100011001010110
1111010101001100
101101111110
111111111111111
101010101111010
10000000000011
1101011100010110
1101100111011111
1011111001101000
1110001110110101
1101100110000110
1100101111001101
1110100011001111
11100001010011
111111111111111
111111111111111
111111111111111
1111100101101001
1111100100101001
100010101011110
1110101110000001
1111011100100011
1111010001111001
1100111100000011
1011011111010111
1101011000100110
111100010111
111111111111111
111111111111111
11101000
1110110001000010
1000110000000
1010001111000
1001100100011011
1010011010110011
1111001101111011
1101000100100011
1010111101011100
1110001110110001
101001011110011
100011111100100
111111111111111
10001110000011
1100010011000011
1111001010111111
101100000101011
100000001101010
1101000101000000
1110110000110000
1100101001111011
1010111000010000
100011000100
111111111111111
110010110110001
111001110101110
1001101110111100
1101011111001011
1101001101111010
110010001101000
101010011111
1111001110101000
11101010100010
1101001010111010
1010110010000010
101010000001101
111111111111111
1100000000100001
10101011000111
1010100101101110
1101001011111010
1110101110100010
111111111111111
111111111111111
1011100100100
10111111010111
1101001110001010
1110011000111110
1011000010110101
1110110110100010
1010100110001
1110111000010010
1100101011011001
1101110101011100
11011001011110
110101100110011
1111101000100001
1101101001010101
1110101000100100
1101011001001011
11011100110
1110100100110
11100111101100
1111010011111100
10111011111
1110010101000000
110000010110010
1111000010100
1110000011001110
10110010100101
1110001110010111
1000111111010001
1101100110111010
100000001010100
1010011110001
11110011001111
1111010110100011
1011011001
100001100011110
100110010110001
111111001001101
100111111010011
110011111010101
1010010001110101
1000000000000000
1101011010101010
100011001111
1100000010001000
1000010101110
1111011100101010
10100110101100
1011101010010110
1101101010101
100000111110110
1100000101110011
1011000100010101
1000000000000000
1011101100110111
1100100100001110
1111010101101011
1010111000100100
1010101011000
1111001100100011
11110010101011
1111000101111000
1010101011100101
1110001010011101
1110100011000110
1100101000111100
1010111111011000
1100100100101111
1100101010000001
1101001110100001
100111100111011
1000000101101001
111101101101
110000101
1100100101001111
1110010110010001
1101111100110001
1101111010000010
1100001111011011
1101001001110111
1101101010010100
