1101101010010110
1100111001100111
1101000000000111
1010100001100001
1001101101000011
1000000000000000
1001111110011000
1011001111011001
1010001000111110
1000101011101000
1100010001101000
1101101101010101
1101011000011001
1101000011010111
1100101110101101
1000011000100001
1000000000000000
1000000000000000
1000001001001011
1010001000000100
1111111001000011
10011110010
1001001010101110
11010011101110
100100110111010
1111010011001010
1101101010001000
1001010001100111
1101111111010100
1011001001111111
1110111100110001
1110010101000010
11010010100010
100010111101011
111111111111111
111111111111111
111111111111111
111111111111111
1111001111011100
1110000111100101
1110010001010011
1111110011011110
1110001011010101
1101110011111
10011011110
1000011111110
101110000011010
111010010001110
111111111111111
111111111111111
111111111111111
100111100010100
1011100111010111
1001100110101000
100000010010111
1101000101101
10010100110111
1110111011100000
11010101111000
101101001000101
1100101100000
1111100111101011
1011111100100010
101110110010001
111001100100111
1101011011101100
1011000101100
101011000000111
1101110000001100
1110010100101011
1101101010111000
100000000101110
1110010001010000
1100011010011001
1000000000000000
1010000011100111
1111100110110110
1101111001100001
1100100100110101
1101111101000101
1011101000101
1110010010100101
1111010010111001
1101011111110
11111101110011
1111001001110010
1101010001111111
1101011110101101
1000000000000000
1000010111111001
1100111000110011
1101110110100101
1011100011000011
1011111111110010
1010000100001
1110010011110101
11000101101
100101010101
10001010011011
1010101101101
1100111101111100
1100101101101100
1101100000100001
1010000011101100
1100101101111110
1101110100110101
1110111110011111
11000011011
101111000011
1100110011011010
1100101101100110
10001001110010
100010100001
10010101000100
1100111010100010
1111010000010101
1011100000010110
1101111110101001
111011000100
100011001100111
1101001100100
1111110101001101
1100110010101001
1011100001100101
1011111000011000
101001
1110010111000
100111010000000
111111111111111
1111110110100111
1101110001100001
1110100101011100
111111000001110
111011000101010
1011000110110110
11101011010110
1110000011111111
1101011100100011
1111000010110101
101110001010110
100101101110101
111111111111111
1111011011001100
1101111101111111
1110010000010010
1100011100000010
100101111111010
111111111111111
111111111111111
111111111111111
111111111111111
111111111111111
111111111111111
110011010111001
111111111111111
1110010111001110
1101001011101101
1101000111110010
1100111100111001
1011101011100101
1100000101010
1000010101100
1000000000000000
1100011111001011
100101011100100
1101001011100000
1000010100010
1110011011111100
1101001101011101
