100100001111
1000101000011
1001011100101
101110011101
1101101001111100
1110000101111111
1101101100111011
1111000010010000
1110100110010110
1000000110001
10000010010010
1100110010110
11000110010
1101001110110
1000001010100
100010111001111
111111111111111
100000110101100
1111010011000011
1101000111001
10011110011010
1000011010011
10000001101011
10000000000110
101110000101111
111110010110
1111110111111101
1111111000000100
1011001110000111
10000110111011
1110000110111001
1110011100101
10011100000111
100010011111100
1010101110001
1100011111010
11000000101
100010100000001
10000010010001
1110111101000001
101001001001
1011110011011100
110011000001
10100110110101
1101001110010001
10111011000
1111011011000011
10000101110011
111000010110100
1010110110011
1111100110110101
1011101001011
1100001110100
1111011001001110
1111000010010001
1110001001000000
1110110010111111
1010101010
10111100000001
11110010100
1100111100010000
1101100101010111
1000100101001
111111111111111
1011101110001
1010001000110
1110110110100010
1000000000000000
1000000000000000
1111110110010011
101110011000
101000101001001
100110001100100
11110010010011
1011111000010111
1000000000000000
1011100101011111
1110010000000111
1101000000000111
1110001100111001
1000000000000000
1000000000000000
1001110011001011
101111101100
11111101101100
10001010000110
11011100101011
1100011100100
1011100100110010
1001011100100011
10100100110
1111011100110001
111111111111111
11010101011100
1000000000000000
1000000000000000
1000000000000000
1011001110011000
1101010101110101
10001010111101
110110001100000
10101010000
100000000100011
100101001111
1111011000011010
111111111111111
111111111111111
111100110101000
1101001101100011
1000010011100001
1101011110100001
1110011111100001
10010010010110
1111010001111
1101011110000101
100100111010111
1111100010101011
1011111011001001
1110111001100001
11100000010000
100110010010111
1111100100000011
1110110111000010
1000110101000
1101101110
10110010111000
1111011010101101
1100000000110101
1111111111001011
101001010100
1010010110111001
1100011111011111
1111001101011110
1111000001001001
1111000010111110
1101110111111011
10110010111
1110011110001101
10110000011100
1111011110110101
1110001101100111
1000011010011010
101011000101
10001010000110
1011010000110
1100101010011011
1101000000101101
1000010100100
10000110111011
1111110111111110
1111010001000001
1110100010000111
1000001111001000
1010001100011001
1111001010100011
1011101100000
1101101110101
11001010010000
100111100100110
11000010000101
101011011100100
110010001100
1001001111101011
1000101011011100
1100000110100101
1101001100110100
1011001110
1011110101000
1011001111011
