10011001001
110000010110
1110010110010
11110000011101
11110101001000
100001010011111
10100110111100
111101100
1111001000111111
1101100100111
110000000010
1001110000100
100010101010
10101111111
101010010100001
101001111011101
111111111111111
111001101000110
101000010101110
100100111010001
1000000000000000
1001000110011010
101010010011011
100101010010
1110100111000
1101010111111
101001110101
111111111111111
1101011110010
110100001111
10011100000111
1110111000000001
1011110101100011
1000000000000000
1000000000000000
1100010111011100
1100001100101011
1110111101010010
1111111000100100
1001111011
111000001011100
1011100101101
10101101110101
11101100111100
1011000101101011
1000000000000000
1001001010011000
1100001001001110
1100001101001101
1110111001001001
11000111010
101101100
1111001011101011
1101101100000
1000000110100
100001100011111
1111101110110010
1000100101000011
1010001011011111
100011010010000
101010001101100
101011010100100
1001100111101
101100010100101
100101011110110
1110101110110
1111001010010100
10001010000001
101000011010100
1110001101010101
1001011101100001
1000001111111
100010010001011
11101111111001
101011001000000
111111101110000
111101001001001
111111111111111
1001111011000
1101010010101011
1110101010100001
100011000111011
1000001110000
1000000100011
100010101010000
1000000000000000
1000000000000000
1000000000000000
1111011100000110
1111011101100100
10011000110010
10101111001011
1100001100110100
1100011101110110
1000001100000
1110101010101010
1011110001110
1000011111
1100110101010100
1111111000101001
1011000010000000
110101010000
1111001000000111
1110101001110110
1010100100110
1110010110000001
1100000000010011
1111000111100001
10101110101011
10111111000110
1100111100001
1010110100110
10110101100000
1100110101000011
1101010111111111
1111101000111101
1111010011110110
100100010011
1010100011100000
1111000111100100
1001010011010
1111011001111011
1101111100
10111101101100
10011101000101
1011010011011
1011011000111110
1011110101110001
10000001010010
1101111000110110
111111110110
1000000000000000
1110000001011010
10011110100110
11110100101101
11011010100000
10001011001100
100000000001111
101100101110100
1111101110001110
1111100111010101
1101110011001110
1111000011100001
1110011100
1011101011110111
1000000000000000
1011011001101
1010011010001
11010010000110
1110111011001
1100010010101
1011110101101011
1010000010111011
1101111000100101
111000110011
1000011111100
101011
1110110100010001
1010101010011100
1110100010001110
11100101110011
100110110011
1111111010111111
10000100110011
111111100111
1100010000000101
1110101010110101
111100011010
100011010001
