1101100000101011
1110010011110000
1110101000011101
1111011010110101
1011110010001000
1110011110101000
1110110111000100
1110001011101011
11001011011000
1111000010101110
1110000110001100
1101111011001100
1101011011011000
1101100101011011
1110001100000100
1111010010010011
10101100101101
1111100011111010
1110011000000011
1110100000101
111111111111111
111111111111111
1011011001010110
1010001101111001
1000001110100
1110110000110101
1110000111000010
1110101001101101
11001000010110
100111000101000
1100001100010100
100101010111
111111111111111
111111111111111
1111100010000111
1000000000000000
1110000100011100
10011101011111
11011111001100
1110000001010110
1100001001101011
111000010
100100000000
1101111101000101
1000101101111010
111111111111111
111111111111111
1001000111101100
1101100000101011
100011000000100
100001011000011
111011010010
1110010010111010
1011001011010110
11011001010101
100010110000000
1100100110101100
1001110111111000
111111111111111
1111010001001101
1010001010100000
1010000011100
1110000010101100
1111100111110
1111100000101101
1111010000000011
10011000110100
100101010001110
11111101000
1101101001111110
1110010001010001
111111111111111
1111100010100101
1111010000111010
101101111011
1001111111001
10001001100001
10001100110
1110111100010111
1111100110101010
1010100101001100
1111001101101000
1100110001011101
1111000011000001
11000000100000
1111111000101100
101000001110
1110101111110011
1110000100001100
1010110110001100
11011010100011
1101001101010110
1100110000100000
1110111001101
1111010101011100
1111011100101010
1110011100100000
1101111100100010
1111100
1111110101100
1100101110001110
1100101110010011
1101011010000011
1010010100010011
1101000000100010
1110111110011010
1110111111001000
1111001111000110
1111111100101000
100010000101000
1110010110111101
1111101010010110
1100100010011001
1111011111111011
1111001001100101
10100111010001
1011111111110010
1110010101100101
1101001100000101
1111100001111001
1001001101000
1100111111001
11110011000000
1100101010001011
1110011000111010
1110111010011011
1101110010001101
1111010001011101
11111010100011
111011100100
1110100010101100
1111011100100011
10001110010011
1111101100001011
1110001010
100001100100101
1110000011010110
1110111010100000
1111001011111000
1001001011001111
1101000000100010
1110001001110101
1111110110000001
1110010011011101
1000101101101
101010011011
100010111111
1110011111010011
100001010001011
1100010100010010
111011000111
1111111100010101
100001000100111
1100111110001
100001101001110
1110101110001010
1110100111110001
1110001010011001
1111011110001011
10010111110110
10100001111110
111010000110
110011010000110
110001001011001
1001000000000
111111111111111
111001111100101
110001110011
1110010000101110
