11011110100
101100001110
1011110011
1111111101111000
1100100101010
1000111010101
1101101110001011
1010101110011001
1110010000100011
1111101001011000
101111010101
10100
1111100101000011
1111110000100010
11101111100
10110111100
1000011001
1110000100000101
1101111010000111
1111100010111110
1000111101110111
1000000000000000
1110111001000001
100011111010011
111111111111111
1000110010101
1111101101101001
1111011100000100
1010101101100
1010110101110
1100000101001
1111000010110000
1011001010010100
1101111100100001
1111001100110110
1101001000111000
1111011001010111
111111111111111
110001001101
1111101100111110
1110110010110000
1101001111001111
10001101101010
1100101011100100
1110110010110111
1101000100000
1111101110101010
1101110111010001
1100101000100111
101000000
111110010101110
1111111011111011
1111000100110110
11101010010011
111111111111111
111111111111111
111111111111111
111111111111111
111111111111111
1011011000100101
1111010000111011
1001001101000
10111101011111
100010100010
110001000001
1110100001011010
100100111011100
111111111111111
111111111111111
1110101100110011
1000111001110011
1010101101100010
1100010110010100
1101100010100
1100101100100
10000000101000
1111111001100011
1000111100110
1110101110000110
1011011000
1001010101010000
1011101000111001
1110000011110100
1110101011000010
1110111110000010
10000100000000
100010000010100
10010110110100
1111001010111110
10010100111001
10010101101010
1111110101101100
1101011100110010
1011000001011011
100100010010001
1010010111100
100101110100110
100011100010000
10010100011001
1101010111010
100101011101
1110110000011011
1100011001110011
1110011010110010
1111110111000011
1110001010011000
10011101101100
1010100101110
11000011110111
100010101010
1111011010100110
1111010110101100
1110000011001110
1110010010010010
1101100001011001
1110000100001010
1111001001011100
11100110000001
1110000011010101
1010100111110
1010000010011
1111010101110010
1111010110010100
1101011100011011
10100111111010
101011000100
10001001010010
1101101110000010
1111111110001111
10110111111
1101100
1011100101110011
1101110010011100
1000100001
1101111110000010
1111001101110000
1110101110011100
1111110110000101
1110110011110000
1101101000000101
11100001001110
1110100111111001
1111011110
1111111001100001
1101001010101011
1100010001010011
1111100111100100
1101001110000011
1111100010101101
1001101010011111
1110000011100111
1111011101001011
1110110011001011
11000110110
1101000100001
1111010000000110
11100111
10111101110
1100111100101011
1001111010010111
1000100011101000
1000000000000000
1000011111111000
10001101111111
1111010110010100
11101111001
11010000011100
1010101010000
1111100111010101
