1100001110110110
1101001010001110
1011111011110001
1011111110110010
1100010101001110
1001111001111001
1001010101011100
1110001010111
1100101001111100
1011101111011001
1100101010100100
1011110110010111
1101001010011100
1100011010001000
1100010100100110
1101011110010000
11000110011101
101101110101100
1101100111111111
1100111011110011
1110111011111
10110010110000
11111011101110
101111101011
1101011010111011
1100100110111100
1100100001000010
1101111110001100
101101101110010
111001100111000
11111011010010
1001011100110011
1111101010111111
10100010010001
100000100001011
1110001111001
1101101110110
1110000110100001
11010100110
1100000111010011
1011111110110101
1000011111001
110101001110110
1110110101101110
11000100010001
11100001001100
1110010010
1110101000
1011011010101
1110100111011110
101111010101111
10100001011010
1100101010101011
1101100000011001
10000111011111
1100011111111000
1010100010111100
1111110100010101
11111001011001
1000101011000
1101010000000101
1110011101001001
10101011110011
101011011011001
100111111100100
1011011101000101
111010000000000
1110100000110
1011011111011000
1010111111001101
11000000011
1100101111100
10000100100110
1100000110101010
1110011000100001
1010101011101011
11010011011011
100101111011100
1100111101110100
101111010010010
111111111111111
10000101101
1101101011101111
1111010010100010
110101101110000
1110001011111
1011001111111101
1011101110100111
1101000101101111
111111111111111
1101001000110
1011110101111101
101110010010
10101100000010
1001111010100010
11111000101
1111111100101111
11001010011000
1110111100110111
1011101110100010
1011100001010
101011101000011
111111111111111
1100011010111
1011011000011101
1011100001111101
10111101111110
1110000010110001
11100110000000
1101010111100011
1111111101111110
100010010101
1101111000101100
10000111001011
111110010001101
110110000010111
111000010101
1011010000111001
100010100111110
110001000000101
10111101100000
100111011110011
1110101101110011
11101101010110
10100101010100
1001010110001101
1101010111011010
111111111111111
101001110100111
1110001001101100
1100001011000000
1111110101110100
101010010001
100110101111110
100001111001000
1111111000000100
1110101000011101
1101101110100100
1110100110100001
110000111110001
111111111111111
11001101001001
1101001111010110
1011111101001110
1010010011011011
1110000001110010
1110000110011001
1111011011011110
100001111011001
10001000001101
1101111101101011
10010010001011
111111111111111
100111010001010
1111010001101001
1100010100111010
1100011010100001
1101001100101000
1011110110000110
1110111011101111
1110110100100111
100100110011101
1110010111110011
1110000011111110
1000000000000000
1111010111000010
1001011101
1100100101110101
1100101011010000
