1010010010
1111111000111111
1110010011
100010100111
11101
1111010110
11011010000
1110110110111101
1110111101101000
1110111001011001
11101001111
1111111011001100
1000001011011
100101101001
111100100001
1111111101100001
1110101001010110
1110011101111010
1010100100010
100001001101
1110000000111101
110110111110100
100001001000111
111111111111111
11100110010
1111011011111
1100111
110110101001
1000100100001
11100110100001
1100011111111001
1101011000011
1110100111011001
1001001101001000
1110000000011010
110001011011
110110110011
100010111000101
111011011110011
1101001000100001
1111101011101011
1010001011111
1101001100110
10011110000
1111001011001
1011010101001001
1011001110100110
10111011110
110101100011
1000011101000
10011001101000
10010110000
1111101000010110
1101001011011001
111011101011
111101000011
10101111001100
10101111001
1011010111001100
1100110111110010
101100110
1010111101100
1110100111101101
110000101000111
111111111111111
1001100100
1101110100001011
110111111010101
11101100000100
100011111010101
1101111111010001
1100110100110110
1110010000111011
1111000101110110
1010110110101111
1111010000010011
1000010100
11000100110010
101100011111
1100000101110001
100001010111
101001001101
1110000100011111
1010111111110010
1110010011000000
1101111111101
10010010101111
11010011000100
111010100110100
11111100000100
11100010110101
1011111011
1011001000110100
1000000000000000
1000000000000000
1001111000
110000010001000
100001100010111
11110000111011
1110110011010110
100100100110111
1111101011001110
11001111110110
1110100001010101
1111111111001100
1011001110111001
1000010100010101
1011101101111010
111000000000011
110001000001001
1110010111000011
1100001101100001
1000010010111010
1000000100011010
1000000000000000
1000000000000000
1110101001111000
1110010110011100
1000000000000000
1011100011100010
100110010101111
111111111111111
1111100010111011
1000000000000000
1000000000000000
1001111011110011
1001100011100001
1011110111001110
1000110110100000
1110101101101101
1111001010001101
1011110011100000
101000111001101
100110010011111
11010111101010
1111010101010001
1100000111101111
1100110100001100
1011011111100101
1000110111100
1110010100101100
1011100000
1111000110001110
1110001101000111
1001101101111
10001001110011
1110100010100
100001100111011
110010110011001
11100111110000
1100100000111100
1110001011111011
10000001010
1010010110000
11100011
110001110101
1111011010110110
1101010111001100
1101000000011000
1100000001111111
1011111000011
101001111110100
100100001100111
101110111000011
10000001000110
1111001001011001
1101011011100010
1110100100010101
1111111111010110
