1111101110110111
1110111111110010
1111010011010000
1110010000001101
1110100111010010
1100110100000000
11010101110111
1110001101010
11100100110
100100110110010
10010101100
1111001111100010
1111000100100101
1111011011101011
1110110010010010
1010110000100011
1000000000000000
1010000100000100
1011110010010000
11111001011001
11111001100101
111001011000101
110000000101110
1101011110100110
1110111001001000
1110010000111100
1110110110011001
1101111001100010
1010111011000100
1011001110101001
1010111100100
111101110101
1101010000110100
1010101001011000
100001110010001
111111111111111
101101100010000
100101010000111
1111000000010101
1111000100001100
1111011001000010
11001000111001
100000110010110
1001101101010
1011011010101101
1001110101111101
1100011010101
1111101101011
110000000010110
111111111111111
101111000100110
10101000011
1111011110011101
1101111001110010
1110011000000
1101011010110100
1011110000011111
1101011001110101
101110001110100
10001001101010
1100100101000111
1010011111011
11001000001000
100100011001011
1101001000000010
110011110100
1111110000000011
1100011110100111
11100010010
10011000101001
111111111111111
111111111111111
1100101101010100
1110111101011010
1011100010011101
11101111111000
100101101000010
1110101111011110
1110110011001011
111100101100011
110111011001111
100100110111100
110110000101110
101100000111010
1101100110011000
1101000100011101
1110000001011
1000001100000
1110001110011
1011110100010
1010010100110
1110110010100000
1111100101111000
1100011010111
10100010010000
101000010001110
1111111010101101
1100101011100111
1101101101101101
1101011011111
10000011011001
100110110110
1101001100000100
1111011100110011
1000111001101
1111101011001001
11001101111110
100101011011010
10110101111111
1010101000011000
1101101010111011
1111100101100110
1111101010111101
11110010101
10110111111110
1101010011000
1001010000100010
10110000
1010101110011100
1111100010000010
101101001001
10000000101111
1101100101011100
1000010011001
1110101110000010
1011110100111111
1100100101010010
1101000001110110
1100111001100000
1101010000001100
1110001001111110
1100111000010010
1110111110001010
11100010001101
1101001010001
10011001011110
111111011110
1111111110110000
1101111110000101
1001010001100000
1010100000110100
1000000000000000
111010000000
1111000110011110
100100100010
1101010110000110
1100011001110011
1100101111100001
10111101010001
1101110011110110
1101001011001110
1101011010010111
1001101000110100
1011010100001010
1000000110111001
1111010111000111
1111011101001110
1000000010100
101101000000111
1010010000000
1011000110101100
1101010010000101
10110011000
1011010000
1000000000000000
1000000000000000
1001001101010100
1101110011111010
1111001111001111
