1111101111011101
1111001111
1111111000100000
111110010000
111001010001
11011111111
11001101
1111101110101000
1111111100100110
10001001011
11100001010
1111110110010000
11100000001
1111101110000110
100110010010
10000101011100
1111101110101100
1111101000111001
111111111111111
110000110001101
1110100010011001
1000000000000000
1000000000000000
1101110100010001
1111001011001110
10001111000
1111111000100011
10010111000110
1001010000111101
1010110001010101
1110001011000
110100111001101
110000111100
11110111000111
11110001111100
11011101001101
1000010010111110
1111011101000001
1101101110010001
1111101110100100
111000011111010
1001101010011101
1000100111100100
1000011001011001
1101000001101100
1010001001001
1111110110000010
1101110011011010
100000000010
1111011001100101
100011101111
10111101011011
1100101000101
1110010100000110
1011001110001000
1011100010101100
1001000111000001
1001110100010100
1010010101100110
1111011010010010
1110100101000100
1100000011100101
1100011100011101
1011011100000100
1100101010101111
110111100110
1111011111010110
1011010010111
1110111010111000
1100010010000011
1011100111110101
111111111111111
100110010000010
1101110010111
110001010101
1111011010110
1110001111000110
1011101110100110
1111110111001010
111111111111111
1111000001011101
1110110011100110
1110101100011101
100001011001010
111111111111111
10111100110101
11000100000111
1111110110101
111000010001011
1001010111110001
1101001011011111
1111101011110100
100101011110100
1101000001000111
1001101001010101
1101111011000010
111111111111111
101011100010100
10100001100110
100110000001110
11101000010101
1111111110011
1000000000000000
1011011100001001
100001110001
1110011001000
1110001100011011
100000000110
111111111111111
111111111111111
1100010010011110
1011000011
11000001010100
1010000111110
1111001111100001
1101010011101110
1000110001001
101001110
111110101011
1100101100000110
11100000100
111111111111111
110111001110101
11010110010111
100001110000010
10001010011101
1111000100110110
1001010001101
1101101000011111
1110101110000010
101011110111
1101001001111
1111101011111111
10110110111111
1111100001001010
11100100001110
10010011010111
10001101100
1101110010011001
11100010110100
1000101100001
1001100110110110
1101000011010000
11000110111
10000110111110
1010100010111011
1010000110100100
1010100101010111
1111101001100000
1110000101010111
1111110100100000
10101001111101
11101001001100
11101100000111
101001110011
111110001
1011001010
1101001011010
111010111110011
1000010110100011
1111001100110000
1010110000010001
1100010110101001
100011010100
1110111111001000
1101111110110011
1100100111010110
1011101010101110
1111111100000000
