1111001011001
1010110011111
10011100101100
1100011000010
11010000011
1101100000110110
1101000011100
1101000101110
1111110111110
10000100101010
10000111001110
10011111111100
10011001111000
10010111011001
1011100111011
1110100111111000
1101000101100110
1110000101101101
1010011000010010
111111010
1110111110110001
1000011111111111
111010001100
11111111101010
11100000011111
100101100000001
100100110110
10001010000100
1111111010000100
101101110101
1101000010111101
111010010110
1100011011001
1101001010101100
1011000001000010
1100011000011
10010111101100
10101000110011
11100101100011
10001100110011
1010110001101
1000011100101
1110100000100110
1110000110000001
1100100101010
1110100100000001
1010100100111000
1111001010011101
101101101000001
100111010010
101110010000101
100001001111000
11000100010010
1001000111010
100101100010100
1011101100100000
1001011010011110
1110001100111001
1110100110010111
1110100110001100
110011010010001
111110110010001
101100001111100
110000111101001
111111111111111
1100001111111000
1000001001110
10111110101000
1101100010100000
10111111010000
1110111000101010
1000000000000000
1011001010000011
1001100110011100
1000000000000000
1000000000000000
1000000000000000
100011000001
1111010001100000
1110110100010
101010110100101
101000100101111
111101110001001
10110101110101
1100101011011100
1101100111011101
1001101111010100
1000000000000000
1000000000000000
1000000000000000
1110111110011011
11011100001011
111000100011001
101110011000000
110000001001001
100110111110000
11110011100011
1110010000101011
10000101001001
1100010111110
1111110011110000
1110101101010011
1010100011100011
1101001101110111
11111010110011
101010011111100
1111111000100011
101111101100
111101010001
11110101100101
1110011100011001
1111010111010110
101001110000100
11010000111110
100011111110
1010111110111111
1100100011011101
10001101111001
1101100000000110
1111001011000100
1110101111111111
1111111001011
100110101101011
1111011111001100
110000110111
10011100111001
1101111111110
1101010111001000
1110100011011110
10011000110
1001100110100
1001000100111010
1010000011110100
1101110110000111
1111111101111011
1111000101010001
1111010001010
1100101101010
1110110000001000
1111001000010001
1011110111000
1100100100000000
101010110110
1110110000001
1110100100110000
1000000000000000
1101000100100100
1010010111100
1111001101101111
1111101000111000
10001000010010
1111110100000001
10001010001010
1111110111111000
1110101010110110
10110100001010
10010010000101
1100010010011
1110111100100011
1111111001100001
1110000011110111
1010001011000001
1111001011010101
1010011000010011
1111100011010100
1100001101011000
1011000011110101
10010111111100
10001010110111
