1000000011010
110000100110
1000110001100
1011011100111
100001001011000
11111011001100
10101110010100
1010100111000
1101100101100110
1001100111
111000111
1000011100110
1010110000101
100101000001101
11010101000111
101111001110110
100010100010101
101001000001101
100101000010111
1111011101001
100100011000
1100101011111001
1000000000000000
1011010101000111
1110100101001100
111000110000
100111101000001
100101100101100
110011011111111
1110011101011011
100100101011
10101001010100
10011101011110
11100100100
1010101101100111
1000000000000000
1000000000000000
1100000111111111
1111111101111011
11110111111111
111111111111111
100011001011111
11111011001
1111100111110001
1001101010110001
100110100110011
10100111100111
1110010111010111
1000110011111111
1000000000000000
1100001111101110
1110111100111100
1101011100111
100001011111001
1100111000011011
1000110001001000
1000110000001111
1011101001111000
111111111111111
110111100011111
1010101000011000
1000000000000000
1000000000000000
1010101101110001
1111010111010001
10011111100111
1001100100000001
1010100000001000
1011110100101111
100100000000000
10111011000010
111111111111111
10110001110010
1001010111100001
1000000000000000
1101001001110110
10000000100110
1100011001111
1011010110010
1110001101011001
11110001101000
100110110000000
10001001001000
10101000100
11011100011101
1111111100011100
1011011001100100
100001
1111011101111011
11111000010
11010001010111
10000111111101
101100001100100
1110001001101010
1110000010001101
1101001110110001
100000011010
101100111010
1011110011111110
1000111111111010
1111010001100001
10010011000010
1111010001110110
10100111011
10011100100010
110110000101110
11101001000100
1001000011000
1110111010000010
10000001010100
1111011000001110
1000000000000000
1111000100100100
11101110100
10001000100110
1101011001100011
10000000011110
1010100011111100
1110111001101001
1111010001010111
10101011101010
1111000011011010
1111011111100100
1111100000111100
1100111110000111
10100011011101
10100101110000
100010110000101
10010101100111
11101111010100
1110000001100011
1100111100001000
1110010001001001
11110001100001
1101101010011100
1101101110001001
1101110110100101
1111100011011111
1011011000100
1101110100010010
1110011100010011
111111111111111
1110011110000
111010110010
10111100111111
100101101010101
101110100111111
101010000000001
100111100011
1111110011111110
1111101111001111
1011000001000000
110010010100
1111101010100011
1111000001100110
10101001010
110100010111
10010001011000
11100000111110
100000000010111
10100000001010
1111010101100110
10101011000100
1111101000110000
100011011101100
100111001111
1110111001011000
1111010100110000
11010110101
