1111101010001010
1110111010000101
1111001100100000
1101100100010010
1100110101010111
1101001111101101
1100111001110110
1101110100101000
1111100111001111
1100100011
1110011110110101
1110110001111001
1111101111011010
1111010100010000
1101100010010101
1111111100110001
110001000111011
111111111111111
10101010001001
1101101000110
110000100111011
11100101111110
111101110000
1110010101011
1101001011000110
1111000111110111
1110110011100101
111111110100
1100101111111101
101100001100011
1111110010011011
11111001000
10001101000110
100101000010011
1010100110010
1110000011100101
1101111111100110
1110001000110000
1010010001001
1100100001100000
110001100000100
1111100010110000
101110000011110
10010000001100
100100001001
1111101000101010
10001010001111
10001111010101
10011101110
10011101101001
11000011110010
1111010110011000
1101000110000010
11001010000111
1111010000011011
1111001100000111
101000100011
10100000000010
1101100000110010
1010010111110010
1011010001001100
1110111011010
11011101001110
11000101110011
11111111010010
1100011100000011
1110010011110010
1101101110100101
1001111010011
11100011111
11100110111010
110111011100110
1111101110100001
1101111001000101
1010110111
100110010001011
1111111000011111
1101100010000000
1100000100011000
1101100100110001
1101000101010001
1101100101111110
1101110011111100
1110101101111011
100000000110010
1111100011111001
1101111000100111
1101001011000011
1100111111110000
1000000000000000
1110111111001000
1111001011010000
1111011010000110
1001110111101
100110100100111
10000001010111
1111101111010100
1100100100010110
110111101011
11011001001100
1110001010001111
1110110100010011
1011111111111110
1101111001010010
1111100110000101
1100110001000
10001111
101100100010011
100001001100110
1101001001011110
1000000000000000
1001110111100111
1110100101001001
1110101100111
10011010111100
1101100011010101
1001111000010110
1111010110100010
11011010000100
1111010101000010
100011000101011
10011111100100
1010000000110110
1000000000000000
1000000000000000
1100001110011110
1111010111010111
10011010000011
11000110100001
1100001011111101
1111010010111001
100010010111111
11110111000111
100001010000100
1110111110101110
100110101
1111000111101011
10000111011000
10101111010
11100100111110
10111011101000
1100001110000111
1010001011110001
1111111011000011
1110100010001111
100000111100000
1001000100000
1111010000
111010001010101
101000011000101
1100100011100
1101100100000001
1110110011000101
1000000011111
111111011
1101000100010000
1111111101111110
1011101010000000
101011110110100
11101000001110
11001100010100
101110010011011
101011010011
1111101111000011
1110000100110010
1011111001110001
1110011111011011
1011110000100
1111101110000101
