1111110011000100
1111000000100000
1111111011101010
1110110111110000
1111011101110011
1110011110011011
1101010100101000
1100110100100011
1101101010010010
1101101101111010
100001001
1111100000000110
1111001010110010
1111010010001101
1111101100010111
1110111100001001
1110000001011101
1111010011000111
11010011101000
100100010010
1100000011010101
1101000100100011
1100000011001010
1111010100001
1011100111001101
1111110100011000
1111101111100100
1100011111010000
10001001010101
101110111101000
1111111000011101
1111111000000000
1111011100011110
1010010111001
1010111011110
1100100010011111
1010010101011010
1011010001010111
1001011100
1111110000100001
1100101111010101
11011000011000
111101100001
1111010001110110
10110100100000
1110001100111011
110100110
1100011001010110
1100101011100011
1110101100111011
111110010000
1111101101101
110101111011
1110001000
1101000010000011
1111101001101110
1100001111011101
1011010100000000
1110001111000001
10111010111110
1101010001001011
1110111110011100
1100100101110000
1100100101101100
1101000111
10010110111
1010100010110101
1000011100011001
1101101000110001
1101011011101001
101110011010101
111111111111111
11110100001110
1111110101101010
111101000111
1111011000000011
11110010011101
1111111011010011
1111001010000110
1000001000
11101001011111
1101001100111
111111111111111
111111111111111
111101100001010
10011110101001
1111111011010110
110000101101001
10111010001010
111111111111111
101001010010
1000100010100
111111111111111
111111111111111
111111111111111
111111111111111
111000001100111
11011101111001
11110010001100
1101000111010
11110011000011
10000011000111
101001110100101
1101000010001101
110010100000
111111111111111
111111111111111
1101010011110
1110110101000110
1101111101001010
1101110011000
110000011100
1101011100011
11001010110110
100011111001110
100000110110111
1100001100100111
1111101111000001
1101010010000100
111100001000
1101100000000100
1111110000100110
1010100110110
1111111000000001
1101110111111000
1111001011011001
10010000100010
1101101000011010
1100010010011101
1100111001001100
1011000000000100
1101101010011101
111101110101
1111011001101111
1100001000011111
1111111010000000
1011000001010010
1010001010101100
1010000000100110
1100000101011011
1101100111010110
1000000000000000
1100010101111110
1111110011010001
1110000001100010
1010100110011011
1101101111111001
1010000101011
1111000111111110
1110100110001001
1110100010010101
1000000000000000
1000000000000000
1001111010011101
1000000000000000
1110100000110101
1110110100111001
101011011000
111001000001010
1000000000000000
101111011
1011011000011
1101100010000010
10000110000011
1000010001100110
1000000000000000
10001000010100
1111001101000000
1111101111101000
