11010110010111
10111001010101
10100000101001
1001000010110
101000100
1011000101000
10001110011011
1110000100100010
10000111111010
100011111010011
11011011100000
10010111000011
11101010000100
11100001000101
11110101101111
1111110110001101
1100010101110111
1101000010011111
1110111100110000
1101001001111
101011001100011
101010011110110
100011101011
11000111011010
100000001110011
11111001010001
1101010110011
11001011101101
10101111111000
1110011001110010
1110101100001110
11111100001
111001000111
1011111001100
111100000111
1100011001011
1110101001100000
10100010010100
11100101101100
1111111010100000
11011010100001
1100101010
1011011000101
1010001001001
10010010011000
11110000010010
100011001101000
1101111010111101
1100101010001101
10111111010100
10101001111010
101101000011001
1111101111110110
1111000100001111
1111000110111111
11001000011000
10100010010100
1101111000001011
1110001101101010
1101001111001011
1100001000010100
1011001010110010
1110101011010101
1101001010000111
10011111010
111000011100
1010110001010001
1100011111110001
10110011111110
11110111010111
1100001110010011
1001011110010110
1001111010100011
1100001001101111
1110011011110000
1110100011111111
1000000000000000
1101100010100110
1000001011101
1000000000000000
1101101011001110
1110010111110010
100100010110000
1000100110010111
1110101000010000
101100010101
1101001010001000
100101010100
1101110001100001
1000000000101100
1110110011001011
1111011011001110
1000000000000000
1101100011110
1111000111110011
1100100011111000
1000000000000000
1010010010111011
10011001110010
1111001000110010
10011010011
11010011011
1101010110010001
1111101000001100
1110111111011000
1000000000000000
10111100001100
11101011111111
11100111110011
1111110101111001
11000111110
110001000001010
111010101001111
1110001111000
1000100001111
1011100101010
1010011000011111
1000011010
1010101111011000
11010001101001
111011000001001
100111011111000
100100001100
100001101
11100000001110
101001010000010
1111101100100100
11001010000011
100100110110000
11111100111001
111100110110
11011111
1111000011100
1001001110111000
1000100001000100
1001110011111000
11010000100
11110100100110
1010110111
1000111100001100
1100011101111000
111111111111111
10111001110010
10110101000001
1111001010110011
1100011001110100
1000000000000000
1000001100010011
1110010111100000
1110111100001100
1000001000010
1110110100000001
1100000010101010
1011111011111000
110001001111010
101011010110001
10110011000110
10111101011010
1110110010011011
1010110011110110
10101110000
110010110000101
1011111110010111
11001111000000
11011110100000
10010100011
110010111111
10101111111111
11011110011100
