1111011100111100
1111001100000101
1111100100110110
100010100110
1001010110
10000111110
1110111101001101
1111000000010110
1111111011010111
1110101110010010
1111100100001000
1111101011011010
1111100110001111
1111100100100110
100100000101
100000111011
110010101010
1111110011010100
1010101010100001
1111001110000101
11001001010000
111110110011011
11000001011010
1000000000000000
1000000000000000
1100111100001010
1111110011000011
1111001100100000
1111011010011001
1001011010011
1101100000111000
1010001100001001
101100101010
1111001110001100
1101010110101001
10101111
1010010101111011
1000000000000000
1000111111110011
1111010101011101
1010001000110101
1010100100011001
1101111011011110
1110000010100000
1100010000101100
1101110000111110
1110100100111001
1011001000000100
1011111001010001
1100110101100000
11101010100001
10101010111001
10100111010
1000011011110
11101001011010
1000011000110
100000011100
10010111011101
111101010101010
111111111111111
111111111111111
111111111111111
111111111111111
111111111111111
1010111001110
10100000100
11101100011001
110101001011100
1101010010101
1110101110100000
1101010101111010
1110101010111001
100010111111110
110011110010100
111101010011100
111111111111111
111111111111111
10101100000000
1111001101011001
1101000111100111
1110010100001111
1101011101101010
1110011111011101
1111001110000010
1100111010110
101011011011000
1011000100010
1110101010011110
11100011100111
110000000
1100100101101
1111101100010101
10100001010001
1101110011011000
1110011101001011
1011011000000001
10100111100
10110010110010
101101011001
10001000111101
1101010001011010
1101101111101101
10100000110
100101000110
1111010001001001
1101110011110
10000101011101
100000111101001
10010000000011
1000010111000
111111111111111
1110111100100101
1101011011011110
1101000011111100
1110110100001100
1100111010011000
1101101000101001
1101100111100110
1000000000000000
1100011010001101
1111111011011111
111001001101101
111111111111111
101010001010100
1010111010110100
1111001111010000
1110110110000000
11010000010
1001010011001001
1000000000000000
1111110100110100
1000000000000000
1011011111001000
1100100010110010
1101111001010101
10000101110
1100001110101100
1011101001111011
1010011101010
1000010111010
101110100111
1011101100111110
1000000000000000
1111101100110001
1101101000
1001000111111110
1110100111110101
1101100110100100
1011101111011001
1110010110000100
10000011101111
1100010010111
1100100111001100
1101111000001011
1110111100011100
1101011011001111
1111110011100100
1111000001110101
1101010111011010
1111110100111001
111011000000
111001101100
1100011010100
1110110011100001
1111000000001100
1111011000111010
1110110000111110
1110010000010111
10110111110
