1101000100000110
1101000100101011
1100111001101010
1100100101010110
1101111100111110
1111011110000000
1111000111001011
11000000010011
1001011111110
1100110011101101
1101001010000101
1100010001010000
1100011101001000
1100010011100001
1100000010110011
1101111010001101
10010101111100
111111111111111
10111101000100
1010010000010110
1001111101000001
1100110001110001
1110011000100100
10101011010111
11110001100010
1110010111101100
1101000101111010
1011001001100101
100111110100
110001010100010
10100000010010
11110111101111
1100101110001
1101011001001111
1110111000011000
1110100110101011
1101000110011011
11011111000000
11100101000010
1100011010010011
1110111011010100
110010101011000
101100000100101
11001100100110
100000100100010
1011110001100
1100111011101001
1100111011000010
1011101001111010
1110101111001000
101000010100001
101100001111100
1101000111010111
1000011110111
110000011001001
101011101011111
1101011100100001
11001100001101
1111000001100
1000000000000000
1001101101001110
1001111100011110
1100010110000010
111111111111111
11100111011011
1011110101011010
1110110111100110
11111011110111
1001011000100
1101110000110100
110100101011100
101010111011
1100101010011010
1100011011101101
1100010111010101
1000001010100000
111111111111111
100011100011100
1100100011101101
1000010100010011
1101010000101010
1110001110011011
1000111110001
10101111000101
1010100110000
1101011011000000
1101100000011111
1011101101010000
1001111010000111
111110111000110
11000101011110
1110000100011010
1110001101100001
1100000100011000
1110100110011111
1101110000011010
1001110101101
10001000011111
1111001001
1101110000010
1111101001000011
1010111010
111100001000010
1111011111101100
1010010000001110
1111001010110011
101011011001011
1010011001101
1100100001010110
1100010011000
11000110000111
11111011010100
1110111101111101
1111101111100000
1100101111101
100010100010110
1010110011001101
1011101110000010
100010000000100
11000101100001
1010101010011
1110110100001000
1000101011110
1101011101000000
1000101011011
1101000000000111
11010110111100
111111111111111
100011101110
1000000000000000
1101100111010000
1100111000000
1111000001111
1111111000011100
11111000111101
1111101000101110
1011010101100011
1111100101011011
100100011100010
111111111111111
100100000101110
1111011010011100
1011011011011010
1101000001000000
1101011100111100
1101010110101110
1010110011011
1000100001110
1111100111011100
1110101011001100
11001000110010
101010101110100
111111111111111
1111010110011000
1101100101001111
1011111110010000
1100011111010010
1010001001010101
1000000000000000
1011101101001001
1000011010010111
1011011011111
1110100010011000
1110101000100010
11100010111111
1101101001100000
1001100010100001
1100011110100111
1100000111110111
