1110101111100100
1110010000010011
1110000011010101
1101101001011010
1101100111010010
1010100000001111
1011010011001100
1000000000000000
1000100011011
11111101101001
1110110001111010
1101100110001001
1101110011011000
1110100110110110
1110110110101101
1011110111000100
101101001101
1011001000110100
1011010001110111
1101001100010001
110111101011011
1000101111101
101010010110
1000100000111
10010101100110
1110100100010000
1101111101000110
1100101110011111
1110111101011101
1101110000111
11100101111101
1110101001010001
1110001101100101
111011101010
1110011010000010
1100111111010101
1110010100001
101011111101010
1111111
1110011010101101
10110011010010
111111111111111
110111001011001
1111111100111
1001111101000111
1111111000110000
1011011011110
11
100100001001
10011101011011
111111111111111
1111101100011100
1101111000100001
101111100010011
110011101010001
100001010101011
1000000
1011101101001100
1101011110
100001010001101
1101111101100001
1110101000010100
10010011111100
111111111111111
11010100101001
1110010011010011
1100111011001
11011010001011
1110001010001
100011111011011
10011010000
11101010011011
110101111110100
10110000101011
10001010001
111101101011
1011010100001
1100000011111100
1111011111110010
1111010011010010
11011101110111
101000100001111
111011111000111
1111110010110
1100100101000111
10100111011010
1000111010110
10001100000101
1111111010101100
101001010100110
1001101001111110
1010010000000
1010000001010001
1100100100100001
11000100001110
10010111110100
1110101001100010
1100111110010100
1100010111111100
1100100110000011
1110100010011011
1111101010001111
10000011010010
1000000000000000
10011111101000
1010011110011010
1000000000000000
1110011011000111
1110000011000010
1000101011110
1001000
1000000000000000
1011011010110010
1010110011101010
1100001001111011
1110011010111100
1000000000000000
110001101101
1000000000000000
1101101111101010
1101010101110000
1010111101
11111010011000
101010011010010
1100001101010101
1010110101011110
1101111011000111
1100011010111010
1000000000000000
1000000000000000
1100100010101111
1100011000110001
1110010100010010
1100101001011000
1111011011000010
11011001110101
111111111111111
110110000100111
1111010110101101
1011011101011010
1000000000000000
1100000011000100
1101111110100110
1110100010101100
1010111011111000
1100011000110
111111111111111
110110001101111
1110011101011011
111111111111111
111111111111111
111111111111111
101001011011111
10000101010100
11001100000010
1110110111011110
1110001011001110
1110110001000100
1111111001000010
111111111111111
111111111111111
10011010110100
101001101100101
100110111010010
111111111111111
111111111111111
1111110010000101
1110011101111101
1110100010111100
