1110111101100101
1111010101011011
1111010110100001
1110101000001001
1111011100001
1110111110011001
1110111100010101
1110001111010110
1011111011111111
1100101101001001
1011010001
1111010110001001
1111000100010101
1111010010000011
1110110010111110
1110001001110001
1101110001101001
11111010010
1110101110000011
10001110100000
1100111000011001
10010101010111
1001001101001
1110101100110101
1101101001100001
1111000111111101
1111000100011001
1111010001011000
1010011010010110
1101000100001010
1110101101010000
1110100010010010
1110001110011011
1110011000111101
1110001110101100
1111100101001111
1101101110000011
1101010011110010
1011001000011000
1110100101011000
1000100000101000
1000010110111011
1111001011100111
1111111100000101
1110001101111110
101101110000
1111100001001010
1110110111000011
110010101110
1101101110011011
101111010001
1100011100100100
101110111110
100000110110110
1111111110111011
1110010011100101
1010100111110
1110011001110111
1101000001110110
1101110111010
1110000111
11111011110010
1100000100111
111111010110
1011100110111000
1000110110100
1111110101111000
1111101100100001
1101001011101110
1101010100111110
1100100111101001
1111001110101010
1111100010011100
1111001011011100
10110010100111
111101110
1010010110111
1000000010
101100100010
1100101010010
1000000000000000
1011111010111001
1011100011111000
1010111100101111
1110010001011101
10110010101011
1100000111000
10110100101000
1100011000000000
1111010100010110
11100101011111
1110110001001011
111111111111111
111111111111111
111111111111111
1001110100011
1100010010100010
1100001110
10100110111111
1111001011111110
1111111000001111
1100100011001101
1011110001001110
11001001010110
1110011101101110
111111111111111
111111111111111
111111111111111
111111111111111
111111111111111
111010101100010
11100001010
1011000100001
10010010001
11000111100
111011
101110101111
1101101000100101
1101011101000011
1101010110000010
1100010110100000
1100011010011100
1110110000101000
1011000000000010
11110010111
1111010110011001
1111001110010101
111111111
1100100001011011
1111010110001010
1111110001000110
1010101110100101
1000111001010001
111010
1100000011101001
1100110011110001
1101101000110000
110101101101
1010110110101
111011100
10110101011000
1111110110111000
1010010110010
1110111000011001
1011111001111100
1101110001001011
1110110001010111
1011100101000111
1111101111001101
10000101100011
1111110001011110
1100000000010
1000001101101
1100110101101011
1100011111001111
1110110011010000
1110110011111111
1111001000001010
1011101100001101
1111001100111111
10101001100010
110110010011110
101101110110100
110001011001
1110100100111100
1111110010110011
1011011111111001
1011111001000000
1110110100101110
