111000100000
1101001000011
1011100100010
1110011100001
10001100100001
1111101100101100
11110001011110
10100100100001
11011001110
1111010101010001
1111101100110001
110001111101
101111111101
1011000110011
1010011101100
100010011001001
10111000000011
1101010100100011
1001001011101001
1101010010001010
101000011011
100001011110011
1111110100001000
1011010110110100
1101110110011000
1100100001011
1000001101110
100101100010000
1011110100101010
1100101111100
1111100010011001
1011010011101110
1110000000100000
1110001001110100
1110001100001101
10100001100011
10100000101101
1010100011001
1010000111100
1111110111111
111111111111111
1101011001001
111011111111
11000001000
1101011011110011
1100101000110000
1111010100101110
10001110101001
111111011010
101000110111101
111111111111111
1010001001000
1111001001110101
110011101110
1101100011000011
1101101111100011
1010011111110100
10000110111100
10010110011111
1010111101010001
1111010010001101
11100010010101
1111101000100
111111111111111
1001111011001
11111000111
1111011011011010
1000000000000000
1010100010000110
1111100100010011
110110011011011
110110100110010
1010100101101101
1011101000001000
1111001101100010
1011111001001110
1000000000000000
101100111010111
1110111000010
1000011011000001
1010001011110001
1100011000100000
1111010100100111
10101101000001
111110001001010
101010010101010
11111100110
1111001010110000
1001111001101110
1011111110110011
111111111111111
10101110011100
1011101010101000
1110100101100001
1111000000010101
1101001100001000
101101001100
11010101111010
111111110100100
1100100100010
1100001100001101
1101110110000010
1110000110100010
11000111000
10000111100
1000110101111011
1110110001110101
11001011001101
1110000001001011
1101101100111001
100001001001110
111111111111111
1111010010000111
1011011110100110
1111011000110010
1111011010110100
11010110000001
1110000110110101
1011100111000101
1011100011001100
1100011010100
1111101101
11100011111
101101101000110
100100100100100
1101011101000011
1011100100000001
1111101000001100
1111010101010101
1110101100111000
10001011111011
100001100101000
1111100011100010
100000110101100
11000101111100
11111001110001
10110100001100
1100100000
1100110000111011
1011101011101101
1101100000110
10100101111
1110010110011101
1100010010000
1100100000101
11110111000001
11011011100110
1101110111000
1110110111101
1010010000101
1111001100010100
110001100000
1000000000000000
1000000000000000
1111011000001110
1101111101110100
1000001110101
1111101111001111
101101011011
110101000101
1110011000101111
100101110110001
1111010001111011
1111011100011110
10001110001101
1000000000000000
1000000000000000
110000011100
110111011001
