1011100101100000
1011001100010011
1011100010110011
1010110111000000
1110110111010010
1101110010101010
11110010100001
1110110110001010
1001011011111000
1000000000000000
1000000000000000
1011000000011101
1100010011101110
1011111001100111
1011101100101000
1011101010000011
1011010110000
111111111111111
111111111111111
1111100100111000
1110110100001010
101001011000111
1001011010000010
1101100010011100
1101100111000011
1111010110111110
1011100111011110
1100101110101101
1100111010110100
111111111111111
111111111111111
1110011101011111
1001000001111011
1111101010000
100001011001001
10111110011111
11110010101010
1010110100111010
1000000000000000
1011001100101011
1101001000100010
100111111000
111111111111111
111111111111111
1011011000110110
1100001101101110
100101011111100
11001010000100
1011010101011
1001110111101
1011111000111101
1001001010010100
1001110011100100
1011001000110110
101011110010
111111111111111
111111111111111
1110010100110100
1010110100001011
101001010101001
1101000001011011
11000001011110
1010011110001
1000000000000000
10110001
1011000101111011
1111100010111110
11111011001
111111111111111
101111001101101
1001011101010110
1010111110011100
10000010110000
1111000000
11000001000110
1110111100011
1111111100011111
111010110100001
1100110100110001
1100001001111100
1110011111010111
111110011101001
1101011011101011
1000111010111001
10100110100
111101111001
1010011101001
1101100000011101
1001010110110
100010000111000
100110111101101
1011100111110110
1101101100011010
111101111010110
11101000001000
1110001111101010
1110100000011101
1111101111001011
10101101111101
1101100000100001
1100100101100111
10001001100000
100100001000101
111001001010101
1100100111111100
110010100110
11011010010011
1111101010110110
1110100110110111
1101101111000010
1001000100110
111010110111
1100100110010110
1110110100110100
111110000111
1111111000011000
10010111000100
1010010010001011
10111111000010
1111111111110001
1111001111111100
11010100000101
110100
1111110011100110
111000000
1101110010000
1000100101011
101011001101011
1101010101110
1101101100100111
1011111010100111
1110001011001000
1111010000010010
1100011010000
10110100001101
11101100111
101101110101
1100110001001011
1100011111001110
1010000001100010
1111000101000001
1101111000001110
1011100001010001
1011010101111111
1011111000011101
1100010001110011
100001010
1110111100100110
1110000000111100
1001101
1111111010110100
1111111100000100
1010110000101111
1000000000000000
1011110001010010
1010110000110001
1011101011001011
1100011001001011
10000101011111
10101011001111
1100100111000001
1110000110
111111111111111
111111111111111
110100011001000
10101100000101
1011011000011010
1010100010010011
1011010110010011
