1111011
1001110010
1111001000111011
1010010110111
1011101000111
1100100011111
1110001010110
110011110010001
111111111111111
11011000101
1110110111000111
101000011
1111110001010100
1111010011001101
10111100101
1010101010101
1011000100110000
1101000001100111
101010001011
1101110000010110
1111000001101110
10111011101110
1100110000000001
1111101110010101
10101010101010
1110110100100001
1111000110111111
11100100110
1001011011101101
1010011011001000
1111011010110110
1111111101001
1000100010111
1111111100000010
10010010010100
1110000001101011
10100000100001
1100000001011000
10110000010010
1111010100101001
1110111100110010
1100111010111111
1101001001100110
1100001100111010
111100010110
10010011110001
10011000100101
1111101110110001
1110111110100100
1110101000110111
1010101010000111
1101111100010011
11100010010
1110110000100000
1100001100010101
1101011001000000
1000001111001
10011101111010
100100001000010
111111000011011
1111110110000101
1100101010010001
1111000101110110
1110000010111101
1101111101110
1110100101001000
1101011111011000
1011010111010111
11011001000111
100111010101100
1110101101001110
10000010011000
111111111111111
10101101001
1011101110111001
1100110010101001
1110001000001000
11101010110010
1111101100110110
1101010010100001
1100110000000110
1100111110101110
110101111000
1101000010111100
10101010010101
111111111111111
1111100000101100
1010100100101011
1011010010101110
1100001001100100
10001010010100
1101010100111
1100111100000
1100001010100
100010001111
1110001100011011
1011101111000011
110010101101101
111111111111111
1001001000011010
1011010110100111
10100110
11101010110100
1010101111001100
11010010110011
101111100010
1101100101111
1011111000
1001100011011
101000011011111
111111111111111
1011110110100010
1000010001101100
1111011011000011
11000101111001
11111011010011
1110101001011101
1111100000101001
101101110010
1110100100
100100100001
10001110110111
11111100010
1001101011110
1010100000100101
1111011010011100
1111010110011010
11110111001100
1110001101001010
1000000000010
1101111011000011
1101001010000101
101010101111
10000001010101
1001001011011
1111111111110010
1101101111001101
1101000001100001
1111111011110011
1101010010000101
1111010001
1011001011000010
1110010101
1111001110010010
1000111100101
110000010101
1111100110001011
1111010011110010
1101010011011001
111001000100
1101010101101001
10011000100110
1110001011100101
1001110010111
1101100011010100
110000000
10011101010
1110111100000000
10010011010010
1100110001010000
1110110010011011
100010000001
101111101111
1100111101001101
1000101110000
1110110111111010
1011100100100111
100101101100
1111100001111001
