1111101010000000
1011001001
11110110
1110011000110100
1100010001000000
1011100001001100
1010100000000100
1000010000111010
1000101010110111
1100010000101010
1101101110110111
1111001100101001
1111110100101010
1111001001010011
1111110100101111
1100000
1111101110100110
1100001011001000
100001111010
111111010110
1100100000100001
1011101000111111
1001111111011000
1110100001110110
1100110100000111
1110011000011101
1111111010
1001110000101011
101010011101011
1111100011010001
1101101111100001
1110011000011100
1100000100000001
1101111110100110
1000010100100
111100000110011
111101011011110
10010110111101
1111101100111000
1111111010010001
10001001011000
11001111111011
10101010011
1101001001010000
1110011000010001
11000101100101
111000010011011
111111111111111
111111111111111
111111111111111
111111111111111
100110011000100
1100010011
100000001000010
1111100000111101
1110100111111000
111101010000
1011011
101011110101010
11111111101011
110010011111110
111111111111111
10001100101000
11010010
11001110000001
1111011000111000
1111111110010100
101010110100111
1111010010111110
100110000100100
1111101011101
100101111111111
1111001000111101
1101101010101111
1101100110111110
1011110001100001
1000000000000000
1000000000000000
1111111000111000
11111101111010
111111111111111
100111101001111
10111111001
1101101000010101
10001001100111
1110111011001010
11001101111110
1110111010110
1011011110111111
1001000110111100
1000000000000000
1111011000111101
100010110100100
11110010110101
100001011010011
100010100100
1101100000001111
1100011110110111
1100101101110101
1110000111111101
1110000100100110
1010100010001010
1111000001111000
1000000000000000
1111111110000000
101001001000111
100010110001
111100111010
1111100000110110
1111110100100000
1011001001
1110100101111110
1101100111100011
1010111101111
1111001101111110
1111010111100001
1000000000000000
1010111100011100
1000000000000000
11000101101010
1110110000110000
1011100101010001
1011000101010111
1100111010100010
1100010100110101
1110000000100101
1110000011100110
1001011011101001
1000000000000000
1000000000000000
1110011111001111
1100010000001110
1011011001001110
1011001100011110
1010110110001100
1101111101011010
1011001101110
100100110001011
11100100110100
1101111000001101
1101010010001100
1010101000101111
1000000000000000
1111010011110010
1111000110101111
1111110001001110
10100000111011
1111111110011111
10011001011111
110101010000101
111111111111111
111111111111111
111111111111111
111111111111111
11010001111111
1111011001001110
1111101000111100
1111100111000100
1111110101011010
10000011011101
10100111101000
1010110001100
10100110000110
10101011111001
10001110111010
111010101101011
100001101111101
1111011010011010
1111101000100111
