10010111001100
10100111110100
10000010100101
10000001101001
11001111101110
10000011110001
1111000000011100
11000101011
10001111110001
1001101000110
1101100001001
10101001100011
10001001101100
10110100100000
10001100110100
10100001011111
1100110101101001
1111101110000011
101100001111011
1010011001101
1000000000000000
1000000000000000
1001000111010000
1011101111100110
1001010111101
10001001000010
11011101111000
1111100100110101
11000001100110
101111101111101
1101101010111
1101101100000000
1001110000101
1101111000100
1001010111100101
1000000000000000
1001101011000000
1110011101111111
1000111111110
100110100100100
1100110101011001
1110010011110001
1000010011001
1111010011101101
1101100100011110
1110000001111
111001111111010
11000110001001
1000000000000000
1010000011011000
1010001100000100
1111011001000101
11101110110010
10011000111111
1101101110001
11110110111001
1001101010001
1010010110110110
1110001101101010
11010011110010
101000110010001
1100011010101110
1100100110000001
1000000000000000
1110110101001001
11000111101011
101011001100111
100000100001011
100110110000
1110110001000100
1000000000000000
1001001101110101
101100001000101
101100100010110
1111010100110
101101010101
1000000000000000
1001111111100
101101010010101
100001110100111
10010000000001
1010010100100001
1001111000010001
1100010101110011
111110111101
11010101000110
1111001010100000
1011011111011
10001111011011
10001010000100
1000001000100
11110010011110
1101011001011011
1101110101000101
1100111001101101
1101101000110110
1011111010110011
1101000001001110
10011110111010
1000111001111
10111110111000
101100111011110
11110011101
1110111111111100
110101111100001
1100010010110101
1110001010000010
1001011101001
10011000001011
1110110101001110
1110100000100100
11000001011100
100001001000001
1110001111011011
1101100111011110
1011100000101101
100100010110
101110011010001
1101100110110110
100111100001
1001111111111
1111010000011110
1111000011010110
11101010000010
100011101011110
10000000111111
1111001110010100
1000101000111110
1110111011000111
11011101101110
101110111110011
1000000111001
1100010001010011
1111000001101010
1110111011000110
10011011110100
11000111100010
1111001110011001
1011011011110010
1110000010101111
1110000100110110
1111111101000110
11010010000101
11101100010100
1101111110101010
1010000110000101
1010001111000100
11001111000100
10011111101010
110010100
1100110100101001
1001101010111001
11100001
1010100010001011
1011110010000100
1000001100010
10101111100100
111101001000
1010111001101101
1100001111011111
11110101011010
10011011101100
1100001010111101
1100001110111111
1010110011111100
10110011110100
10011011100111
10010010110
10100100110100
