101111010101
1110010010
100101011010
1111111000001010
110100101010
100011101111
110000000000
101010001011
100000000
11011111011
110000
1111101100001101
101101100010
1111110010001100
100101000101
11100100111
1110000100
10111101101
11110111000
10101010110
1111110101000011
100101110110
1111110010000111
110010000011
1111111010101010
1000101000
1101000
10010010010
1110010
10011110111
10010110010
11000100111
1111110111010001
10100
1111111111001110
101100000
1001001010000
10011110110
11011010110
110010110000
10001000100
10000001011
1111010011
1011010
1111111110010001
1111101111110010
1111010001010011
1111110110010010
111000
100100011000
1111100000000010
101100101101
101000101
1111100101100001
111011011
10001000011
1110111001001001
1111001000101111
1111000100111010
1111110011000100
1111010110100011
10011101110
1111001100101110
100011000011
1111111110010101
1111100010101000
100101101110
1111011111100001
100000101000
1111000111110101
1111010001010101
1111101001100001
1111101001101011
10010101000
1111110011101111
1111100001110100
1010000111
1111111100110110
11010000
100101100001
1111110010101000
1001100100
1111000001001111
1111011000010111
1111011101101100
1111000001110011
10111010001
1111111101011100
101011001100
11011100111
111110000
1111110000110010
11110110111
1110000010
1111101101110010
1111001010111000
1111010111010100
1111111001010110
1111101011001110
1111101010010100
1111110000111110
100101100
110100101000
10001010101
110110101
1010101001
1111110011100000
110001011
11000110010
1111110000110100
1111010111010011
1110001111100011
1111100010001011
1111101100111011
1010001111
1000001111001
1011000011011
1111110010111000
101111111
1111100010100111
11011101111
101110
1101100101
1111111010001111
1110101000011101
10011110011
1111011100010101
10101001000
1111111011010101
1111111110100111
11001000011
10010000011
1111110011101010
1111111101010101
1110110111111000
1111101101101000
1111110010000110
1111100010101111
1111000101111001
10001010111
11100101100
1111111011010110
100100010001
11111000
101000000111
111011011
1101100110
10010001001
1111101100110110
1111011000011111
1111110011011101
1111011010000111
1111011101010000
10110001100
11100011
1111101011100000
10000011111
110111011
101110110100
100011010000
1111100011001011
1111101011001111
1111110100110011
1111011011011010
1111101011011101
11110000110
1111101001010001
11100001001
1101111000
