1111110011001111
1111111101111110
1111110001101101
1111110001010001
1111001111010101
1110111010101110
1101001010011111
1111101011001100
11100000101010
101010011000011
1101010010
1111111110010011
11010111100
1111101001010101
11011110000
1101100000011001
1010001010000110
1001111001000000
1100010010100100
1101011000010111
1101011100100001
1101111010011000
1101100000100010
110101011000111
1111101001010010
1110011111101011
1111101111101000
1001111001
11000011001101
10101110000110
1111101110111010
1110111000001010
1111111110111111
1111110101110011
1111000110110101
1111011100001111
10000100000011
10110110111000
10101110010100
11100010100
10010010001100
101110100000000
1111011110110
1101011110011101
1101011111000111
1101111010110111
1110101010011100
1010100010111010
1111100011110011
1011111011110101
11000001011001
11011000101111
1110111110001110
1001001110011
1110100010010111
1110100110100010
1101011110001110
1110100000111110
11111001101100
1010010000000001
1001010010011
100100001101010
1101011000001001
11000110100101
11101101010101
1001100010
100110110001
10000001010000
1000100011110
111000100010000
111111111111111
100101100101100
1010101001001
11100110011000
111100110011001
1100101001010
1010100000111
1101100011101
11100101111
10001110000111
111111111111111
111111111111111
100100000010001
100101000011001
1110011101001
100111001100111
11010100000110
110001001011110
101000110111100
101111110000
1111101100011000
1111111010011110
1111100101001010
110100000010101
11000100000001
11001000101
1111101001110010
1111011111110
1101010111001
111111111111111
111111111111111
111111111111111
100000110111010
1000000000000000
1111100011000101
1000000000000000
1100011001110000
1010001011000011
1011000110000110
1001110100010010
101111101010
111111111111111
111111111111111
100101011110010
1101110111101000
1001110110111101
1000000000000000
10000001011011
1000000000000000
100011000
1011100001110110
1000100010110101
1000000000000000
111100010011
10001101000010
1010101000111100
1101111101100000
1110111100111110
1011001000010111
1100000001111010
1111010101101101
1001100101010011
1100001011010110
1110111010000001
1111001111010100
1111100010110010
1110011100100000
1110101111010000
1011101101100000
1100111001111101
1001000101100110
1000000000000000
1110111010101110
1111101110000011
1101011010111111
1111001010010100
110111101110110
11010100010100
1111011100011101
101010110110101
11110010000010
10011110010100
1111010101
1110011101001100
1100111010001001
1111100001010111
10000000000
1111000001011010
1111010101010110
1100011111001011
11101011101101
1100000011010111
1011111001101010
101111100110
101000100011111
101100100011001
10011000000001
11000001111
1111111110000011
