1110010010000111
1101111101100110
1110101011011100
1110010110110010
1111110100110110
1010010111101
101011000
1101111011101010
1111001111110110
1111100100110100
1110111110000101
1110011001011111
1101100101111100
1101101000000110
1110011011111010
1111010111010010
1101100100111000
111111111111111
111111111111111
110010101101001
111010110110
111010110100111
110011000001101
110001001011100
1101111010101010
1101100101011010
1101011100011010
1110100101101000
1100001011100001
1110011111110010
10000111011110
101100001001110
1111101000000100
1100101101001100
1110011111111
10001110110000
11001101100010
100010010010001
1010111000011
1011111111110100
1010110010100100
1011001100101110
1110001110110011
1110001101110110
1101000000010110
1111100110000111
11000010000
100111011001
1101101000011010
1101010010110001
1110111000111111
110001111000
1110000110111011
1100110101111111
1100000011000110
1011000111000000
1000000000000000
1110100001111000
1110111010010010
1010101111111110
1110100101110110
1000000001
11010111000110
101101101000
1011100100100100
1110111111011010
1111001100001001
1111100010
100100001011011
111111111111111
111111111111111
1111100101111100
10000100110010
111110011011
110111100100
111011010011100
110011000111001
1110110001101100
1110001000001011
111111111111111
111111111111111
111111111111111
110010100011111
1010001001001111
1011111101000110
1100010001001
1111111010011100
1111010111
1111010011001001
1000000011011000
1110000000100001
1100010100100110
11101000001110
1111001000010
1101110001010101
1100101110011100
1010011101100011
1011101111001101
1110101010111011
1100111010101010
1100101100101001
1010101011101111
1010110011001000
100110100111
1100111011110000
1011111010100001
110110000101
1101000010000
1111000100000001
1110101010101000
1111010100001011
1111000110110001
1111101010100101
1011111101100101
1110100100100000
1011111000100110
1001001001111101
1000000000010
1100111000101110
101101110110010
111111111111111
111111001100100
111000001111110
110010101100
1110001000111
10111000011011
1111001000000111
1011011110000
1101100001001010
1010111110001100
1101000110101000
1101001101110100
1100101100010000
1111010010100000
1001000010000
1100011101010111
1111101010111111
1101100110110111
11000101001100
101101110010
110010011011011
10001110001
1101001010101110
1110011011011101
1000000000000000
1001010011000100
1101010101111000
1101111011001100
1100000010001
10100100011010
1110011111101011
1100000100100110
11000100010111
110010011101001
110101011011
1110100000000000
1101110100110100
1110111101101101
110101110011111
1000110110101011
1010101111011011
100100101101100
10001110001001
10101111100
101101000010
101101100100
1010001000000
1101010000101110
1110101011110110
