10110001010
1111110000111000
1111100101100000
1111101101111011
1111001111011010
1111110101101101
1010101110
10001001
1111101001001101
1111110011110110
1111100001001011
1111011010011000
11011001100
1111011010110100
1111101011011111
1111010110101101
1100000100
10101101011
100010001
1111111000000000
1111001010011111
1111101000001111
1111001110100011
1111100000001000
11100
110000001
1111101110010100
1111110101110101
1011010000
10011101001
1111100111110100
11100100101
1111101000010101
101101010100
110101100000
110001110
10010011111
1111110110111001
1111010111
1111111011000010
1111100110100001
1111111000010001
100001001100
10101101110
11101000010
100000100010
101011110111
1001100010
1111010111001001
10101010101
10101011100
1111010110110110
1000011111
100101
10001000100
100101000011
1111101100110001
1100010100
1111101010111000
1111110010110010
110001100100
10110010001
10001111
1000001101
10011110
1111110
0
10010100111
10100110001
100101000111
10000010
100001011111
11110101101
1111111000011111
1111100010111011
1001010001
1111111000101011
1111011110100111
1111101010001111
1111111100100101
1111101000001000
101110010000
100101011110
100001110110
1101011
11001001101
1011100111
1011110111
10111010111
1111110000010111
1111101101001000
1111010111001100
1111110111000111
100010
1111111110000001
1111111001111101
1111101110011010
10101001
101110001001
101000001011
10110111111
110110100
1111101100110010
1111111110100111
110100000
1111110001001001
100011100010
100011101
110100110010
101001001001
1111000101
1111100100000011
1011101010
111001001111
11000101111
1111111101100001
11101100100
1111101101010101
1111110101001110
10110110111
1111100011100010
10000111011
11001001001
100011011111
1111101000000111
100000010001
1111110110011011
10100010
11001110111
10100101010
1111000001
1111111011101010
1111100111101011
10100110110
1111101010011010
111100000
1111111101000000
101001000001
10110010001
1111111110100010
1111111101101011
1111111010101101
10010011110
11100001111
1111101110111111
1111111101011011
10010010011
1111100000010101
111011111101
111011101
11000000101
10111110100
11011111100
1111011011011010
1111101100111100
1111001110111011
1111010110010110
1111111011100111
11010110
1111100010100100
10101100011
10010110111
11001001100
10001111010
1111010000011101
1111010011100001
1111010100
1111100110111101
1111110001101110
