1110111100100101
1101110111101010
1101111111110011
1110001001101110
1011110110000010
1110001110000110
1000000000000000
1000000000000000
1111001111110111
1111001010100110
1101111010000000
1110000101110011
1110110111100011
1101101001000110
1110100100001110
1101110100100110
1011111100010101
1100101100100101
1101101001100001
10010110010
11011101000110
11011110011110
11011101001011
11100001010101
1010011100000
1111001101000000
1110010011011000
1110011110000010
1111110110111011
1111111100100111
100001010010101
1110110111001101
1101000101110100
1111000111010110
11001000010100
111111111111111
111111111111111
1011101101101
1110010000111010
1110001011101010
1110000111111100
1000010100000
10000110011101
1101010100100
1000001000100
1101110101100001
1011011011001110
111111011000111
111111111111111
111111111111111
111101100111
1100100110111001
1111010010110010
10010000100000
11100100101111
1100110110111010
10110011001
101011011010111
1000000000000000
1011011010011001
111111111111111
111111111111111
1000001000100
1000010011100100
1100000011010000
1101110000110111
10001010011010
111111111111111
1111110111101101
1011011010111
1101111000101001
1011101111110110
10110011110000
111111111111111
1010011010110
1100110111100010
1010101100010010
1100010110001100
1110111011011111
1110011000101111
10010000100110
110000110110000
1101000100011010
10100111010010
1110101010110000
1001110001100
1101001001
1110110110111110
1101010010101010
1010001110100011
1111001110101010
1101101100001100
1111010101100100
10101110000110
10111000000101
1101101010000111
100001101011000
1111001101000100
11000100110100
100110100111011
101101001010101
110101111101
1000000100000
1100011110011110
1101110110000110
1101101001111010
1111101100000100
111111111111111
100100111001011
101011011011001
1011001000111010
11110100100110
11000111100111
1111001110010111
1111011001110000
1011100111110010
1000000000000000
10001001111010
110100001001001
1100110010010111
1111001100000010
1111100001110011
1111100101110001
1111110101011101
1111111010001111
1111010000011010
10100010011000
11010101101110
1000000000000000
1000111010010110
1110110001000111
1111011111110100
1100001011000
11011100111010
1100100010111111
10110111110
10001100111100
1111011010101001
1110100111011011
1101010111010
10001010111
1000011101101100
1101011000001101
1110000010010110
1101101000101110
100000101100
1000110001001100
1100100110101101
1000101101
101110011000
1111111000101101
1110100000010011
1010001100100011
10010001010100
1101110100011101
1110110001101001
1110111001101110
1110001011110101
1101000010011100
1110101101110110
101010111101101
111111010101000
111111111111111
111111111111111
111010110000100
1110000001001011
1101100001101100
1101111110010100
1110001101000010
