1111010000001000
1110001001010101
1111110001110010
11101010111111
1001011111011000
1001100100011100
1000101000011
1001001111110011
1101110010110100
1110011110010000
1010111100001110
1110010010001000
1101111000101000
100010011
100010001111110
100001010100101
1110111110001011
1100010001
1111011010100110
111101101011
1000000000000000
10010001101
1111010100001101
1110100110
1110001001111000
10101110110
1011101000111000
11000101011101
1111000011010101
1000001011111111
1101111111110011
10011010110
10101100010101
1000000000000000
1110101111100110
100100011110000
10010010011011
1111001011001000
100010111000100
1001111011101001
101001101111
1111011011001010
1011110001010100
1101001101010011
1110000111011
101101010101
11101111010
1011010101110000
11011111001101
10011111011101
10101010111110
1111100111100100
1010001111110101
1110011001110111
1001010010110000
1101101101010
1010011101000
100000110011
1010001100110000
1001011110001
1111100111101100
10000001110111
1101010000111110
1110110001001000
