1101011000010001
1111100000100000
100011001111
1101011011000101
1111100110100001
1110111111011011
1100010010101110
1111001101101011
1101010001110111
1111100001111001
1110111001010010
11101010001
1110110101010101
1011001111010100
1111111110100001
1101100001101011
1111110111110100
1100011110101010
1111001111110111
1101101010001111
1110001011110100
100011100000
1100110000001101
1110111000100100
1100001100111110
1100101111110001
1100100010
1101011111100110
1110100001000100
1101011001001110
1101010010001110
1110101010001000
10001011100
1111000000101101
11000000100
1111010111001100
1111000111110000
1101111100010100
1100100001000111
1111011010000011
1110110010010101
1111001000101100
1011100111001110
1011101000111000
1101100111000011
1110101100010110
111110110011
1100100010101100
1011100111101010
1100110100111100
1010111010101000
1111110001001010
1010101001001
1111011101000110
1101101110001110
1100010111010000
1101100111011101
111010000101
1100100000100111
11001100000
1101001111111110
1000001110
100011100010
11011110011
