100000111000
11001111011111
1010011101111011
11001111010011
1100101011000
10001010101110
1100101100100100
1110111111010100
1100001000000111
1000000000000000
10111001010101
1110011011100
1100101111110
1111010010011111
1110111111100111
1111010101100001
10101101101001
1001100100011000
1110100111010101
1111011000011000
101011100001000
11011110101001
101001011111101
1110110000101010
11000001010
100010011010
1100101011110000
1111100111101110
10001110100110
1110101001100100
1110101001011001
1000000001001111
11111000000110
1111100110111010
10010001101100
1111111010101110
1001010011111011
10101010010000
1000000000000000
1111001010101001
1000000000000000
1001001000001010
101011111
1011110001011
1111001111001000
1000000000000000
111111100000
1111011111111100
11011000110
1111000111000101
10101001001000
10000101101
11010011110000
1110101011011001
1100100110110110
1110101011100111
1011101000010101
1001011000101001
111101101000100
1101000011000010
1000101100101100
1101000011001110
1010000001000001
11001100101101
