1001100010100
1101110111110000
1100001101010
1111100101101000
1111101001100001
1001010101100100
1111110001101000
1101000000110001
111111111000
1001000011
1100010010010001
11001110111
10011110010001
1111110010101
11001011100
1011010010011
10111110011010
1011000100101110
1100110110110011
1111101010101000
1100001101010
1111010101001111
1000101100111
1101111000000101
1101011001101
1100001100110110
1010011010111001
10001010111111
11010100101
1111110010100111
1110000001010110
1111100101111100
1110111110111
1111101010000010
1101111111110101
1110111010110101
1001101001000011
10100001110110
1100011011
1000000000000000
10011000111
1000001000011001
1011100110
1000000000000000
10000101101000
10110011010110
1110111100111000
1110010000110111
100000000011111
1101011001000111
10111010000100
11000010
11110011100
1111111000110101
1010100001101010
1110101001111000
1110111111101001
1110101110010100
10100100001000
1100011001110010
1101001001000010
1110110110011110
1000011010011
1101001010011110
