1010011100101
1111101010011101
1000100111110010
1111111101011111
11011001110111
10110100011101
1011101100011101
1000001000011101
1001100110001100
1010011011001010
1001100010001111
1111000100111011
1111010101001
10111101101
1111001101000111
1000101111001101
1101101110100010
1011100101010011
1010000001011111
10111000110
1010111111101
11000111001010
11100000111010
10000000010100
10000101100010
1110011001011001
1010011110010100
110100010000
1110011001101110
1010100101010
1111000111110110
1111011000110001
1011011111110101
11011000100000
1101001010011100
1110100101001011
1101010001111
1011001001101
1000000000000000
1110110001011111
100001001010
1111010101010101
1110000000010010
1001001110001101
1011100000011110
1000000000000000
10100011000101
1110001101111000
1111010001100011
1011100000001
10100101100001
1010011011101100
1100110100100101
111110001010
1111100000011011
1111000010000010
1001011001110
1100011000010111
1101001010111
10001011010101
1010010100110000
1000000000000000
1011110110100001
1011111001001100
