1110010100100101
1010101100111
1001111011001000
11001011111000
1000000000000000
1001111101100001
1011100101000
110110010011
10011000101100
1001110011010
110010010100101
1111100001000010
10000110010011
10111010001
11000001101000
1011100100111
10000100111100
1100110011010111
101010101111100
1111010110101110
1010100010010
1001101001110
1110011100110001
10001011001
1100111000000
1000000000000000
1110011110001000
1010110000011101
11010000000110
1110111001101111
100001011100100
1100100011110011
1111111110101101
1110111010100010
11001101101100
1110000001010001
1011100110101
1011000100010100
1110011001001011
1100101111100011
1111111110101100
1111101101101011
1100111100001111
10101111101100
1101011110111111
1100001011111
11111110010
1100110001
101101000011000
1001100100001110
1111001101100111
1111111001011
1000000000000000
1000000000000000
1111111100101001
1101110110010101
1011101000110110
10010100010
1111100000001
1011001001001011
101101001001
1110111001001110
1110000110110100
11010110110101
