1011001000101011
1011011000110100
1011110110011010
1100111101001001
1111100101
1110111101
110011101000
100101111110100
1101011110111111
1110001111011111
1101101111011101
1110101110111010
1011001101001100
1111100011001001
11011101100111
1111011000010111
1001001110000
101001001101
1100001101000101
11000101000
100100101101111
100000111110100
11100011010111
11010101111101
101001111101
1100010011110000
1101010010100111
11100001
1110000011111101
10111101111000
1111010100111100
1010110101000
1000000000000000
1111101101010111
1000001010100101
1111101011011100
111101000001
1000000000000000
1110010000010110
11101110100011
110001110011
1110111101110111
1000000000000000
1111010101101110
1011101011111111
1010100101010001
1100101000010100
1100111100011000
101001111001
1111011010101001
10000010100000
1100100100111011
1000000000000000
1100100110001001
1101110111110100
11011011101
1011011111011111
1010011100110111
1100110110111
1001011011100
1111111111000011
1111011011110111
1011111001100110
1101000101000111
