1000000000000000
10010000100010
1101100000000101
1111111100101
1010110011001000
100101001001
11001101111100
1000110011111
1000000000000000
110110100110
1100000001100111
11010110000
10001110110101
1111001000111010
1101010001100011
1101011011100111
1101101110001
1111010000110101
100011101001001
11100010110110
1110011011100000
110000011110
11111011000101
1100011101000000
1011001101111111
1110000000000010
1101111010011110
1100000000101011
110111011100
1100111110011010
1010111000011011
1111111010110110
10110101010
1111101110000101
1011011010
11011110010101
1011100010101100
1100010000110
1110101110101101
1000000110100111
100001000011
1101011010001101
1000010001100
1011110110001110
1100001110011100
1101110110001100
1011000111000001
100011011100101
10010010101110
1100110010100000
1111111111010011
1111100100010110
10100011011001
11010101101
1110101001110001
1111110111101101
1110001000011010
1000001001001010
1110110100100001
1000000000000000
1110100110100101
100000001100110
1011011100
1010111100110101
