1000110011001110
1011111101011000
1110011111110011
1111000100010100
1111000011110011
1011110110111
1100000111110001
1100000100110100
1011101010010100
1011101111011100
110111001111
1010000110000010
1110111010111000
11111001010
1100100101100000
1111110101110001
1110011011000110
1010111110100111
1111111111100001
1111100101000100
1110011111000101
11110001000
1110010010110101
1100101000001101
1100110001100111
1001111111110010
101001100011111
1000000000000000
11111001111000
1110000111010011
1111110011011
1111110110101100
100011100000110
1001101001100101
1011111000000110
1010111001110010
1010100011010001
1110010111100100
1100110111
10101010010111
1100010110011000
1000101010101
1011001001
1110000101000001
1000111001010011
1111111110100010
1111010110010011
111000101110
1111001011000000
1001001110000101
1101100111011010
1000000000000000
111000110111
1010011111011111
1010010010001
10101011101
1011110011011000
1001111110111101
10010001001000
1001001000101000
10001010011
10111110101
1110010011010000
1110001100100
