1100111110101111
10001011001010
1001110100001000
1100111100111
1110110011000011
1010110100100110
1101011110110110
1111001110000010
1110111010111000
1011010010110
111101111000
1111100000010110
110000010010
11100011001
10011001111100
1101101001110101
11110011001101
1010101101001111
11001110011110
1011011111010110
10111101001101
10011111010100
1001001010101010
1001101100111011
1101010011000101
1111100111000010
1001100011011
100111010011000
1001100100111011
1110001110100010
1100111010100010
10001011110110
10010101111001
10110000010
1010100011011000
10100101000111
1111100100100011
101000111000101
1110100001111
1100100111010101
1111011101010001
1000000000000000
1111111001111111
1110011011010010
100111110011
1000000000000000
1001100010001010
10001110000100
1000100111101011
11111001110110
1110101100000110
10110000011
11101111110011
110010110
111100100000111
1000101100100
1110101010010101
11101111001100
1110101001000101
1010100101101101
1111001011011010
1111100011100011
1111111100101101
1011110101111100
