1101001101010111
111000110111
1110000100000101
111010101111
1110011101011001
11011001001
101010110101
1101111110001010
1101000000010101
1111101111
101000111001
1110001100100011
1101001110010011
101110111101
1101100101110011
1101101000110100
1011100101000
1010011110100111
1011111011110010
1111110001111111
1110010101111010
101110010001
1101100000110110
1110111010100
1111011000100
1011101000010111
1110100011001101
1001010000110100
1000011
1110100111100101
1101010010
1110011111001100
1110110101000100
1101010110110111
1101001000010010
1101000100110
1110110000001101
1101111101000100
1100110011110001
1100011000101110
111001100011
1100100111000110
1111100100111101
111011111010
1101100011011011
1101111111010011
1101111100100110
1110101010111001
1110000010101110
1100101101111111
1100001101111101
1111101001011001
1111110100011001
1111110010110110
1111000100000000
1111110110100100
1110011111001101
10000010111
1011111100101001
1110010010010001
1110101110111010
1101111111100010
1101001100101001
1110101111011000
