1000000000000000
1011011111110001
1000110101101110
1011000111000001
100010010110000
10010000000000
111100100111
1001001110011
1110010100111101
1101100000000
11101111110
1110000110010001
1100111110100100
1111010011111101
1010110001101100
1011011111010011
1010110010110010
1111000110000110
1010111010100111
111011111100
1000110100110
1010110001110
101100011010000
111010001101
1110101100001101
1110111111010110
1101111100110110
1010011100001000
1101100101100100
1110011100010110
1101110000101100
1011101010000000
1101110010010011
1100111101111100
1010000100111010
1100111011010111
1111001111110011
1111011110010
1111011010001111
11111001110111
1100101010010101
1001110100011101
111000011001
1110011001110100
1110110001100100
1011010000101
1011111100001
1000001010011
100100111111011
1011011100111101
100000000000010
1001011100100011
111000011100110
1000000000000000
1100011011110110
1011011010001
1011110100001111
1010110101111110
101100011000100
1001000011100110
10011011110011
1011011010000
1011110100101000
1000000101110
