1000010111000100
1101101110100101
1011100101000110
1101010101010111
1110110010110111
1011001100111001
1100011000111000
1111100111111111
1011011010001000
1011010110011
11100001101110
1111100101111101
10011001011010
1110111101001110
1111111010110010
1100110001
10001100011000
1100000100011001
10001101110100
1111000110001101
1010111011010110
1101011001110111
1111101110000100
1001010110111001
1010010001000110
1111101111111
1110110101011010
111000000100
100010100111
10011011100111
1000000000000000
1101000110110101
1100101101001111
1110110101111110
1011110101100000
1010011000100
111011110001
1100011100100110
11000011
1000000000000000
100000101111
1110001110101110
1101011011001010
1111110111101000
1011110111111000
1011001011010010
1011010000011101
1111100101011010
1101110111101110
1011100011110001
10000011111111
1110000000
1111000111101001
11101100
11001111100011
1111101101100
1001000010011001
1111011111101111
11101100010011
1111001011001110
1110111100110101
1111111010
1110110010100100
100110010010011
