1101010111000
1101110100011
1110001111100100
1111100000100101
101000001010101
1101101110010101
1101010111100010
1100000000101000
10111100000100
1100100111010
10010001100101
10000010110
1010100010001000
1011110001111
1101100101010011
1101101011
1000010000010011
1110110111111110
1000100011110110
1101101101101001
1100101001010
1100000010100100
1101100001001111
1101000010111000
1001110001010
1111110100000101
1110111001011111
10101110101101
100101011111110
1101010111111010
111101110011
1100110100111001
1001001111001001
110011101010
1110111100111111
1101010000010000
1001101100100
1100000001101
1110110010010111
110101011001000
11000001100
1101001011010111
1110011111010110
1110111110110100
10001101100000
10111001011101
11110101000010
11100001100000
1100011001101100
1000100010110001
1111000111010011
1110110011110111
1000000000000000
1010000111
1111010101110100
10010010010010
1110111110010
110110100001
1101111000100011
1100100111001010
1000101111011
1110001101001101
110000001111
1100100111010001
