1011110000000
110001000011
111100010011
1100110101010001
1010000110110
1101111011111100
1100010100000
1101011111000000
10010100110010
1100000011001100
1011011110111011
1111110110001000
1011111000110010
1111000101000001
110100101110
1111011000110101
1101110001100010
100100011
10010101000
1000011001
1011011101000100
1010010101010100
1010010011100000
1100010110101001
1111111101100
111101010011010
101010100
111001001
1100000011000
1110011110010000
1100111010110
1111101111101010
100010001111110
1011111011101010
1000110001001011
1101001101011001
1110000000100001
111100001001010
1110111011100000
1111011001111111
1110101010000010
10100011000010
1111111000010111
10110011010111
100101010000111
1100010110111101
1100100011001001
1000111010001010
10100011101001
11001101011110
1100100000011110
1111111010101000
1111010101010100
110011101110101
1000111101000111
1110010110111000
1110101010011
100111001101111
1010011011101001
10010101110100
1100111110101
100001101011101
1111110000110001
1001000000010
