1100100101010111
1110111001010110
1011110101101110
1101110011111101
1100111101000000
111011111001
10110101
1111100001001110
1101100010100110
101010001101
11011101111
1111010111011010
1110110100000100
1110100101111110
1110011110111101
1001010100111
1111110001100001
1111000001010
1001011100101
1110101110000000
1100110011111
1110011010010
1111111101100000
11111111
1111001100100100
1110101110
1111100011110000
10101001100
1101001000000001
1101010110000010
1111110101111111
1000000000000000
