11000111
1010011111111000
1101001011011000
101011101111
1111000101101
1110011000101
111011000101
1101101000010100
1111100000101
111100100100
11010110
1101111101000
1011111101011011
1101111010000101
1100100101111111
1110111010011001
1110111010000101
10011001011010
1001010100000110
1111111001011001
1110000010011001
1110101101011111
1101100110100101
110101001110
1101101111001101
111100110
1111011000111001
111001011111
1110101110001010
1101111111010001
11000100000011
1111000100010110
