1111010011000111
1011010111001001
1101000001110111
1011010
110101101110
1111101001010010
1110100000011010
1011101000
1101111110100110
11110110111
1110011001010100
1110110100001000
1101100100110011
101111100000
1111000111010011
1110001010000100
1100110100
1110010011111101
1110011110101
1111000101110101
1110111101111001
1110101111011100
111111001101
1110011010010101
1111111000011110
1000000100000
1101001111111010
1011110000101
1110001101001000
11100000010111
1111000011100011
1110010101111010
