110000011110
1100110001011111
1110110101001011
1111010101111100
10000110101110
1111000001101011
1110101001010110
1110011101011111
1110111101011010
1110011110100000
1111100101101000
11100010100010
1111110101000011
1111011010001101
1101110010000101
1111101110
110011110001
1110111110100001
1101110010110101
1011111100001110
1111010110011011
1011010101101011
111001011011
1101011011001
10101111011011
1111011111000000
1100101110011001
1111101101111
1101110011110110
1111001010111110
1111011100010011
110001101001
