1000011101010
1110001110011110
1101110010110000
1110011000011110
110100010100
100100100101
11001110110
1111100100110111
1100111101011
10100110101011
1111111000010100
1101100010111010
1110000111000100
110100111101
1100010111001
11101101000
1110100011110100
1111000000110000
11110
1110001001111110
1110101000010
1111001001111011
1110010111000101
1110110110101000
101100010011
1011010010111001
1110110101101100
1100100111001001
1101001000111111
1110011000110010
1111001000001001
1111111100111100
