1000010011
1101011011111001
1011000111110101
1101101011100001
1100001111000000
1000000000000000
1011101110110110
1000000000000000
1000000000000000
1111010101010101
1110001111000101
1110011000001100
110011000010
1000111010
1000000000000000
1011110000001011
1011011111000101
1011111111110000
1001101110110111
1111110100100000
1001110111111
1111010110100100
1010111110101000
101101111010
1000000000000000
1110010110100101
11001001010110
1011110111111110
1111111111110001
1111000010111001
111110011100
1110101111111101
100110100110
10011111011011
100110101101111
111111001101
1101101110101010
1000000000000000
1000000000000000
1101001100110
1100001001011001
1110110001010001
1100010101010101
1110000000111100
1110010001010
111100111100
1110110000111100
10101110011011
110110100
1011100001101110
10001011110010
10110010011101
1011010110000111
1101111010011000
1110001011000111
11101110010
1011011101
1111101101100001
1110000110100011
1001101001000001
11000100101100
111111111011111
1011011000110011
1100010110100100
1001101111001000
1100100101000
1101100001100010
101001100111
1111111110010110
111111001110
1110000000010101
1010001111111001
1000000000000000
1010011001111110
11001110001100
1110010101100
111011010
1011010011110001
110100001000110
100111011010000
10110001100011
1110010110000
1111110100111010
110100010101
1011001101100001
1000000000000000
1011001011001011
1100110010110
1101010000101
100100010111010
1110000010001101
1110110111011010
111010100010110
110101000100001
100111010000101
1111100110110000
10011111101
1011101010111100
1001111011100100
10101011000001
110101000101000
1110101101100
1011000001000010
1001110101011000
1010111010001101
1110010011011111
1100011100001
11000001010111
101111000110
1100110000000011
1101011110011010
110100111100111
11111100010110
11001000010001
1111100001100
1011100111001111
1111000100100111
10110101110010
1111100110001000
11110010011
1100111000110
11101011000110
100011001101
1000110101110
110001101110100
1011010101110
10101101111001
101010010010100
101111000111
101001111100100
111111111111111
10000101100000
1110010010100011
1111111010101101
11010111110001
1101101111001
1011101010111010
1111001000101000
10101010110
1111101111110100
11110011001
111111111111111
10010110111010
1110001110010
1100111111110001
101110010101010
11001001010100
1100011000001
1001010101001
1100110101011000
1100010001011110
1111000100001010
1010010000010000
1011110000010110
111100100001
1010010011000100
1011111010111001
1110010110011
101010000100100
11011000110100
110000010001010
101000001100001
1001001101101000
1011110000101001
1010101001010011
10110010000110
111010011001111
1110010111111101
1011101001100011
