1010010010
1111111110100001
111000110
1000100110011111
1000000100000001
10001000100
110011011100110
11101110011110
110010000100001
111000011110101
1001011011001
1110100001001111
1110010100111100
111111111111111
11011100011001
1111000001011101
111100010010001
11001110000
1110000101010001
111111111111111
1110001100100011
100011000111001
111111111111111
1011000000011
111100110101
1011111100000
111111111111111
1110000010001011
1000000000000000
1000000000000000
1001100101010111
111010000001
1001111000110
1111001101000
1110101001111010
1101111001110
1001111001100101
101100100110
11000010001
1101110001111111
1111010011101100
1001110000010011
1000000000000000
110010010001
111011111100110
100101101000000
1100001100000110
1000101000111110
1000000000000000
1001000101100111
1011001101100100
1111000101010111
1010011010001001
1100100100010101
110101100001
1100011000110011
100001111001111
10010111111000
100101100001011
1011000111011101
1000000000000000
1011000000011011
1111110000111011
11100000111111
110110101101
1100101011110001
1001101010010
1000000000000000
1011011011001111
11010110010001
1110101001100011
110101001101001
10001011010110
1110011111011100
1000000000000000
1110001011010011
1110111011010
1101000001101101
1110110000111000
10110101110110
1100101101111111
101010001
1011001101010010
1111001101100001
1001011101000
1011111110100
1101100011011111
1000000000000000
1000011011111000
1001100010101101
1100111001011110
1110100100101101
10100100001
1100111011110100
1011000010000000
1001110111110100
1110010011011001
1110010101110101
101100000111
1101100000011111
1000000000000000
1000000000000000
1000000000000000
1011110010111101
1110100110110010
1110011001110010
1111000010010011
10010011111
1110001011100010
101010110110
101011100110111
1111110110110000
10001101001110
1011101010001100
10000010011111
111111111111111
1000000000000000
100100101110110
1110111011010111
111111111111111
110110100110101
1110010011010001
1101110000010111
110011110001011
101010101100
1111111100000011
1111100100100100
1100100010110010
11111111001111
1001011101101001
110010110100
110001101100
1110110100011100
1100011110100111
1001010001001000
1110011001111000
1111101001000110
111111110
1111001111010010
1111101010111101
1011010000100100
1111100100111011
1000000000000000
1111000001111101
1101011011100010
1010100001111010
1111010101101001
1010001001010110
1101100001110000
1111110010110000
1111001101001100
101000110100110
11101111101110
10100101101000
1000101001010000
1101101001000001
100010110
1111010000000010
11100001000
1001111111100
1011011010110100
1100001001001000
1000000000000000
1101000110111111
1010010000000
11100110001001
1110001000010000
1110100000011111
10100000010
