1111111101010010
1101101111010001
1011100000000
11101100011111
111010000010110
1010111001010101
1100110100010110
1010100110100111
1001100100110001
1011111100110110
1101011011000
10111010010001
10010010111001
1000000000000000
1000010100110100
100001000111000
101001100100011
110111100110101
11100000010000
10100111010110
101101101100
1100011001000100
1101001001000010
1101010001011110
1101111111110100
110111000110010
1000000000000000
1111000100010
10110011010111
100000010100
1101101110010000
101110001
1101001010111010
1111011001011111
1100111111100001
1100101001111011
1110000101100010
1000010001100
111011100010110
1110101001111010
10001010001
1101010101110011
1100101101111010
1011001011000011
1110111111100111
1110011101011101
1111000000100111
1110101000111000
1100000110101010
1101000011000101
1100101101010101
111100011111001
10101001000
1000011001
1000000000000000
1001111100101110
1000111010011101
1001111011111101
1100100010000101
1111010110001000
1110110001110101
1110100001100011
111101011011
1110110010100001
1000000101000001
1100001100101000
1000100001100101
1100000100111101
1101110000111111
1101011000011000
1101001100001111
1000111010010111
1001100010000111
1110111111111100
10000010100000
1111111000000101
1100100111000010
1101111101000011
10101010011101
1000000000000000
10010100100000
11010110101010
111111100111
10111100000111
1101001100101110
1110110011000011
1100010001111011
1011100100101111
1110001111001101
10101000000010
1111001011010100
111111111111111
10010111100010
10110101111011
101010011000100
10010011101000
10111011111010
1000111000111
101010010110001
100100000100100
111101000001
11000000100110
10101111110111
111111111111111
110110
101111101111110
100111000110000
110010001011001
11111110100000
1110101110010
1001010111111
111111111111111
101010100001111
110111000101
111111111111111
1010101110000010
111111111100000
100011010100101
101000001101101
100101101010110
1111000000110
1110001011000
11111001111
11001110
110011111011110
1101110011011
100110001110
10010101010011
1100001101110011
101000101110101
111111111111111
1111010011100
1101000111
110111110000
10010010001100
1111010110000
1101101001011101
1101110001010000
1100101110001000
1001110110000
101100000010101
1110000101111110
1101001000000111
111011110000001
110110011000001
1011001011011110
1100110101000010
1101110111011
1111111110111111
1100011000110010
1011000001000011
1010101101111000
1010100010011010
101110000001
1000000000000000
1000000000000000
1100100111010011
1110100100
1000000000000000
1000000000000000
1000000000000000
1000000000000000
1000000000000000
1011111000110110
1000000000000000
1000000000000000
1101010111100
1101100000111100
11011101111011
