1111011110011111
1111011101011010
1101001011
1111000100010101
1101110001001110
1111111001001001
1110110001000111
111111111101
1111100110000100
111000010101
1101100100001011
1101010000
1011101000110100
1101110010000110
10011001000100
1111010010000111
110100110
1011111101001111
1110001001011001
1100110101111011
100101101001
110001110111
100100110000
1101111111111111
101000100000
1110001101110
1010100101110000
1100100101100111
1010001011110101
1101110011111100
1111011110101111
1001010101111101
1110111011001
1111101001111110
1100000010100101
100101000
1011111010111100
1001111011010010
10011000011011
1111010011100010
1111101111000010
1100111000101111
1110100000010010
100110001000
1111101000001000
1011001111010000
100011011110100
1011010010001010
110000010101
10101100100
11000000001110
1101010001011001
1110101111010101
1111101111010010
1011011000100110
1001001001110111
11001111110110
110011001100
1101011010111111
1111101100111001
1000111100101001
1011001111011111
1110011011001000
1111111010010001
