1111000110010101
1101100111000000
1111000011000011
1101010110011010
111101011000
1000110000001
10110011101011
1111011110010100
1110001111101001
1100110101110100
1101000101110110
1100000011101
1110100100011111
1111100110111000
1011100011101
1000001111
1101011011010100
1111101000110010
10011010011101
110010000101
101111111100
11110111110
1111001001010100
10001100001
1000000000000000
1111000111100111
1111101101101110
1111000010111000
1110111000110101
1000000000000000
1011010110011001
1110101010110000
