1110011001111101
1111010110110000
1011010111101
10101001001000
1110110101111110
1100101100000010
1111100100110100
1101010101111011
1011000111010111
1110101001101100
111000111
100110110
1110001010011011
10110110011101
1110010000010100
1111110000101010
1110000100110
1110001101100100
1101111001001011
1110110010100101
1011111001100011
1100000100100111
1110111100001
1010010010100010
1010110011100101
1010010001101
11101011001
1111100010100100
1111100000100
11010101001
1101111011000100
111000001010
