1111011111001001
11000011010
1101110111101111
1100011010110010
1001100100011000
1000000000000000
1000100101011010
1010011001110001
11111110111011
1011000011111010
1010011011111110
1111001000000010
1111110100010001
1111111000010111
1101100001100100
1000101110111010
1000000000000000
1011011011101110
1011001101110010
1000000000000000
1000110010110001
1010111010000011
1110000100111011
1110011011100111
100011
100001011
101000101011011
1011001110100100
10011000100010
11011110111000
1111110011100000
111110110010
1100010001100111
1110111101010111
1110001011010011
1111101000111010
11110100000011
1110111010111101
1010110010110011
111111111111111
1111110010101100
100111000100
11010111101001
10001101101010
10011101000001
1110101111101011
1111001011111001
100011011010001
10100101101110
10100111001110
1000110110000
1000110100110011
111111111111111
1111101010010100
1000111100111
100011000100111
1010110
1111011
10001110111
1111111101011110
1101111001110010
1101111111011
1001001011010
1100011001000000
1010000110010111
101100011010111
10101101011101
1001011111101111
11101000100010
11101110001
1111011110110111
1100011100100111
11010101000101
1100110010000101
1011110010001
10001001101101
1000011001110111
1000000000000000
111111111111111
100000111011010
100111111000100
1001001111110
10100100111100
1010111111100010
1111010010111101
11010011010110
1100001010010001
10101001011110
11010001111110
1000000000000000
1101111001100000
1010111000001010
1011101100110000
11101111000001
1100110111110
1101101000100011
1101001011010010
100011110110
11111110101010
1110100101110
101110101111001
11001000110100
1100011010011110
1000000000000000
1001100011101011
1001100010110000
1101101010001
1110111001110010
1001001111011
1111011101001100
11111001000011
1010110100100
1111110011000100
10111000011011
1111100110000111
1011010101110100
1000000000000000
1111101010101010
1011111110110101
1000000000000000
1010101001010000
1000000000000000
1110001010011011
101101000101101
1100010001010111
1000000000000000
10000000001000
1010001001011100
1000000000000000
1100010111010001
1100000001111111
1010001011110000
1000000000000000
1000000000000000
1100011010111101
10000100110111
101111000100101
1000000000000000
1000000000000000
1000100101000011
100011000100101
11111001
1101011010000100
1110001101011000
110011010000
1100001110101100
1000101100011011
1110111011100011
100100001100011
100111111110001
1010111110101001
1000000000000000
1000000000000000
1011000110111101
1010111000000001
11010100101101
1010001001000
1111010001111110
1000110111111001
1011111111
11010011010110
11010001000101
110111010010111
111111111111111
1000100011101010
1000000000000000
1010101110110110
1010010010101111
1111001101110010
