101100110
10110001001110
100000100011000
1110111110001110
1101010110101
1010101010001
1001110010010001
100110001110111
111111111111111
111001000101001
110100001111111
110101000111
111100101110
1000000000000000
1101011000011100
1110010100111
111111111111111
101100100111010
100111101011
1110010000000000
10001011100101
11011010101011
10111000011110
1100111110110001
1110010100000
1100110100000001
1111001110100111
101110000010001
1111101011000000
1100111100010000
10111101101
11011010
1111010010100111
1111111011101010
1001111100101
1111000111000
110001000101
100111110000010
100001111011101
1000000000000000
1101010110110
1101001000111101
1100101010011000
1111011011011111
1011101001011110
1011010001111011
1101101111001011
10011001101010
11000010010
1111011110110100
1011111011101001
1101100110100
1000000000000000
1100111110001111
10110101011001
1110111100000011
1010011011001110
10110101111
1011111001001
10011100010011
1111011010100001
1100111001111000
100010011000
1110100011101011
10001111100111
100101100
10001111011100
1101100111110001
1011001110000110
1111100001010001
11000000110110
100110001100100
11101100101110
1110001000111110
1111010000000010
1011110011101011
1100011100000010
1111011110101001
1001000111101010
1000101101110
1001101000010100
1010111000000110
1010010111111001
1110010101000000
10000101110111
1110110010000000
1110001110100101
10100101000001
1101100010010100
1100110001101111
1000000000000000
1010010111010110
100101010110101
101010000010
1000000000000000
1000000000000000
1000000000000000
1000100110111100
1010001011011000
1110101100010101
101111111101001
110011111111110
1100111000001110
1001000101100001
100101111111111
111101100100000
111010001101011
101010110110111
10110000010100
10111010
1100110100011011
1111011111010010
11010011010100
1111111011100
1111101011110101
1001111001010100
1001111011101011
1010011110111100
1110001001110001
11010001000100
101101011000010
11100011101011
100010110011011
101111010011111
100011111110111
1010111101101
1101001110011000
1000010111100101
1010001110100010
1100101101111001
1000010101110110
1000000000000000
1011110101110100
1101101111
1101100011110010
1001111110101
11110010000111
1100000010100
11001001000110
10100010010
1001010011101111
1000000000000000
1111101101110110
1011111110011101
1000000000000000
1011111111001011
1010000010
1100110110010010
1110010011000110
1110100101111101
1101000001011001
1000110011000011
1000000000000000
1000000000000000
1011100001100000
1111101011001111
1110001000111110
1110001101010010
100011011100100
1100110111010
1000000000000000
1000000000000000
1000000000000000
1000000000000000
1000000000000000
1000000000000000
1001101010110001
1111001001101010
1111101110010011
