1111010101101000
10011110000
1110111011010011
111011100101
1110101011000001
1111001101001111
1111100011010010
1110111010111011
1110110100010010
1110111001111010
1111011000101010
1110110101111111
1111100110000111
1111100100011010
1111011101001001
10001101101
100110010000
101010010
1111010110100100
0
110000001101
1111100010110100
1111111110101011
1111111110000001
11011
1111111000001100
1111000101110110
1111110100100001
1110110000011000
1110110100111000
100000010100
1110110001000111
1110110001001010
1110101010000100
1111110010001001
1110111001111011
1111011101110111
1110110001111010
1111001010101010
1110101010100011
10000111011
1110110001110010
11000001
1111101001100111
1110101101101000
1110101011001011
1111111110011110
1110010101000001
101100101100
110110110000
1111110100000000
1111100101000000
1111101001000100
1111111000101101
1111111011111111
1110111000001010
1111100010101010
1110111110101001
1110010101110011
1111011011011001
1101100011000100
1111110100100100
1111100111000001
1110100011110000
