1111101001100011
111001011
1110100011110101
111100011110
110000000111011
111110000010
1110010100110010
1010000110101001
100001011000001
1111010011111100
1110011010011100
1110001011100110
1100101010010011
1000000000000000
1111101010010101
1111100000001100
1111001001101000
1100001011100110
11000
1100010111011000
1111011101101001
100100001111100
1111100001111101
1001110001001001
1111101000011101
1011001011011111
1011000100011
111011110100
1111100101101
1011101100110010
1111010001001101
1101101001101111
100111000011101
1101111010101111
1110011100000011
11100110
1111101101110001
1000000000000000
100110010100
1110100001011110
1010110011001011
1111000001110
1101100001011
111111111111111
11000011001
11010001000111
11010000011011
1001011011011111
1111111111000101
10011010000
1011001011000111
1101100101000110
100101111110
10010001101111
1110111011010110
11011110001111
10001111100101
11011001110011
110111101100
10100001100101
1110101000010000
1011100110111111
101100110011
111010001010
