1111110011101100
1101110
1011100000101010
11101011100
10011100000011
1111110100101110
10110001001111
1111011101001101
1110000011100111
1111111100111100
1001011010010
1110011100000
11100101111010
100001101110
1100100100110100
1111110101110011
11010010000110
1110011011100010
1001001111100101
1000010101100110
101101000
1100111111100000
1101011100101101
1101111000110001
10011110110
1100110111010010
1110111011100000
1101110001111011
10010011011110
1111010001101100
1110110111010101
111110011101
1111010001011010
1110010010110
110010100110
1011101111101101
10100010110010
1011101011010
1101100010000000
1111111000100001
100010001001101
1111000100100011
100110100110001
1001100010001001
1000000101100010
11001111110011
1000000000000000
1010011100011011
1111110101001100
1111100010000001
10001100110010
11110010011101
1111100111110010
1110110000000011
11111100100100
1100100100100100
1001010101010011
1101110110000110
1111001010001100
1011001010011001
1111000000001010
1000001001010
111000110100111
10011111011010
