10101111100101
101000
1111110101011111
1100001100001000
1101111010010001
1111111010010000
1100011101001100
11000001101
1010100111
1011010000010
1111100001111011
1110000101011110
111001011010
1101111111011111
1011101111000
1100011110100110
1111010100010
1101011010110010
10000101001111
1001011100111
1111111100110
111000100000
1110000100111011
10000010000001
1011101000101111
1110110000001100
1111111100000110
1111001011011011
1101000110010011
1101110111101110
1101000100110100
1100101001110101
