1111100010111101
0010111101111101
0001011111011001
1111100110101110
1110111101011001
0000100100111110
1100010001100010
1010010000110101
1100001011010000
0000000000011101
0010111101101101
1010110011011000
1110111101011000
0000010110010011
1110111010101100
1111100001110000
1111100011011101
1000000000000000
1000000000000000
1011111111001001
0101100001100111
1111110000100011
1011110001100101
0000100110101001
0001011100110011
1111110110010000
0010100001101001
1000000000000000
1100101010111000
1011000011100010
1101000101000001
0000000001010010
1011001101110101
1011111001010100
0000010001110110
0001100110001001
0011001100111011
1101110111010110
0100000000000101
0011110101010000
0100011111000010
0010110110100110
1000100110110011
1100111001000100
1011011110010010
1010011100110001
0000010000000111
0111111111111111
0111111111111111
0100011001000000
1111101100000001
1010011110101101
1100011000110101
1111111011110101
1011110111000011
1101011111011011
1111001000001011
1110011010001110
0001011010110011
0100110000000110
0001110000000010
0011011111000110
0100001011111101
0010010010001100
1011010100011100
0000011101010100
1000000000000000
1111101000101110
0010110000010010
0010111000110011
0001010110101111
0010011000111000
1001101000101011
1001001011010100
0000010000011011
0100011011001111
0111111111111111
1111001011011110
1001010101011111
1110010011111011
0000110001101111
1101100111000000
0001100111101000
1101001100110100
0001100010010000
1001111110001100
1101011110101000
0101010000010101
0101110000000100
0111111111111111
0000110110101010
1000000000000000
0100001111001000
1111100111010000
1011000011000010
0010010001111010
1111011010110100
1011110111001001
1011101001101001
1110000011001110
1111100101011000
0000111111110011
0001001111001110
1110001001001001
1000100010000100
1101000010000001
1111001001011110
0010111111101000
0011111101000100
1101110100111100
1010000001100001
0000100011000011
1111010001011111
1101001001100111
1011010011110100
1110111110101111
1011000100000010
1111011111101011
0000100010100110
0100000101000100
0011100001111100
0001010111101010
1010100000100100
1111101100011101
1101011100101001
1110001000000110
1101001001110100
0000011010101000
1110111001110000
1001000010001101
0010111011001011
1100111111001011
1111111000100011
0010101110010010
0011011001100001
0010110111011100
1110100101010101
1100110001100010
1001111000010000
1000000000000000
1000000000000000
1010000000111011
1010100100111011
1011111101100101
1000000000000000
1110000000101100
1110101001001111
0010011011100011
1111101100010011
0010000011101011
1100011100111001
1111011100101101
1000000000000000
1000000000000000
1111110000100100
1010110000000100
1111001010001001
1101011100111010
0000110100101000
0010001010110011
0100111101011100
0011011111011100
0010001001011110
0000011111111011
1100100010111111
1000000000000000
1000000000000000
1001110010101100
1111011011011001
