0000010101001001
0010010001001010
0101000110110100
0111101110110011
0111111111111111
0111111111111111
0001011100111100
0111111111111111
0111111111111111
0100110111111100
0110111001110110
0010011110111010
0000011111000011
1000000000000000
0010110010111000
0110111110001100
0111111111111111
0010111110110001
1111000110001011
0001110010110000
1111110111111010
0000101100000010
1101111101111000
0000010111001110
1000000000000000
1010010011110110
0000010000011101
0111000111110001
0000001110010100
1010011111111011
1100001100010010
1100011111111111
1011010000010011
1100010110000111
0000110001010101
1000110100100101
1000000000000000
1000000000000000
1000000000000000
1011011101000111
1101100101000110
1101010000011001
0011011010010011
1111100100010111
1111011110111010
1101010001010111
1000010000010100
1000000000000000
1000000000000000
1000000000000000
1000000000000000
1110101100101011
1000000000000000
1100010000111011
0011010001110110
0000101101100110
1110010101010011
0000000101000100
0000111100010010
1011001000010100
1000001101110011
1100111101001100
1110000010000110
1100111111000110
1000000000000000
0100101111000000
0011010111100001
0011101101101110
0100000001101111
0001100110111100
0000110110111011
0011011000011101
0010111110001011
0101010010001111
0101010000110101
0101010100010011
0001011000110010
0011011001111110
0111111111111111
0111011100000011
1111100110010101
1110100000001011
0000100001001010
1101010000110101
1111010010110101
0010001001001110
1111000100111011
0001001110111001
0111011100010011
0111011100111111
1011000110110000
0010001110001001
0000101110110001
1110001110101001
1101110001100000
1110010101110001
1110101110110010
0101100100010101
0000000000010010
1101111010001001
0010111101111101
0100001001110110
1111010001110100
0000111000000001
1111011110110110
1100100110101101
0000100101100001
1100110010001011
1111101000101100
0010000000001001
0001110100110001
1111001111000001
0011010110000001
0000100001001000
0010011011101010
1110010001110000
0111000111100000
0111111111111111
1000000000000000
1100110111111110
1111011111101111
0011010100011100
0101000010110010
0100000000010000
0100111101111111
0101001001101100
1111000100000111
1110110111101001
1111111110010100
0011101100101000
0001100001111100
1000000000000000
1110000000001100
0001101000001001
0101000010010110
0100111111100111
0101100101011001
0001000000010110
1101100111010001
1100011001000101
1010000000010100
1000000000000000
1101010011000011
1110000101011110
1101000001100000
1011001110110101
1010111100011000
0001000010000010
1011010001000100
1010101000101011
1000000000000000
1000000000000000
1000000000000000
1000010010110001
1000000000000000
1000001000000001
1111101101110100
1101110101100111
1100100100111011
1000000000000000
1000000000000000
1000000000000000
1000000000000000
1110100110100101
1001010010110011
0010011001001111
1011010100111010
1000000000000000
1111111010010100
