0000110101101010
0001010101000000
0000011111101011
0000100011111000
0001001101110101
0001100001001100
0000100110010100
0000111101010101
0000000111110101
0000001111011010
0010010010011101
1101100111101001
1101111010111011
1110001110100100
1110001001000001
1111111010101010
1111100011000000
1101010001010111
1011110111010011
1101101100011010
1110111000111100
1111011010111111
0001010101011111
1100101010011000
1001111111000000
1110010000010111
0000110100111011
1101011100011011
1110000100100000
1110000010011100
1111100110111010
0000011110000111
