1111100111110011
0000001001100001
1111011011001101
0000100001100101
0000000101100011
0000101000110101
1111000110111110
0000000011111010
1111011011100010
0000011011000101
1111001110001100
1111100000101010
1111111110110110
0000011101111110
1111111110100011
1111010101001110
1111100111011100
0000010001111000
1111110011000100
1111101000101110
1111011000000001
0000110001101001
1111011101011000
0000010110011001
0000010101110010
