1111111101010101
1111111000010000
1111111110000001
1111001111001101
1111111101011000
1111101110100100
1111011001110010
0000100100100100
0000100001001000
1111010110000100
1111110101110101
0000100111001001
1111110110111000
0000110000011001
0000000100010110
1111101000011111
1111110001101111
0000000010100001
0000010111010100
1111110000000111
1111001100011101
1111111111011100
1111001110111011
1111111111100001
0000111000011110
