1111100011101101
0000011000111000
0000000000000111
1111010011011001
0000011011000101
0000101001010001
0000001101110011
1111100100001100
0000001000110001
1111111000110011
1111101110000001
1111101101100100
1111110110100110
0000101110010010
0000001010111000
0000101100011100
1111011010111011
1111111010110110
0000001010010101
1111010011011010
1111100011000000
1111100101011100
0000100001010111
0000000100011000
0000001110100000
