0000000110111101
1111110101110001
0000110011010101
0000110000010011
1111011111010000
1111100011010101
1111100001101100
1111110100001110
0000100011100011
1111010000111000
1111100110110110
1111110010111110
0000010001001110
0000001001111010
1111011111011001
1111100000110000
1111010101001111
0000100111000010
1111011011010010
1111111010010000
0000000000100010
0000011001001011
1111011010111101
0000001101101001
1111010011000111
