1111110110101001
1111010100101011
0000000101001100
1111110111100100
1111111111111010
1111011110110001
0000101001111100
0000010100001000
1111100101110101
0000101110100011
0000010011001001
1111011010010110
1111100001011001
0000100010001100
1111010101000111
0000011101010010
1111110100101101
1111101110111000
1111110110001100
0000101101011100
0000011000100001
1111010111110101
1111011101010100
1111101100010100
0000101101101100
