0000000110110001
1111111110001110
1111111100110001
0000001101110100
0000111000001100
0000000011111100
1111110110010000
0000100110001011
0000011011011111
1111100111010111
0000101011001110
0000011000110111
0000000110101011
1111110000110010
1111001111011111
0000001001101100
1111010110010110
1111101010001110
0000001101000100
1111101110010010
1111110000100100
1111011101000110
1111100010100000
1111110100110011
1111011111000001
