0000001001000000
1111011110010001
1111010111001101
1111110110100100
0000000111111000
1111010000010101
1111110100011010
1111111110001110
1111100001000111
0000001000001001
1111010100111110
1111111010011101
1111011100100100
0000111000001111
0000010001001110
1111101000111011
1111110111011000
0000001001011101
1111111011100111
0000100000010110
0000011000101110
0000100111011110
1111001101001010
1111010100110010
0000100100111000
