0000101001111011
1111010110111101
1111001100101100
0000100110110101
1111110110110110
0000101101110111
0000011001100000
1111111101100110
1111011011011010
0000001101001010
1111010110111111
0000010011110111
0000000010011110
0000101010011111
1111001110010101
1111100101101000
0000001001100100
0000010001101111
1111001111111111
1111011011111100
0000011000001111
0000100100110110
1111010110000101
1111011101010110
0000100110001010
