0000001101110010
1111101011011101
1111100001010000
1111011011010111
1111101011000011
1111110010011000
0000101010111100
0000110010000101
0000101101011110
0000100010100010
1111110001110000
0000100111000000
0000101110010010
0000110000111000
1111110111110101
0000011110001111
1111101101000011
1111100110111000
1111010010100100
0000001001011101
1111111111111000
0000010000001010
1111111000111010
0000100100111110
1111010110101010
