0000100101100001
0000000100100001
0000100011001011
0000100100001111
0000010100100101
0000011010001111
1111110100011111
0000000100111110
0000010010100001
0000100101110001
1111011100010000
0000011001100111
1111011001010111
0000001000110110
1111110011110011
1111110101100001
1111100110010100
1111011110011110
0000011110110111
1111011001100000
1111100000011110
1111110111100011
1111100100000101
0000011010101111
0000010100001100
