1111111100101111
1111010111011100
0000101111101111
0000000101001011
0000000000010101
1111100110011000
0000100010101110
0000101110100110
0000010111000111
0000010111100010
1111100100110010
1111110000011011
0000101000000101
0000001101110100
0000101011111000
1111100000011001
0000100111001000
0000110010000110
0000001010011001
0000101100110001
1111010101000101
0000010000001010
0000101101111110
1111111101100101
0000000100011001
