0000010010110010
0000000100001101
1111011101110111
1111111101111110
1111101010011110
1111100111010010
1111111111100000
1111111001001011
0000100111001001
0000010000010010
0000011010101111
1111001110011011
0000100011000001
1111110011010111
1111001011110011
0000110010100111
1111011010000100
1111011101101101
0000000001101111
1111011111000011
1111010100000111
0000011000001111
1111001000111010
1111010010010001
0000101010011101
