1111011010111010
1111110000011000
1111101100100001
0000000000001111
1111100000100101
0000100000010000
1111111011010011
1111111100010011
1111001110000010
0000001111110011
1111101101111010
0000000101101010
0000100001101111
1111111001010010
0000011010110001
0000011111110001
0000001101001010
1111100001111000
0000011011100111
1111101101111010
0000001011000010
0000100101100000
1111110101001110
0000011110100001
0000000010011100
