1111101110101100
1111101110011110
1111101011101100
0000011001010001
0000001101000110
1111100001110011
1111111110101111
1111101100010011
0000000110100101
1111110010110101
0000000000010000
0000100110110111
0000011100101100
0000010101010100
1111100111001100
1111100111111110
0000000111011010
1111111010101110
0000100111011001
1111100010010010
1111100010001011
1111101101001000
0000011001011111
1111111101111010
0000110111010000
