1111011111110010
1111011100101111
1111011110000110
1111111000001000
0000100001010010
1111101111110110
1111101000011010
1111010000001110
0000100111110100
1111111101000100
0000011011001101
0000010011001111
0000010100010000
0000011101100100
1111100010111001
1111111001101000
0000101001111001
1111110101011010
0000000110110011
0000011110000100
0000010110100110
0000011000010000
1111011101111111
1111010011010000
0000101011000100
