0000110010010001
0000011000100101
1111110000001111
1111110011000100
1111010111011001
1111100100111110
0000000000001010
0000000011011101
1111001110100101
1111111111110110
1111101001101111
0000011010011001
1111111110101111
1111100101101011
1111101110001001
1111001101101001
0000011101000100
1111110100100011
1111011110100110
0000100110001110
0000010010101101
1111100111000100
1111010000010110
1111100011010111
0000010111010110
