1111010001011011
0000010001011101
0000001110101001
0000010110010000
1111110000011100
0000001000110111
0000101011000111
0000001010111001
1111101101111011
0000100011100011
0000000000011110
1111101111101100
1111111110110010
0000100000010001
0000000011100110
1111010000100001
0000100000010010
0000100011001110
1111011111011000
1111101100110010
0000011001100011
0000101101000001
0000101110001101
0000000100001000
1111100011111011
