0000010000011000
1111100101111010
0000000001101111
1111111101001101
1111110011010011
1111100000111111
1111100011101000
0000110101100110
1111011001110111
0000100001010100
0000001101010011
1111111100101001
1111001111100000
0000001100101100
0000000011010001
1111100000000001
1111101001110010
1111111011111010
1111111111100101
0000101011001100
1111111111110010
0000011001010101
0000010011011101
1111111100101111
1111100001000010
