0000001111000100
1111100100011011
1111110010110000
1111010011010100
1111110010000110
1111100111110111
1111011110100101
1111010011100101
1111111011001111
1111010010011000
1111100100010000
0000001111111011
1111101001110001
1111100000001110
1111001111110110
1111110100110110
0000101011101100
1111101110101010
1111111001111110
1111110100000111
1111111000000100
1111110001101100
1111101110111110
0000100001010111
1111011001101100
