0000010110000001
1111110011001100
1111010110111110
1111001111110111
0000001011111001
1111110110100010
0000100111010100
0000011101011000
0000011011111000
0000000101000110
0000000100111011
0000101010011111
1111010010011110
1111011000000110
0000000110000100
1111100000001101
1111101010010001
0000000111111001
1111101111110100
0000100100011111
0000100000101110
1111100001111101
0000011000000011
0000100001110101
1111110100101100
