0000000011101110
1111111011110101
0000000011111111
1111110010100101
0000100101010100
1111100011101000
1111011000001001
0000000111010110
0000000101100011
1111011101110001
1111010000010100
1111101001110010
0000101101000011
0000100101110010
1111110011001110
1111011110001100
0000110100010101
1111111010111110
0000010011010011
0000101011000000
0000100001000100
1111011110111110
0000101110100000
0000001001011101
0000001001111010
