0000000001101110
1111010110011010
0000100110011010
1111101111010010
1111010110111110
1111101000111000
1111111001010001
1111010111111011
0000000100001110
0000000111101001
0000100011001100
0000011001011011
0000110000111100
1111011000000100
0000010100011100
0000010101010101
1111101011100101
0000001001011010
0000001001001101
1111110111100100
0000110101011111
1111100111111010
1111010001010100
1111010110101101
1111110111011000
