1111100110011011
1111100000100001
1111110001001111
1111101110000101
1111010110000011
1111010010111100
0000100111011011
1111101001100001
1111010110010001
0000100010100010
1111101101000000
0000010111001100
0000011101010001
0000001010110001
1111100011101001
1111110001010010
1111010001001000
1111010111110111
1111100111010001
0000100110101111
0000110010001001
1111110110101001
0000100101001000
1111011101011100
1111001110100010
