1111010100010011
0000101010111100
0000001101000000
1111110101000101
1111111000110101
0000000110101010
1111100111001011
1111100101101101
1111010011110010
1111101010010111
1111010001001110
1111001111100001
0000100000110001
1111011101011010
0000010111001101
1111011001101100
1111011111100111
1111110101101101
1111011110111100
1111110011101000
0000101100100101
0000011100000111
0000000110101110
0000001100001011
0000100100001011
