1111111111100011
0000111001110101
0000110011111001
0000001101101011
1111011001010100
1111100010001010
1111101110111000
0000110001000100
0000110001001010
1111101001110101
1111101101101111
0000100110100100
1111010010010000
0000000111001101
1111010000110010
1111001111101010
0000110110100110
0000100001010000
0000011101110101
0000100011011000
1111011011101010
1111110101110010
0000011111111100
1111010110100101
0000000101010010
