1111010100010110
0000100011011100
1111101001100010
0000000110100001
1111011111100011
0000100111100011
1111100011010111
0000011010001100
1111010111101110
0000100000001111
1111010010111101
0000100011011110
0000000010001000
1111010111111011
1111100111111010
1111010110011111
0000011101110110
0000000100111101
0000101101100001
1111101110100000
0000010010110111
0000100100111000
1111110010111011
0000101001101100
0000000110111111
