1111110111001110
0000001110101110
0000001001100001
1111100000110000
1111110101000111
0000010100111110
1111111010101000
0000010100101001
0000011101011101
0000010100111000
1111010110111001
1111110100011010
0000011000000010
0000010001100111
0000011111011011
1111101010001101
0000011001010001
1111010100110011
1111100110000000
1111111111100110
0000000111011101
1111010111100011
1111011001010010
1111100111111100
0000010011010001
