0000010101000000
0000101000010000
0000010001110000
1111111000010011
1111100100010101
0000101100000110
0000010110011101
0000100000000111
1111111101011010
0000000010011010
0000001010101100
0000101111001001
1111011101011111
1111010101101000
1111001110100110
1111010110111011
1111010110001010
0000100000101011
0000010101111110
1111100101101001
1111101001011011
0000100100101100
1111110000100110
0000101011000010
1111101101111100
