1111111000011011
0000011101100011
0000000011110110
0000100110001000
0000010110100100
1111010111001110
1111100001010010
1111111000110101
0000101101100011
1111100110101101
0000100100111111
0000010110010010
0000011010101000
1111111001110111
1111111011010001
1111110000110001
1111100001000001
1111011110101011
1111111001010101
1111110000111110
1111110111100110
1111110011101100
0000001011101010
0000100100001101
1111101110010110
0000010101011010
0000100011010000
0000100000010111
1111110101110001
0000101000001111
1111011010001111
1111111101010110
1111101010111110
1111110001110111
1111111101011011
0000001000010000
0000000010110111
1111111101000011
0000011110110110
0000010000001110
0000100110110111
1111101010101101
1111111011001011
0000011100000110
1111100111010110
1111100001001011
0000110001001011
1111111101000001
1111101010000100
1111111111011000
1111101010110010
1111110011001100
1111101010100011
0000100010101100
1111101111000001
1111010101111011
0000001000000010
0000011111011110
0000010001010000
1111110001110000
0000011100011111
0000010001011011
0000011010110001
1111010101110010
0000010111011100
0000000100001010
1111111111001100
0000001100110000
1111110011000101
1111100011101101
0000011000001010
1111111101100010
0000001011011011
1111011111010110
0000001101000011
1111100100110001
0000101100011110
1111111001101101
1111011100010011
1111110000001000
0000001101010011
0000100100010010
1111011010010011
0000101110001000
0000100110000110
1111101011110001
1111101101000000
1111011110011110
1111110110001100
0000101101001011
1111010100010101
0000010100001100
0000000111011100
0000010011000000
1111111000110011
0000001001100000
1111111101111001
0000001101011101
1111101000100110
1111011000110001
0000100000100101
0000011110111111
1111100011100011
0000011011101011
0000001001001001
0000011010100111
0000001101100101
0000001110111100
1111011010110010
1111010101111111
0000100110110100
0000000010011011
0000010100100111
1111010111010001
0000010000001010
0000100101010000
1111101011011000
1111101111101110
1111101100011101
0000010000111111
0000001110111001
0000100001101010
1111011000010111
0000011111111100
0000010110001000
0000001110010011
0000101000100110
1111111000101011
