0000101000010010
0000001011110110
1111110011100000
0000010100010011
0000010100100011
0000010011010001
0000011001100011
0000001010110011
1111100011110100
1111111101111110
1111010111000110
1111010101000100
1111100000111110
0000010111011011
1111110001111011
1111100000000011
1111100101011001
0000010110111000
1111100010001000
1111100001111001
0000010101111111
1111101001010100
1111111010110110
1111010011101111
1111111011110101
0000011000110001
1111101100010010
1111011101000001
1111010110110100
1111010110001100
1111111101001100
0000100110000010
0000001101111100
0000010111001111
1111011100001110
0000100010100011
1111010010111110
0000010101011101
1111011010011110
1111100110110010
1111010101111010
0000000101100000
1111110101010001
1111110110000111
1111101101101000
1111100110110001
1111100110101011
0000001010101000
0000100000000001
1111101000001011
1111100011110000
1111101000001101
0000100111000100
1111110111010101
0000100101100001
1111101100101100
1111101001110100
1111010010011101
0000010101001000
0000010111000000
1111111101011000
0000101001010111
1111100000110011
1111010101110001
0000011010011101
1111101111110111
1111101100111011
1111100110010010
1111011111101111
1111011001010001
1111100100110000
0000010110001100
1111100111100011
1111011100011110
1111101110000110
1111100010000000
1111111001101001
0000011000100110
0000011010010110
1111110000001101
1111101000001111
0000100000100111
1111011000011100
1111101101111000
0000000111110110
0000000010100010
0000011101010110
1111010010011100
0000011000111010
0000011011010010
0000011111000001
1111011000001110
1111111110110010
0000100100010011
0000100011001001
0000100100100001
1111100100001111
0000011110101111
1111110101110010
1111101111111110
1111110110001111
1111111000000110
0000000000001100
1111111110000111
0000010010101110
1111100011100100
0000001101010011
0000101001101100
0000011011001001
0000100001000010
1111101011111000
0000001000001110
0000011011001101
1111111111001000
0000011111011000
1111110000000101
0000000000001001
0000001001110110
0000000000010011
1111010110000110
0000000111101011
1111010001101000
1111011010010101
1111101011100011
1111100000011101
1111110000011100
0000001000101100
1111011010011011
