0000000101011101
1111011101000000
0000100000011101
1111100010001111
0000011101001101
0000100110110100
0000011011010001
1111101011010010
1111010011100011
0000010110000111
1111110101000001
1111110011100110
1111101111000101
0000010101001110
1111110000001101
0000110010101110
1111111011111100
0000011001010101
0000010100100110
0000010001111011
0000011110000101
1111111010100000
0000000100110111
0000001111111010
1111111011100001
0000000010011100
0000001000000110
0000001001111110
1111100101000001
1111101000110001
0000001101110110
0000001000111110
0000000100101101
1111101000011111
0000100000110110
1111100000011010
0000000111000111
1111010011101111
0000000111000111
0000100000000000
1111011000011110
1111101010100001
0000010011011110
1111101101000001
1111111000011011
1111101110000101
0000100010010101
1111100000101110
0000010111101100
1111111000110011
1111111101101101
1111011101011001
0000101011110110
1111010100110000
1111100001001111
0000100101110101
0000011010101110
0000000111110111
0000100100110001
1111101100010001
1111011010110011
1111100101010010
0000101000111101
0000001010100000
0000011010011000
0000100001001001
1111101010010100
0000000011110000
1111010011001010
0000000110110110
0000001001010111
1111101100111100
1111100000010000
1111110000010110
1111101011111000
0000100011110001
1111111000100011
1111011010001111
0000000001110011
0000100001110111
0000101010001001
1111100011101111
0000010000101010
0000010110010100
1111101010100001
0000001110110101
1111011101001001
0000001100001001
1111011111011101
1111110011100111
1111010010010001
0000001100010000
1111010010011001
1111101111101101
1111101100100110
1111011100010001
0000000001110110
0000100001001111
0000010111100011
0000010101111111
1111100100011101
1111011010101110
0000010101000011
0000001100001011
1111010110010101
1111111100100000
0000000000011001
0000011101111000
0000000010101010
0000001100000011
0000001110110101
1111010011001111
0000100111001011
1111110001011110
1111100011101010
0000010111010001
0000010110011111
0000011100110100
0000000001110111
0000000111101100
0000011010100001
1111110010110011
0000010011110001
0000001010101011
0000101101000001
1111101000010000
0000000101011011
1111110010000100
