1111110010111001
1111010101100001
0000010010111101
0000001001110000
0000000111111010
0000011010011010
0000011000001111
0000001111011101
0000011100110011
0000100001011000
0000001000011000
1111100001100000
0000011101011110
0000011101001011
1111111001110001
1111011000011101
1111110010111001
0000010111011111
1111110000100000
1111101111110011
0000101101001011
0000100001101111
1111111110010110
1111111101101001
0000101100000111
1111011001111001
0000001111110110
1111110010110111
0000010010101100
0000011001101010
1111111011110000
0000000110100010
0000010100111000
1111111011101010
1111101100100111
1111100011111100
1111110101111100
1111011010000110
1111101110111001
0000100010010010
1111110010101101
0000101101100010
0000011001011101
1111111100110100
1111011011111000
0000101000010101
0000001101011011
1111010001010100
0000100001011011
1111100001101010
1111101101010011
1111101100101000
1111100110111110
1111111000101101
0000001100000011
1111011111000110
0000011000111110
1111010111010100
1111010101110000
0000010101101111
0000100100011000
0000000001011100
1111111101101110
0000001010101011
0000010110100001
1111110011000111
0000101001010101
1111100000000010
0000000100101111
1111101100110101
0000000000110110
0000011011100011
1111110000110100
0000011110001000
1111010101110000
1111101011101100
0000011101001111
0000000110000011
0000001011101010
0000010001011010
1111101011110111
1111111010111010
0000010011100101
0000010111101001
0000011111101110
1111100111110100
1111010001110110
1111110100001000
0000010011100100
1111011011111011
1111010010001110
1111101001011111
0000101110001001
0000101100111000
0000010101111111
1111110100010110
1111010101110000
0000001011111101
0000100101001000
1111110110010111
1111100101000111
0000001001101001
1111111010010000
1111011111001001
0000001101110110
0000000010010101
0000011111010001
1111010111110000
1111011111011011
1111110110010010
1111101111010100
1111111001011110
0000100010110011
1111100110000000
1111010110110000
1111111000100110
0000011011000110
1111011101010001
0000010001110111
1111011111111100
1111111111011011
0000110001111111
1111001101110011
0000011010111000
1111111010101110
1111101010110101
0000010100111010
0000101111001111
