0000011111010000
0000001110011100
0000010110101101
1111010001111001
1111110101101100
0000100001000100
1111100001100010
1111010101111000
0000001111001110
0000011010101110
1111100001101010
1111011000001010
1111010011000110
1111100011010000
1111010001110001
0000001111000100
1111101101110010
1111100001010111
0000010101001010
0000011011101101
1111011010000000
1111101101000001
1111101011110011
0000100101001010
0000100100101010
0000101000111111
1111100011001010
1111101000001011
0000100100111000
1111111001010111
0000100111010010
0000100101101111
1111101010110000
1111110011010001
1111100011110000
0000000101000000
0000100011011101
0000011000100101
1111100010111011
1111101101011000
1111011001010011
1111111011000010
0000001001110001
0000011011001001
1111110100001100
0000100101001111
0000101010001100
0000000010111110
0000010001011010
0000101101001101
0000000000100110
1111111010110100
1111111111010110
1111010111111000
1111011000110010
1111101101000111
0000011010011101
0000000011001111
1111011110000000
1111111101001001
0000011000010101
1111100001101110
0000000100000110
1111101000111000
1111011011111100
0000100001001000
1111010011111110
1111011011010100
0000000010011011
0000100010001011
0000100110010100
1111101000001110
1111011101111100
0000100001110000
0000010100100101
1111010001000101
1111011100101111
1111011100001011
0000000111001000
1111100001001110
1111111101010110
1111101011110101
0000000011010000
0000000010010001
0000000111011000
1111101110101111
0000011010111111
1111100111101011
1111101010111000
0000100001011100
0000101011010100
1111110100010010
1111011001011000
1111011010111101
1111110101000001
0000010001000111
0000001010100001
0000010110101111
1111010110100000
1111100011011100
1111100110110111
0000010100100100
0000001110110010
0000000001011101
1111111100010010
0000100100000110
1111011101110101
0000000011001011
1111011011001110
0000010000110000
0000100000010011
1111111011110110
0000000110000000
0000010100100011
1111111000111100
0000100001111110
1111111111000000
0000000100100001
0000011111101010
1111110100000010
1111101110011000
0000100011001000
0000001001100000
1111101011000101
1111110000100111
0000000001111100
0000001111001110
0000010101001111
