0000010000010101
0000010011010101
1111100000110111
1111101010100001
0000011011111111
0000010010101111
1111010100000101
0000000011010001
0000100100100011
0000001000011110
0000010100111110
1111010010010000
0000001000100000
1111110000100011
0000101000001000
1111010111100001
0000010101111101
0000011001010111
0000010110101001
1111010110111001
0000000001111111
0000011100011101
0000100101001100
0000000011101001
1111101010010111
1111100010000101
0000010101010101
0000001111001101
0000100111110011
1111011001111011
1111110111000100
0000010000011001
1111101000011101
1111101011111101
1111100110000010
1111111111011111
0000000111001010
1111010110111110
1111110110101000
1111111001011100
1111011010000100
1111101100010010
0000100000100001
0000011110001101
0000101111110110
1111101111011000
0000011000001111
1111111101111100
0000001000111010
0000011001110100
1111111111011000
0000011011100010
1111110000101010
0000101101100001
1111101001011000
0000110000010011
0000000000001111
1111110100101001
1111110110000010
1111110100111011
1111010100110010
1111100010001101
1111101001110010
1111110100010110
1111111000011100
1111100010101001
0000001111010001
1111100001101100
0000110000100001
0000010001010000
0000010011110101
1111111100000000
1111011010000001
0000100110110011
1111111011011110
0000010000111100
0000011001000001
0000011111111000
0000101100101010
0000110100000011
0000000110001011
0000000011111111
0000010000101111
1111101011001100
0000011000111101
1111101001110000
1111111101110011
0000000101001011
0000001001010110
1111011010011011
0000000011101110
1111110110100101
0000010011001111
0000001011110110
1111100111010101
0000101111010110
1111011111110000
1111100110000110
1111011001100001
0000010011000000
0000000000100001
0000101110100001
0000010000100100
1111010100001000
0000010100010010
0000100010111011
1111010010111011
0000010111100110
0000000001100110
0000100011101111
1111101110111001
0000001011000100
0000001110110001
0000100010011111
0000001110010001
1111111111010110
0000001101000000
1111101111000101
1111111110010111
0000000111001001
0000100111100110
1111110110000110
1111110110010101
1111101101001100
1111111101000001
0000000010001010
0000011010000111
0000010101011111
