1111001111010100
0000001010000010
0000011110101000
1111100100000110
1111101010110110
1111100110000101
1111111111011101
1111110110111011
0000000101010101
1111111101101100
0000000101010110
1111001101110101
1111001110111101
1111101000011000
1111111110000001
0000001100110000
0000001010011111
1111111010011111
0000101000010001
0000011011111011
0000000001111001
0000000011111111
1111101100001111
1111111010101100
0000000110001011
1111010100001011
1111101100000110
0000100010011101
1111011010111001
1111110110111001
0000000101000101
0000011110001111
1111101010010010
1111010001010001
0000100100011000
1111011110010001
0000010000011000
1111011111000010
1111011110001110
0000100110100111
1111011001101110
0000101000101001
0000011010011011
1111010011000101
1111111000011001
1111010110111101
0000011001110010
1111101010000100
1111110011110110
1111010110000010
0000011101111101
1111011111101101
0000001101011101
0000010100001110
0000010000000100
1111011001000000
0000100001010100
1111101011111101
0000000001110101
0000101011110101
0000011110010011
1111101011101010
0000010010011111
0000011110100100
1111101110100011
1111101111101110
0000000110001100
1111101000010100
1111110100000000
1111111111011100
0000010010100010
1111011111101000
1111110010111000
0000001111011100
0000000011001000
1111101011110011
1111111101011110
1111101111001000
1111011111011000
0000001100011110
1111011110010101
0000001001110000
1111111101011011
0000000101011111
1111111011111111
1111010100011100
0000101010110110
1111100010111000
0000011011101111
0000000010000011
0000000110000011
0000011110100110
0000000011000110
0000011110010100
1111011100010000
1111110100100011
1111011100100010
0000011100000101
1111010111001010
0000000000001000
1111010011111111
0000100000000101
0000011110101010
0000101100000101
1111110111101011
1111100110110101
1111101111010100
0000011101010100
1111100110000011
0000001100011100
1111100110010101
1111010100001011
1111100111001111
0000000001100001
1111010110100111
1111100101011101
1111101011000111
1111100001110001
1111010100001011
0000011001101110
1111101111110101
0000001010000000
0000000111011011
0000100110000101
0000001101110110
0000100011111100
1111101000110101
1111111111111110
