1111110110111001
0000101000011110
0000011010101000
1111101001111100
0000011001110100
0000100101010101
1111111101001110
0000010001101010
1111101000001101
1111101011111100
0000001101111001
1111010010111001
0000001101000111
0000100011010100
1111111101001001
1111111000100111
1111111011010010
1111101100100110
0000100101100000
1111010001100000
1111011111011111
0000011101011100
0000000011001001
1111010101000001
1111100000011100
1111101101010101
0000011011111011
1111101110110010
0000000100010000
1111011010100010
1111101101110110
0000001011001111
0000101001111010
0000011100010010
1111011111010011
1111100001100001
0000100000110000
0000011100101001
0000001001100111
0000011001000100
1111111001000011
1111011110100101
1111110110101001
1111011010101011
1111100111010110
1111101101111001
0000011100000100
0000010001110101
0000000011001111
1111100010101011
0000011111111010
0000010110000010
0000000101110001
0000100111010001
1111111001100000
1111101000111100
1111111010010010
1111010110110100
1111111010100100
1111011010011000
0000101010111001
1111110111000101
1111111100001111
0000001000010010
1111111110101111
0000010111100000
1111111011000001
0000100111011101
1111011000001111
0000000111011110
0000011111101010
0000000010101010
1111110010100010
1111100111001011
0000001110000000
0000100011010100
0000000001010101
1111111010111100
0000010001101111
0000011011111001
1111011011001111
0000010000011111
0000001111000100
1111110101010110
1111101000110111
0000010111001011
1111100011010110
1111011101110100
0000000010101011
0000000110000101
1111111101111101
0000011111000001
1111110011011100
0000100011010001
1111011000010000
1111010100000001
1111011000110011
1111101010110111
1111010011001000
1111111010011000
0000011100000010
1111111010110010
0000100111100111
1111101100000000
0000011101010000
1111100011110100
0000000010000010
0000000010101100
1111111010011100
1111110110000011
1111001101110100
1111110101011110
0000101000100010
1111100101111110
0000011000100001
1111110011101010
0000000110100111
1111110011011001
1111010001001010
0000000010110011
1111111011111110
1111100001010101
0000000000001010
0000010001101011
1111011001010010
0000000100001000
0000000100110111
1111101110010010
