0000000001110110
1111010110100011
0000001010000000
0000100101010000
1111111010100000
1111111110001111
0000000011101101
0000010000011010
1111111100110101
1111110011010111
0000011100010010
1111101001000110
0000001001111000
0000001000101111
1111111101101101
1111111000101110
0000010100110101
1111101111110010
0000101010101011
1111111110111010
0000000010100101
1111011011001111
0000010100111010
1111101011101111
1111101110110001
0000010011111000
0000001111100100
1111110110100110
1111100101110100
0000011010110100
1111100110000100
0000000101100111
0000000111000111
0000000111011010
0000010011000110
0000011011100011
1111100110100111
0000011010000100
0000100011111000
0000100110001101
0000000001011101
0000001101101010
1111110100000010
1111101101101000
0000100100010110
1111010110011110
0000010011011001
0000000000110000
1111011101001110
1111100000010011
0000011111001100
0000010000111111
1111011110011101
0000100001010010
0000011001101101
0000100100101101
0000100010001001
0000000001011010
1111100111101000
1111100000000111
1111011000001110
1111011001001100
0000000111010000
1111100101001101
1111100010001010
1111100101011110
0000010101010000
1111110001010110
1111101010111110
1111011001110111
1111110110101110
1111011100000101
0000001101100011
1111110000101111
1111100110100100
1111011010000111
1111100011001110
1111110010001011
0000011111101011
1111101010011100
1111110101100100
1111101010011111
0000010011001100
1111100101010011
0000011100101001
1111100101100001
1111100100110010
0000001100010100
1111110111111010
1111010101011100
0000010100011011
1111011101111110
0000000100110110
1111100101111110
0000100011000110
1111111111010011
0000001101000110
0000001101111111
0000100111100100
0000010111010011
1111101001111111
1111101000011011
0000011001100101
0000100011110100
0000011111000000
0000101011001011
0000100010101101
0000000100101100
1111110110111010
0000011110100010
1111110001011001
1111100100010010
0000100001011110
1111010110010110
0000100010101110
1111011000011001
0000000011110110
0000010110111111
0000000101011110
1111101011011101
1111111110011000
1111110010010101
1111111101100001
1111011101010100
1111110011110100
0000011010010001
1111101110110011
0000010010111101
