1111111010101110
1111111000101111
1111111101110110
1111010010100100
0000001101111011
1111111110111011
0000001110011101
1111111011100111
1111010100111110
1111111100011111
1111110011111010
1111010101111001
0000000111000010
0000100110101000
1111011011000001
1111100100001111
0000000100110101
1111101111000100
0000001100010100
0000001110101001
0000101101001111
0000100101001101
1111101011110110
0000000011000000
1111111000101110
0000001000111000
1111011000001110
0000011001000001
1111101000110100
0000001001011111
1111110010000010
1111101110000011
1111111011010100
0000000010101001
0000010110011110
1111011101000001
0000101010010001
1111010100001001
1111101010111001
0000100010010110
1111111110010010
1111011001111110
1111010010100010
1111011001010000
0000011001011011
0000001011011011
1111100011000110
0000000110111001
0000011011011100
1111010100010100
1111101100001100
1111110000010100
0000010010100010
0000011001100010
0000010011100111
1111011110010111
1111100100101100
1111110001011110
0000010001001111
1111101101100111
1111110100101001
1111101010101011
1111011111010000
1111011000100110
0000100000101011
0000010010001111
1111011101011000
0000010011110000
1111101001011010
1111110101100010
1111100000101011
1111001110111110
0000001101100001
0000011110100010
0000010010101011
0000010110000111
0000010000111011
1111111101100000
1111101110001010
0000000111100001
0000100100101011
1111111000101111
0000011010100100
1111100010010111
1111110110011010
1111110110010010
0000011111100000
0000001010010010
1111110011101100
0000001001011001
1111011000000011
1111101010000111
1111010111111100
0000010010011110
1111011101010001
1111101111001011
0000001001101001
0000001001110010
0000001001110001
1111101110001101
0000010000111100
1111101110101101
0000000001001101
0000000110001011
1111010011110110
0000000010110011
0000001001100010
0000011101000111
0000000011111011
0000011100101100
1111101001111000
1111101001000010
1111110001010010
0000000010000110
0000100100110111
1111010001010101
0000001100011100
0000010000001011
1111100110100001
1111110111110100
1111010000011010
1111110101101101
0000101001111011
0000001111011111
0000100011000001
0000100011001001
0000011111000110
0000010100100011
