1111110100111101
1111001100010110
1111101100010000
1111111111100010
1111110111111100
1111100011010100
0000000111010100
0000001100110111
0000001111001100
1111100110101011
0000011001010110
1111011101101110
1111001010101110
0000011111011100
1111110100000001
1111100110110100
0000010111010100
1111100111000001
1111110001100001
1111101011111101
0000011111010101
0000000011000000
0000100000101111
1111010001100010
0000011101110101
1111110000001010
0000000111010001
0000001111010010
0000100111101011
0000010011100000
0000001111101011
0000010100000011
1111111111010110
0000011111001110
1111101010001111
0000011011100011
0000010100000011
1111111101010011
1111111001000000
0000011010101001
0000010110001011
0000010111100011
1111010110110110
0000100001010110
1111111001110101
0000101010100011
1111100000100111
0000100100010000
1111110000000000
0000000011111110
0000100110101011
0000001100111101
0000001100000110
0000001010010110
1111111001101101
1111011100000111
1111100100001111
1111110010001100
1111100110100111
1111111000001011
1111110101010110
1111101100010000
0000011100000110
0000011000001000
0000001100001100
0000100011010111
1111010001011010
0000010111101111
1111111110111100
1111010100011001
1111101000100011
0000000001000001
0000001010110101
1111100000101000
1111011010111011
1111110011001101
0000011001000001
0000010010101001
1111110100010101
0000100010001001
0000100001011100
0000000110101111
1111011010101100
0000000111001110
1111111110010110
1111100110110010
1111101001110000
0000000100110000
0000100011111110
1111101000110100
1111011010001100
1111011011001101
0000010111001100
0000100000110101
0000000110110100
0000100111110001
1111010111011111
0000011110101001
0000011101100110
0000010001111111
0000100101011110
1111111000110110
1111111100111110
0000011000001111
0000000100111010
0000001100011101
0000101100011011
1111010001000011
1111011010110000
0000000111110011
0000000011010110
1111011010110001
1111100100001110
1111100100101100
1111101111000000
0000100101001111
1111010001110100
1111101101101101
0000010001101110
0000001000111011
1111110100110000
1111010010101001
1111101100101110
0000011110110000
1111101100110100
0000101001011010
1111011011111111
1111101100110100
