0000011111011110
1111100100000010
0000011001110001
1110111110100001
1111111001110111
0000001101110110
0000001100001101
1111001000001001
1111010101011001
0000100111011001
1111001100010000
0000000010111011
0000110010101111
1111101111001111
1111000010011011
1111110000000111
1111110111111100
0001000100110011
1111001010011101
0000100101000011
1111001100000110
1111101010101111
0000100100010001
0000000010010010
1111011011111001
1111000101011111
1111100111011010
0000111110111011
0000100101000010
0000000100100101
0000010101001011
1111110101011000
0000110001011111
0000110111001010
0000111100101011
0000110001100100
0000110110110100
1111001111011011
0000000101111000
1111111011011110
1111001110100001
0000110111000010
0000011111000101
0000000111110001
0000010111001000
1110111110101100
1111100011110100
1110111100101000
0000000111100010
1110101101110001
0000010000110110
0000000001011000
0000101000011010
1111001001110110
1110110101001111
1111111001100000
0000010100110110
0000010001010100
1111011010010100
1111111011000111
1111010000111011
1111010010100000
1111110001011101
0000111101110001
