1111001110110000
1111111101010011
0000010000101110
1111011111111100
0000001011011000
1111001101100100
1111000001100011
0000001110011100
1111000010011110
1111000111000001
1110111100011010
0000110101000100
0001000011101101
0000110111100000
1111010010101010
1111111001011110
0000000100101001
0000001101101011
1111111010111001
1111011011011101
1111111011010100
0000101100010111
1111011110111111
1110101111000001
1111111111001101
1110110101010101
0000100010011111
1111000000000110
0000010110011111
0000010111000011
0000110010100011
0000001011101111
1111110110001011
0000101011011110
1111110010111010
1111011101100110
0000001010001000
1111011010001101
0000110110011110
1111011111010101
0000010010100111
0000101001000101
0000011111001001
0000100001101111
1111111111110000
0000111101110001
1111001011000101
1111111011111001
0000011001111101
1111110000100111
0000111110101110
0000101110110010
1111001101001000
1111111010100101
1110110100011100
0000101011110011
1110101110010111
0000110100001101
1111100110011111
1111101011000100
1111100011100111
0000111101001100
0000110000111110
0000000110110010
