000000000000001111101000
000000000001000001001011
111111111110101101111001
000000000001011011001101
111111111111110000111110
111111111100101110010101
111111111110011110100010
111111111111100001100011
111111111101100101010111
111111111111101100011111
000000000000000010011101
000000000010101000111011
000000000100100110100010
000000000100010100000001
000000000010110101101100
111111111111110110111011
000000000101011000100110
000000000001101101001010
111111111110011111011011
111111111111111110111001
111111111111011000000110
111111111011110000111100
111111111000111101011000
111111110100100111001011
111111110101110110000001
