111111110100111001001010
111111111011100011110110
000000000000000111000110
000000000000000001111000
111111111110110110010011
111111111010100100111101
111111111000010100100101
111111111101100110110011
000000000010011101101100
111111111101010101011101
111111110101010100100100
111111111111100110101111
000000000000010101010110
000000000011000101000000
111111111111000111010001
111111111101001010111010
111111111100111111111110
000000000000001100010000
000000000001000101001011
111111111101110111011001
111111110111111111101100
111111111011010101001010
111111111111111111111110
000000000011010001100100
000000000000100111010010
