000000000010010111111001
111111111101101010100000
111111111100000100001111
111111111000100100110111
111111111011010000001011
000000000000110111101100
111111111110010011010111
000000000000010111100101
111111111111000101110010
000000000000101001001011
000000000100111011001110
000000000000010100001100
111111111110101111111000
000000000100111110111111
000000000101011101000110
000000000000001011000111
111111111101110011010100
111111111101000011101101
111111111111100101001111
111111111100101011100010
111111111111100001110100
111111111111100000100101
111111111111001001010110
111111111111110110011101
111111111110101001111010
