000000000001111111000001
111111111110111111100000
000000000001001110100011
000000000010001100110000
111111111111010111011001
000000000001000010101110
111111111100011101100001
000000000001011110100101
111111111101111111100101
000000000000000111011110
000000000011010010110110
000000000000001000110101
000000000001110100110111
000000000010100101011110
111111111111011000010111
111111111111001110000000
111111111110101000000000
111111111111010000101000
111111111110001111011000
000000000000100101111011
000000000010011010110111
111111111101111110000110
000000000011011001101011
000000000010101000000100
000000000001100000110010
