000000000100001111001000
111111111111100001011011
000000000011101111110101
111111111100011010110111
000000000001001011011110
000000000010000111010100
111111111111010100101001
000000000000000011101100
111111111101100100100111
000000000001101111110111
000000000001011100110000
000000000011010011111100
000000000100011100110111
000000000001100101111100
000000000010011001000101
111111111001011100000110
111111111100000110101000
111111111000111011111011
000000000001001010111100
111111111111001100010111
111111111010011001011001
111111111110011000000010
000000000001101111101110
000000000001010010001101
000000000000010100011111
