111111111001100000110101
111111111101010011000101
111111111011101100110011
111111111010000101110010
111111111000010000110000
111111111101000111011001
111111111111101111011000
111111111100010110110110
111111111111010100111100
111111111111000100101001
000000000010001000100000
000000000010010100110001
111111111111010011001100
111111111111110000010010
000000000010011001011110
000000000001000100011111
000000000000010001000100
000000000001000010100101
000000000010100010111011
000000000000101011110011
000000000000110000111000
000000000000101111110100
000000000000001011000001
111111111110101101100011
111111111110001000111101
