000000000001100010101101
000000000011000101100110
111111111111000000010111
000000000001001010001001
000000000000010100111110
000000000010011110000100
000000000001101100001011
000000000001000111011111
111111111111101101000010
000000000000011100100100
111111111110011100001011
000000000100001000001001
111111111110111000111001
000000000001000111011011
000000000010010101011100
111111111110011001110010
000000000010010101010000
111111111111101110011111
000000000001011000010110
111111111111111100000011
111111110110111011010010
111111111101001010100001
111111110111110010111010
111111111001111111000111
000000000001110101011101
