111111101111111000000000
111111111110001011001010
000000000110100100010110
111111111011110010100010
000000000001111100100110
111111111011011101101000
000000000000100000110001
000000000010110111001110
111111111110010000101110
000000000010111001011001
000000000001110111101100
000000000010000011010011
000000000011111100001111
111111111101000000001010
000000000010001110010110
000000000000010100111010
111111111111010111011110
111111111101010010000000
000000000001011110000001
000000000010101000010001
111111111111001001101011
000000000010010100100001
111111111100111110100011
000000000010011011100000
000000000000100001010010
