111111111101110011000011
000000000001100111110101
000000000000000111001000
000000000011100001000001
111111111100001000111101
111111111110000011001111
111111111011001111101111
000000000001010001101101
000000000010011110011011
000000000010000001000110
000000000000110110111110
111111111001101011000011
111111111011111011110100
000000000011111001101001
000000000001100000110100
000000000011100100101101
000000000101011000011111
111111111011100000100110
000000000000000100000000
111111111110110000001000
111111111111100011100111
111111111111000101101110
111111111010011010111101
000000000011111011101111
111111111100110100001111
