111111111110001100100100
111111111110110001101000
000000000011000111110000
000000000000101111010110
000000000001110111010011
111111111111011001110010
000000000011010111001111
000000000000011000001111
111111111011111010010001
111111111110101100110100
000000000010000111111010
111111111110101000000101
000000000000111001010011
111111111011010000110110
111111111110110101011001
000000000000101000010110
111111111110011011010001
000000000010110100010011
000000000000101110001110
111111111110011110110100
111111111101011011110011
111111111101101011110000
000000000001100111100111
111111111110010110100100
000000000000000101000110
