111111111110001101111110
111111111111100110000101
111111111111001100001101
000000000000100110101000
000000000000001101101000
000000000000001110001000
000000000100001000000111
000000000001111001110111
000000000000111000011101
000000000001100001111010
111111111001110111001001
111111111011101110110001
000000000000001111100010
111111111010100111111000
111111111100010011101110
000000000010001110001110
111111111101011011101010
111111111111000011111110
000000000100111011010111
000000000110100100111110
000000000001010111111010
111111111010100000110000
111111111001011110000000
000000000001101001110010
111111111100000100010010
