000000000011110011101010
000000000001111101001010
111111111111000000011010
000000000101000001011010
000000000100101101010011
111111111101011111110000
111111111010101011111000
111111110111000100000001
111111111001111001101010
111111111011111111101100
111111111110010111000101
000000000000111000111100
111111111011100101001100
111111111101010011000001
111111111111100000011111
111111111111011100001100
000000000000000010011001
111111111101000000010000
111111111111011011111011
000000000100000011110101
000000000011011100000100
000000000000000010100111
000000000001011110010101
111111111111100101001101
000000000010110001011100
