111111111101001101010011
000000000010010000000010
000000000011011000111110
000000000100101011011010
111111111101000010110010
111111111111100011111110
000000000011011001101001
111111111101001001011001
000000000000010100111100
111111111111001110000001
000000000000110001010110
111111111100110011101010
000000000000000010011000
000000000001110100010010
000000000000010011101101
000000000001110000110101
000000000000001110101100
000000000000110100000111
000000000000100110010001
111111111110011011001000
111111111101000110010001
000000000100000001110110
000000000010010101110111
111111111111100001000111
000000000001110010110101
