111111111100011001110000
111111111110101110101110
111111110010011000111001
111111110101001010111000
111111101111010100110001
111111111100110010010011
000000000001010100111110
000000000000101100101110
111111111100110001010110
111111111100011100110101
000000000000101101001100
000000000000010011001011
000000000001101110101101
000000000010110111001101
111111111111111101111111
000000000010101101100001
111111111111110111111111
000000000000010011011110
111111111100111011101100
000000000001000000000101
111111111101101111011001
000000000000010010100101
000000000001000100001111
000000000001010100001101
111111111110100011101010
