000000000011000000001110
000000000010101011110011
000000000011111000110100
000000000000001011100100
111111111001110011101101
111111111111111110001011
000000000100000110111010
111111111110001000010101
000000000000100100001100
111111111010110010101011
000000000011111101001111
000000000010100001101110
111111111101101111101110
111111111101010001000101
111111111100101011011100
111111111110111000111111
111111111111000101011001
111111111110111100101101
111111111101100110010010
111111111100001010011000
000000000000110101110011
000000000001001110110010
111111111101111000011101
000000000010000000011111
111111111101100111100001
