000000000010110101111000
111111111110001000101011
111111111100110111010110
000000000001100101100011
111111111111011111001011
000000000010011011100000
111111111110100000111000
111111111110100100001100
000000000001000111010100
000000000000011011010101
111111111010011101011001
000000000000110010110000
000000000101000010011001
111111111100001000011110
111111111010100000001011
000000000010001001001111
000000000010010000111100
111111111100111100011010
000000000100001111010110
000000000001001100110110
000000000000011110100100
000000000001011110001110
111111110110111110000100
000000000010000111110011
000000000000111010011000
