111111111110111010100100
000000000010101010100111
111111111110010101000111
111111111101101111100010
111111111101001110101110
000000000001001111011011
000000000000101000101001
111111111100111100110010
000000000001100100011110
111111111110111000111101
111111111100111001001010
000000000011100010100111
000000000011000010010000
111111111111100000000000
111111111110001111101110
111111111000101000101101
111111111111001010001001
000000000001101100000101
000000000001101010110111
111111111111100100010110
000000000000001101010010
000000000000000001111101
000000000011000101001110
111111111111001110001001
111111111101001001101001
