111111111111110010010111
111111111011111110101001
000000000001100110101101
000000000001010110011000
111111111111110100111100
000000000000100110101011
111111111110010000100001
111111111110110011010100
111111111100101000101101
000000000101100110010101
111111111110101111010101
000000000000001101101110
000000000100000100011111
111111111110011001111000
000000000000010011010111
111111111111001101001000
111111111100101000110110
000000000001101010110001
111111111100111011010011
000000000001111010000101
000000000001000010100101
111111111000000001000011
000000000101001001101110
000000000011111100010111
111111111110101000010001
