000000000000001110010111
000000000100000101110100
000000000100100111011001
000000000010001101111111
000000000001111100001010
000000000011010000001000
111111111101101010100100
000000000000010011001011
111111111101101000101001
111111111100111011110000
000000000001100000010011
000000000010100010111101
111111111110100101011100
000000000111101110111110
111111111100000110000110
000000000101001000110010
111111111110001011001010
111111111000110011010001
111111111111100001101000
000000000010101101000101
111111111110011001010101
000000000010111101010110
000000000001111100011001
111111111101001111011001
000000000000111000010000
111111111100000001101010
111111111100111010001100
000000000011011001100011
111111110110001100110001
000000000000001111011010
000000000110001101100101
111111111110100100001000
000000000000000100000100
111111110101001011001011
000000000000001111101011
000000000000111111001101
000000000001110110101001
111111111111111101101010
111111111011001011110111
000000000011110110100011
111111111111011000001001
111111111011001000010011
111111111110111110001111
000000000110010000001000
111111111011101000000100
000000000000101010000000
000000000010111100001011
000000000010001110101101
111111111001011010100011
111111111100101111001101
000000000001010001010101
000000000101111101111011
111111111110100000001100
111111111110110100000011
000000001010001011110010
000000000000110001011101
000000000101000001010010
000000000000101100000000
000000000000000000100010
111111111111101111110001
111111111110110001010101
111111111101101110001110
111111111111001001001111
000000000001001011110111
000000000001100101001001
111111111101010100101000
111111111111100111010001
000000000000100101011011
111111111101000111010000
000000000010001000110011
111111111010111010100111
111111111001011111111011
000000000011000011110011
000000001011101000000000
111111111111110100110000
111111111100111001010101
000000000101101101011001
111111111010000110110101
000000000011110000110010
111111111100100011000000
111111111111001001010010
111111111010100101101011
000000000010101110001011
111111111111011111001000
000000000001100000010000
000000000010110011001100
000000000001010100010110
111111111111111101011010
111111111101010110010000
111111111101010010111110
111111111110001100001111
000000000000010010000010
111111110111011101001001
111111111010100101000100
111111111010100110111111
111111111110011000011110
000000000000110000110001
111111111000011100010111
111111111110101000000111
111111111110011111011011
111111111011001001100101
000000000001001101100101
000000001000011110100110
000000000011000000010001
111111111101011010001001
000000000000101111100011
111111111110101000010111
000000000010111100011001
000000000101110100011010
000000000110011010100001
111111111101001111111010
111111111111010110001100
000000000010110110001000
111111111101011110000100
111111111010110101101000
111111110111001000110010
000000000001101101000000
111111111100010001011100
000000000010010001011011
000000000000010001101011
111111111011100000111001
111111111101111100110000
111111111110111111110111
111111111110100010111110
000000000001111110111010
111111111001111000011010
000000000101001010110110
000000000001000100111100
