111111111110100111101100
111111111100010001001101
000000000101000100110110
111111111101001111011111
111111111111100100011000
111111111101010000110001
111111111110011000011011
000000000000101001011000
111111111101100110011011
111111111010000000000011
111111111011101000110110
111111111110001101100110
000000000000000010001110
000000000100100100011011
111111111100001101110110
000000000100111110100001
111111111110001011111000
000000000010001100111010
111111111110101110110101
111111111111111100001110
111111111101010110110110
000000000000001100011011
000000000101110111001010
000000000001011110001011
000000000001011000100111
000000000010101100001111
111111111010110000000011
111111111110110111000011
000000000010100111110110
111111111110000011011010
111111111111110001010110
111111111111101000010100
111111111111111010101001
000000000001010011110010
000000000000000001111010
111111111110011010010010
111111111111010110000110
111111111100111010010110
111111111111011101011001
000000000011010110110010
111111111010110011011010
111111111011010001001011
000000000000111111001010
111111111101011010111111
111111111010000000000101
111111111111010101011111
000000000010011001111101
000000000011010110101110
000000000100110010000111
111111111101001110100101
000000000100000001111000
000000000000110101001110
000000000001101011001100
111111111111110110100001
111111111110111100010100
111111111100001100101001
111111111100111110101000
000000000010001100101000
111111111111101001111011
111111111110000001011011
000000000000000001110011
111111111001110011101110
111111111111111000010110
111111111100100111101111
000000000001111111110111
111111111111101011000000
111111111001101100011100
000000000011110101011111
000000000001110110010111
111111111110100100000100
000000000111111011001000
111111111010111111101111
111111111011001111011010
000000000110010001100111
000000000001011001110111
111111111111110111101110
000000000011010011101100
111111111110111100110111
111111111101100111111101
111111111111111010111100
000000000001111110011010
111111111110100000110111
111111111010100010111110
000000000101010000111010
000000000011111110100111
000000000000000001100010
000000000101100101000110
111111111001001011011111
111111111111011001010010
000000000010111001110011
000000000011110000010001
000000000011101001010100
000000001010000101000111
000000000001110100111110
111111111101011110110001
000000000000101111001101
000000000000111000000100
111111110110000011010110
000000000010101100001111
000000000001110101100001
111111111111000001100100
111111111010000001000001
000000000011110001100001
000000000000011010010000
111111111100110110010110
000000000001110111100001
000000000011011111101100
000000000000011000111110
111111111101100011111011
000000000001101010010110
000000000101100101010010
111111111011011110100011
000000000010111010000101
111111111101011001000010
111111111111100011011001
000000000010101111001110
000000000100001100010111
000000000100111011101000
000000000000001111101111
111111111111101100100000
111111111101010010000001
111111111100111111101111
000000000101000100011011
000000000100001011000111
111111111111011110000011
000000000001001001011110
111111111100011010000111
000000000010011011011000
