111111111101111100111000
111111111100011000110011
000000000001010110100000
111111111110010001111011
111111111111101010111110
111111111111000011000010
111111111000011010000000
111111111110100111001010
000000000010101011010000
000000000100000100111111
111111111111011100010001
111111111110101001010110
000000000000011000110011
000000000000101100101000
111111111111001110010000
000000000010110001100011
111111111111010010001001
000000000010100111101111
111111111111100000100110
111111111100101111000111
111111111001000011111111
000000000101110010010010
000000000011000100010000
111111111111111100100101
000000000100000010110000
111111111110100101010011
111111111110011111011011
000000000010000010001010
000000000000010011011101
111111111101110100011100
111111111111101010011000
000000000001000001100110
111111111101011011111011
000000000000010010000001
000000000100011010011110
111111111010001100111111
111111111110100011001000
111111111110010010000100
000000000001001101111010
111111111111110101000101
111111111111100101111011
111111111000111110100100
000000000001100110001000
000000000001000011100111
111111111001000011111100
000000000000001001110101
000000000000001111110000
000000000011111000111010
111111111111101100011011
000000000000001110001101
111111111111100101011110
000000000010001011100110
111111111100010101101100
111111111111100101110001
111111111111011110101011
111111110101101000001101
000000000001011111001111
111111111111111010000001
000000000010010100100110
111111111111000000101101
000000000001011111110000
000000000001111010101011
000000000110000111011111
000000000001001001001000
000000000001010110111001
000000000001011111101110
000000000010010110011011
000000000000010111111001
000000000001011110000011
111111111001101001001000
111111111110010000101110
111111111011011110100011
000000000101100111111101
111111111110101000001100
000000000000000111101011
000000000000110000010100
111111111111110101010110
000000000011000011000111
000000000011010001100101
000000000100011110010100
111111111100000101111011
111111111100111000111010
111111111011110001000011
000000000000000000110111
000000000111100110101110
111111111100010010100001
111111111111011110010110
111111111001101100001011
000000000011100001011101
111111111110100001010001
000000000001010111101100
111111111011111011101100
111111111001010110000001
000000000000100011000110
000000000001001010000011
000000000100101000000010
000000000101011110000011
111111111111000000101011
111111111110100000100011
111111111110110110100100
000000000010011100000001
000000000001101010000011
111111111110110101111100
000000000101010110000011
111111111111110111010010
000000000001001100101100
111111111111011101000111
000000000001101101010011
000000000001000000100010
000000000101111011000111
000000000000111000011111
111111111100011011001111
111111111010110100011111
000000000000001101110100
000000000101100001001110
000000000111101111110000
111111111111010110101010
111111111011100101001100
111111111101001000110111
000000000001000010100111
000000000000100001011000
000000000001001001100011
111111111001110001100110
111111111101001110000001
000000000011011111110100
000000000001000011101100
000000000000001100001001
000000000001111100101001
