111111111001010010000101
000000000011100110001010
111111111100000101101011
000000000000010101010100
111111111111011010110011
000000000000110001111000
000000000011101100111111
000000000000111011011001
000000000011010100100000
111111111110010110001010
000000000011110010101110
111111111110011100010011
111111111011011011101100
000000000110001010011001
000000000010011010110111
000000000011010110111101
000000000010100100100101
111111111100111110010111
000000000001110110100101
000000000011111100010110
000000000101100100001111
111111111110101101001001
111111111011000101001001
000000000001000011101001
111111111010000111001000
000000000011000111111111
000000000001100111100000
111111111101100010111001
000000000000111101001011
111111111011110000000011
000000000000110001110100
000000000010001011000000
000000000001000101001000
111111111101000101110010
111111111110011011010001
111111111101010100001000
111111111101011000101101
000000000000100011101110
000000000011101111000111
000000000011001011101001
000000000101100100011111
000000000010011111100001
111111111101000011100101
000000000100000001111000
000000000101011101011110
111111111110100110101111
000000000101001110111101
111111111100110100100100
000000000011011001110101
000000000010101011101011
111111111110001010010101
111111111011000111111010
111111111001110011110011
111111111111001001010100
000000000000001010111110
000000000011001110100011
111111111111111100110001
000000000100011011101000
000000000000111010111001
111111111111001110100110
111111111110001011000011
111111111110001001101101
111111111110000010011001
000000000100011100010100
111111111011111000101001
111111111110110111110100
000000000101100010101110
111111111101000110101011
000000000100010011101100
000000000010110000011000
000000000000110011000111
000000000010100101101111
111111111001010110010001
000000000110011000001011
000000000001110000001000
111111111011101001110111
111111111111011010110001
111111111101000111101011
111111111101010011001010
111111111011110110100001
111111111100001011000011
000000000001010100000010
111111111010011110111100
111111111011000000111100
111111111110011111001111
000000000000100111011011
111111111110011010100011
000000000011100011001000
111111111101100111110011
111111111101111010100101
000000000001100111001011
111111111010101101100001
000000000110010000001001
111111111110101011001100
000000000011011000010011
000000000011101001100110
111111111110110111100111
000000000000010110001001
111111111010101101110101
111111111100001110110011
111111111100111111101011
000000000001111000101011
000000000001111111011100
111111111110011010011100
000000000000010111101010
000000000100000110001101
000000000100010011010100
111111111110101000100001
111111111101100100100001
111111111011100111011001
111111111011011100001111
111111111001111101101011
111111111101010010101100
000000000000111100000010
111111111101101010110001
111111111001100100001010
111111111100101000110110
000000000010101111001111
111111111010100011111111
111111111110111110101011
111111111110100110101001
000000000001101010000110
111111111111100110011111
000000000010110101011001
111111110111010111000101
000000000011010001000000
000000000011010010001101
000000000011000000010001
