000000000001110011000101
000000000000101100111010
111111111110010000111000
111111111100101000111110
111111111101011000101100
000000000011001111100101
000000000001111110010110
111111111100110010101000
000000000010011001010100
111111111011011011100001
111111111111010111011101
000000000011100101100011
111111111101111001011101
000000000101011010011010
111111111101010000011001
000000000101101100000011
000000000011010010111010
111111111110001001101101
000000000010011010000100
000000000000110011001111
111111111111001011110010
111111111111100110111101
111111111010110101101011
000000000001000001110001
111111111110111010101010
000000000001110011011111
111111111111001101000010
000000000001011110011001
111111111110000110111111
111111111100110001001101
111111111100011011101100
111111111110010000001100
000000000010100100010101
111111110111100100000101
000000000011011011001000
000000000000010111010001
111111111101010011011110
000000000011001100110001
000000000010000010101111
111111111111100011110101
111111111111011101100010
000000000010110101010001
111111111101001010000000
000000000000001011001010
111111111100011011100001
111111111111000110001010
000000000110010011111011
000000000100001100011101
000000000000010011001000
111111111110001001100100
000000000001011000110101
111111111110010101010011
000000000000100110010010
000000000000010000100100
000000000001000010100011
111111111101111001101110
111111111101011001111110
000000000011000001010111
111111111111010101000001
000000000000101100011000
111111111101111011110011
111111111101101100111011
000000000000011110111001
111111111110110101001001
000000000001110100100111
000000000011001000101110
000000000100101101101111
000000000001000011011010
000000000010010100111011
000000000101010010011111
000000000010100111000100
111111111111111010011111
111111111101101111001001
111111111101101110101010
111111110111110011001101
000000000100101111010010
000000000100100110011001
111111111101110100001000
111111111100000100011001
111111111101010110011010
000000000001111100110101
000000000001101010101010
000000000000000001010001
111111111111000010101111
111111111101001000100010
000000000010101110110000
111111111011001011000110
000000000010011011000000
111111111101101110000011
000000000001110000010000
000000000001111010010110
111111111011001110001000
000000000000011010110110
000000000000000001010011
111111111111001110100001
111111111101001001011100
111111111001010101001101
111111111010110001001101
000000000011110000001101
000000000010010011011101
111111111101111111000001
111111111110011011010101
000000000001011111101010
000000000011110110001110
111111111001111111110011
000000000001011111001010
111111111111010010100000
111111111111001111100010
000000000000100011111100
000000000010110101100000
000000000100000101100110
111111111101011011100101
111111111110000010010001
000000000000001110011000
000000000011000110101011
000000000100101100100101
000000000010011111011000
111111111111010001011010
000000000010110011101000
000000000001000000001110
111111111110010010001110
000000000010011110111010
000000000000100010100110
000000000010001010101000
111111111111010100011110
000000000000100111001000
000000000011011000110111
000000000011110001111011
