111111111110010111100001
111111111110101010010001
000000000001011010011000
111111111101111111011111
000000000011011111000111
000000000100001110101001
111111111110111110110000
111111111110001011110100
111111111110010111101100
111111111001100100110011
111111111111010011101111
111111111111111101000011
111111111000001011000100
000000000001101011100100
000000000000110100000111
111111111111010011000110
111111111111001110111011
111111111100001000110110
111111111111110000110100
000000000000000000000000
111111111110001101100011
000000000010010011111011
111111111011111011001001
111111111001100111110001
000000000001100110001000
000000000101110011100111
111111111000101011101011
000000000010100010111010
000000000100001101001110
111111110110011001110010
111111111101000101010111
000000000101010100101011
111111111010110011111100
111111111100000011001111
000000000001010000101110
111111111111110111000100
111111111100001000110001
111111111110000101010011
000000000011100011000100
111111111011011010110110
111111111011001110001000
000000000000001001010100
000000000000100010010100
111111111101010001110010
111111111101000100001010
111111111100101110101100
111111111011101100000101
000000000000001011010000
111111111010011100000011
000000000001010100000000
000000000000001100000000
000000000011011000011110
111111111110111000101000
111111111111011110101011
000000000000011101101111
111111111101100011000110
111111111111110100001001
111111111101011100111101
000000000100100001011001
111111111110100000101100
000000000011000110010111
111111111110111100010011
000000000010111101000111
111111111101101111100101
000000000000110010011010
111111111100100001101101
111111111100011000000111
000000000000011101010111
000000000011101101011110
111111111110111101100111
111111110110101101100011
111111111010110010001000
000000000001111100001001
000000000100101010111000
111111111110100000001001
000000000000111100100000
000000000001110010111101
000000000000001000100110
111111111111010011110100
000000000101001011001100
111111111100101110010011
111111111110100011101110
000000000010000101001110
111111110110101010010000
111111111100111000111010
111111111101001011100110
111111111110101110100111
111111111100001111101000
000000000000100000111000
000000000001100110101010
111111111110111110001111
000000000010011101101100
111111111011011000000001
111111111110100000010001
111111111110011000011101
000000000001100010001001
111111111000110011101010
111111111110001111111011
000000000100011010110100
111111111100001101101001
111111111011110011010011
111111111110000110101110
000000000000000111100101
000000000100010100010101
000000000001000000000011
111111111100000000000110
000000000000000000101010
000000000011001011111010
000000000011011101101001
000000000100100001101100
111111111000100001000101
111111110111100010011111
000000000000001110011011
111111111000001111000110
000000000011010000001101
000000000011101100000111
111111111111000110000000
000000000000101110110100
111111111101101010001110
000000000010110101010111
111111110101000000010000
111111111111001010100101
000000000000111000101000
111111111000011001010011
111111111010111111110001
111111110101111100011010
000000000010000001010001
111111111101001000011111
