000000000000100101101011
111111111101101101011011
111111111111000001111000
000000000000000011001100
000000000110110100000010
111111111101110000101110
111111111100111011110010
000000000001011011100110
000000000011111010011001
000000000000101101001000
000000000010000000111011
111111111101011001011100
111111111011100101011101
000000000010010101011010
000000000100001000101011
111111111110101111011010
000000000010110000011110
000000000100000010011111
000000000010001000111000
000000000110000100010101
000000000011000010100100
111111111011011010001110
000000000001111110010100
111111111110100110000110
000000000011101001010110
111111111011000001110011
111111111110100110000110
111111111101010011010100
000000000001100011110110
111111110100000111001100
000000000011001001100101
111111111111110110100101
000000000010111111111110
111111111111001100100011
000000000010010011100110
111111111101010100001110
111111111101001101010100
111111111110111111001011
000000000001110010010010
111111111101000000001111
000000000011010001111101
111111111000000111101100
000000000010101000000110
000000000010001100101101
000000000000101010000110
111111111100101000011000
111111111110011110010111
000000000010010000110100
111111111100111001101110
000000000001000101110100
000000000000111001010110
000000001000101101001000
111111111111010111111101
111111111001111001000000
000000000010101110101000
000000000001010010100011
111111111110110010101100
111111111111001010011110
000000000000000100110011
000000000011101001000001
111111111111101000111010
111111111100101100001100
000000000100001111010001
000000000011101000011010
111111111110001110010010
000000000000001000101010
111111111101001100000111
111111111001000010001010
111111111110100010111111
111111111110111111111111
111111111000111011011100
111111111011101010001000
000000001000111010011000
000000000011011100001001
000000000000011011001010
111111111111101001000101
111111111111010101101101
000000000001111011011001
000000000101000011010110
111111111111000000011111
000000000001011010010011
000000000000011111100110
111111111001001110110011
111111111011110111110110
000000000000111110100010
111111111100000110101110
111111111110100111100110
000000000010000001000001
000000000000001100001111
111111111110101001011011
000000000010011101010001
000000000001110100111111
111111111011110111001101
111111111011000001111010
000000000100001010110000
000000000001100111000001
000000000001000111101101
000000000101100101001000
111111111101000111101111
000000000000111001001100
111111111100100101001111
111111111011000101111100
111111111110101001000010
111111111110011101010010
000000000001100000010010
000000000001010101000010
111111111111110110101101
000000000001000110110011
000000000000001101101100
000000000010111000111011
111111111010111011110000
111111111101011110110101
000000000001000100110110
111111111111100011101111
111111111100111011001110
111111111111011010000000
000000000001110001000001
111111111100001100100110
111111111001000101110001
000000000001100000110001
000000000010111101001000
000000000000100100011100
111111111101101100101000
111111111111111000100010
000000001000001110011011
111111111111111010000011
000000000010000011100111
000000000010100101101010
