111111111111110010101110
111111111101110011010101
000000000011101010001000
000000000000011000110100
000000000000000100010010
000000000101011110011101
111111111100001100000011
000000000000010010001010
000000000001101000110110
000000001000010011001000
111111111110110000010001
111111111011011101000111
000000000000100011111101
000000000010111110001101
111111111110100000101001
000000000010111001101011
000000000011100111110011
111111111111111011000011
000000000010111011110100
000000000001011100111111
000000000010110011101110
000000000001001010001100
000000000101100011000000
111111111101000011011111
000000000000100101101001
111111111111011001111001
000000000010100001010010
111111111101010000001100
111111111111111100110010
000000000000111001100111
000000000001111000111010
000000000011011001011011
000000000010111111111000
000000000000101000110100
000000000010000101000100
111111111011110000001101
111111111000011100100010
000000000001101001010011
111111111100100010101001
000000000110010000000100
111111111111110010000010
111111111100000110110110
000000000000011000011000
000000000111111001101110
111111111111011100110111
111111111111010000011110
000000000010000111011011
111111111100011010001110
000000000110011000101000
111111111111111010000011
000000000000110111100000
111111111001101101001111
111111111111110101001010
000000000100100101100011
000000000000110110001101
111111111101011010111101
000000000000100010111000
111111111011010100001000
111111111011001010000111
000000000001111111100010
000000000011000110001110
111111111010010101011111
000000000000100011011000
111111111110101100010000
111111111111101001010000
000000000000110101101101
111111111101110010010001
111111111111001000001100
111111111101110011011010
111111111111010000001101
000000001011101101001110
000000000000100111000010
000000000001011010100110
111111111100000000111100
000000000011101011011100
000000000000110000001011
000000000000101111100000
111111111110100100111111
000000000001011001001001
111111111111000001110110
111111111110111000101001
000000000000100100001000
000000000010000011101101
000000000010011111101001
000000000000111110000010
000000000000000110001000
000000000011001011000111
111111111101000110100110
000000000100011110011100
111111111110100000101101
111111111111101001000101
111111111100101000001001
111111111111011011011001
000000000001110110100000
000000000001010101011100
111111111110001000101001
000000000100010100110101
111111111011100110000000
111111111111111000010101
000000000000000000110101
000000000010111011001101
000000000100011100001101
111111111101010000011111
111111111100110001000000
000000000010001010011000
000000000010011100101111
000000000010110010111111
000000000000101111010001
111111111101011010101110
111111110111001111000100
000000000010101000111101
000000000100000010001000
000000000010101011011111
000000000001011000000001
000000000001101010110100
111111111111000101000010
000000000001101101100111
000000000001101101011000
000000000000011010100011
111111111111111111001010
111111111110000111011100
000000000101001010101100
000000000010111111101101
000000000010100101010011
111111111111101110111010
000000001000111101111100
111111111111100010111100
111111111011001001100100
