000000000010010001001101
000000000110100000100101
000000000100001000001001
111111111101111001001100
111111111110011000000111
111111111111111011110101
000000000101101000010001
111111111100011101101101
000000000001011011100110
111111111101110111111100
111111111111011001001001
000000000000011000111010
000000000011011111101001
111111111011000111000101
000000000011100000101110
111111111010110000000010
111111111101001100111101
111111111011100111010001
111111111101001011111001
111111111000010100010011
000000000011110110101001
000000000010011100001100
000000000011001000011100
111111111111010001010010
000000000010011110010111
000000000000000101010001
111111110110110011010001
000000000011000101011100
000000000001100100100000
000000000010110000111001
000000000000011100110000
111111111101001000010100
111111111100011010111110
000000000101100110010010
111111111100110001101111
000000000011000110110010
111111111100110111111100
111111111100101111011001
111111111111110000000111
000000000000011000000100
111111111101101001100000
000000000111100011011001
111111111110011111101010
111111111101000010101110
000000000001110111001100
111111111100010000110011
111111111000111010001110
000000000000101011011111
111111111101010011010101
000000000001001000011010
111111111111111100111001
000000000001001000101001
000000000010110110101111
000000000100001010110010
000000000011000001011001
000000000010101100101100
111111111101111010111100
000000000010110011010101
000000000010101000010011
111111111100011110101110
000000000000011010110001
111111110111001101100101
000000000110001011011101
111111111111100110101010
111111111111011001101001
000000000000110100100000
111111111110110010011101
111111111110111000110111
111111111011100011101111
000000000000100101001000
000000000000010101100010
000000001000111100111010
000000000011011101111001
111111110110010010101100
111111111100011110001110
000000000011110101010110
000000000010111101010001
111111111110000101101001
111111111110101001000110
111111111111110110101000
111111111111000101101011
000000000001011000000111
000000000000010100001100
000000000100110101101001
111111111100101111110010
111111111010110100011001
000000000010011010010110
111111111111111101000111
000000000100101001100100
111111111100111101100111
000000000010110111000101
000000000001001101010100
111111110110111011001100
000000000110111010111100
111111111110111110001000
111111111111111011001100
111111111101001100001101
000000000010111110100110
000000000010101011111001
000000000011010111000100
000000000001011111101100
000000000100101001101111
000000000110100110110111
000000000001110101101000
000000000011000100010001
111111111100100100011010
000000000100011000000010
111111111110000111010000
111111111110001011100101
111111111111111000001110
111111111110111111111110
000000000101001010001010
111111111111000011001011
000000000100000101000100
000000000001010101011010
111111111110100010100010
111111111111111010000100
111111111110001100111001
000000000111110101001010
000000000010000101001001
000000000000011111101111
111111111010000011101001
111111111101010100111111
111111111011000111001111
000000000011011000000101
000000001001100100010110
111111111000100100010001
111111111011010010011011
