111111111110000110101100
111111111100100111100100
000000000101011100011011
000000000010010100000101
111111111111110110010011
111111111111011110100000
111111111001101010000100
111111111001101011000000
111111111011110110110111
111111111010101110100110
111111111111100001101000
111111110110110101100000
111111111101000111011101
000000000100010101001101
000000000010000011110111
000000000100010110010010
111111111100110011111011
000000000101001000111011
111111111010011010000010
000000000011010010011100
111111111110110010010111
000000000010011111111110
000000000011100001010011
000000000100111101101000
000000000001111011000001
111111111100111101110101
000000000000010011110001
000000000000001101011101
111111111111010111001001
000000000001001001001001
111111111110101011001011
111111111110001110100011
111111111100010101011010
000000000011111111011110
111111111111111110110100
000000000000010010011001
000000000101100001000010
111111111001010101111110
111111111101100111011100
111111111100111000110001
000000000110010010011000
111111111011100110001010
000000000010000111001001
000000000011010010101001
111111111100100000111011
111111111111110000100101
000000000001010001010011
111111111110011100000101
111111111110011000010001
000000000011100110100000
111111111011010111011011
000000000010000101101001
111111111011100011001010
111111111111110100001100
111111111110010011100100
111111111101010010101101
000000000010111100100010
111111111010011011010101
111111111110101110010100
111111111111000110101001
111111111101100100100000
000000000011110110111111
000000000000001011010101
111111111110001101000100
111111111010010011010101
000000000001000100000001
111111111111000100111101
111111111101110110011101
000000000000110110011001
000000000000111000101010
000000000011101111001111
111111111001011010111110
000000000010000001111011
000000000011100100001010
000000000110101011010011
000000000010110000110010
000000000001010110001001
000000000010001111101110
000000000101100100001111
000000000101101011000111
111111111100101010011000
111111111101011000010110
000000000001100010000001
000000000011111001011111
111111111011011100010000
000000000000111010110101
000000000010110011101001
111111111101100011000111
000000000001100100100101
111111111111000100111010
000000000001100010110100
111111111101101000101111
111111111100011111011011
111111111101101001100011
111111111111011110100000
000000000010100110001010
000000000010010111110010
000000000110110100101001
111111111011110011000110
111111111101001011000010
111111111011001010110011
000000000001000101011011
111111111010100100101011
111111111000111111010000
000000000001101100001000
111111111100101010110100
000000000001101110111011
111111111011111001011110
000000000010000100100110
000000001000011001110111
000000000000101000000001
000000000000100000010110
111111111100101111110100
111111110111100011010010
000000001000000101001010
000000000101010111110110
111111111101010111100110
111111111110111001011101
111111111001110101111010
000000000011010010111100
111111111110001111000011
111111111100101010000101
000000001000010101110100
000000000000111001011100
000000000001011111110111
000000000001100011000010
000000000010110111100001
000000000000001111100101
