000000000001110100110011
000000000000011001111011
000000000000011010010001
111111111110010100001010
000000000001011011001101
111111111101010100010010
000000000010010100000010
111111111111000100011100
111111111111011000001010
000000000010101001010011
000000000001001110000001
111111111100001100110101
000000000011110101111001
111111110110001100001111
000000000100010101010001
111111111110101011111011
111111111111100011100111
111111111011011111011110
000000000000100010011110
111111111101110111100011
000000000001111110101101
000000000100001010001001
111111111111000010010000
111111111100011010100011
111111111111101110000101
000000000011100111001011
111111111110100010010001
000000000101101000000100
111111111101001101000100
000000000000100000011010
111111111101101100010000
000000000101011100101110
111111111100110110111111
111111111100101011011000
111111111111010011111011
000000000011010011011000
111111111111100111111100
111111111110011100111010
000000000001101101011110
111111111101100111100101
111111111111001100110010
000000000000000110100011
111111111111010101100011
111111111010000011000001
000000000000001111101111
111111111001010100011011
111111110011101101100001
000000000001001100111111
111111111011001110011101
000000000100001001100011
000000000000100100110110
000000000000000110111111
000000000010001010100010
000000000011111101100100
000000000010100000011011
000000000101100101110111
111111110111111110111100
111111111100011100000100
000000000001001101110100
000000000000111011100001
000000000001001100010100
111111110110111101110110
000000000000101101001000
111111111101011011100000
000000000010001110001011
111111111011110111100000
111111111110010000111001
000000000110110010100010
000000000001011011101001
111111111110011100111011
111111111100000100101011
000000000001001011010000
000000000011001000001011
111111111100001010001011
111111111101110001001110
111111111111000111010100
000000000000011111100111
111111111110011110010001
000000000001110000000011
111111111001111001101101
000000000010111110110111
111111111000100010000110
000000000010000001111010
000000000011000110010000
111111111101010010100001
111111111101101101010001
000000000010011110110011
111111111110010100000100
000000000010111001011000
111111111111111100100100
111111111110000101000001
111111111110000111111001
111111111011011000111111
111111111110110000000001
000000000000011101100010
000000000000001101011010
000000000000000010000011
000000000001000011101101
000000000010011101111010
111111111011101000001011
111111111000001101110111
000000000000001000010000
111111111110001110001000
111111111111100000000101
000000000011111100101111
000000000001001100111001
000000000000101101110011
111111111110101011100011
000000000000100000110001
111111111110110111000111
111111111010100100000001
000000000010110010110110
000000000000000010101001
111111111100111100101100
111111111110000100000010
111111110110111110111011
111111111011010000101101
000000000100010111111101
000000000001000100100010
000000000011101101100110
111111111100000110010110
111111111101001000100011
000000000000100101110010
111111111011001100110000
111111111011101100000011
000000000100000011100001
111111111011110100010000
111111111111101100100001
