000000000011100010011111
111111111101011001001110
111111111100101000111111
111111111110000000101010
000000000001111010010110
111111111101110101010011
000000000001001100100110
111111111010111111000010
111111111110001111111001
111111110100011010110111
000000000001101010101000
000000000000100111011101
000000000001011010001110
000000000000000001000001
111111111101000100011101
111111111100001100101000
111111111110101110001010
111111111110001010110110
111111111101011101101101
111111111101101010000111
111111111110110011111111
000000000011100110100111
000000000010100011010000
000000000010100111010000
111111111110011010001110
111111111100000100110010
111111111100111110010100
000000000010110010100010
000000000010111100010111
000000000000101101000001
111111111101000111110111
000000000000000100001010
111111111110000110011000
111111111110011100111111
111111111010011011100000
000000000010001000110111
111111111110011011000010
111111111011110101010101
000000000100001000010100
111111111101110001100111
000000000000001001000100
111111111111111000001011
111111111101001001111101
000000000010110011000010
111111111100001010101110
111111111111111011101101
111111111111110100000011
111111111110001011100101
000000000000101100010111
111111111111111010000010
111111111001010000000100
000000000101000011011101
000000000000000000111101
111111111110101100001100
111111111100011000101101
000000000000001100011001
000000000000000001010100
111111111111100010000011
000000000001101001100000
111111111110110101011001
000000000001110010000110
111111111100100110110001
111111111111100100100110
111111111111111010110101
111111111110000000110111
000000000000111110101001
000000000001101110101101
000000000010111001011111
000000000010001001010111
111111111101100001110000
000000000000001110101001
111111110011111100010001
111111111100010010101011
000000000100000101001110
000000000011010100100000
111111111111100101111110
000000000010101110000101
111111111110110110111000
000000000001010001001001
000000000110001000001010
000000000001101111000011
111111111010011000110110
000000000001000110010101
111111111110000111001001
111111111110111111111101
111111111110101101110111
000000000101111001111000
000000000001111110010010
111111110111100111111011
111111111101010101110111
000000000100010100000101
000000000000111111110001
111111111010011111100101
000000000001101101111100
111111111011001100101111
000000000000101101110101
111111111001011111010110
111111111011000010001000
000000000001001001010000
111111111011001000101101
000000000001111110111000
000000000010101111101100
111111111100001001000101
111111111011110110011011
111111111100100100110101
111111111010000110111111
111111111111011000011100
111111111111100111100010
000000000011001011101011
000000000010001101000100
000000000001010011100010
111111111010001010111100
111111111100010111110110
111111111101011010001001
000000000010010011010100
111111111110100010111011
000000000001100010001000
000000000100111101001110
111111111101011011001100
111111111111101011111110
111111111000101001011000
000000000000101111100001
000000000101000110011110
111111111110111001100111
111111111110110000010100
111111111110011011101101
000000000000011111000011
000000000101001100001001
