000000000101101110011001
000000000010000110010111
000000000010101011010010
000000000000000101000000
000000000000011010101011
000000000001001000101000
111111111111010000011001
111111111101100101110101
111111111111100100000110
111111111101001011101111
000000000010000110001000
000000000010011110010110
000000000001001000011011
111111110110010011110010
000000000000011110101100
111111111101111100011000
111111111110101100011101
111111111110111111101010
000000000000100100100011
000000000010100110101111
111111111011011010101111
000000000011100101100111
000000000000011001001010
000000000010011111100110
000000000000101100101000
000000000110000000001001
111111111101011110000111
000000000010101001111101
000000000010001001001001
000000000010101000001001
000000000000010010011000
000000000101011001110000
111111111110000001100001
111111111110010001100100
111111111110111101111111
000000000111010000001011
000000000111001001101000
111111111101111001011100
000000000010011000110010
111111111111101000111100
000000000001100001100111
111111111101110111100000
111111111101110111111010
111111111001010111011100
000000000000010011010100
111111111101000000011001
000000000000100010011110
000000000100000111001110
111111111010010100110100
000000000010010110101101
000000000000000100010010
000000000101011110111010
000000000011001111111110
000000000000101110010001
000000001000010001010100
111111111110000110111011
111111111011010100100110
000000000001000000010100
000000000100110010001000
000000000001010000010000
111111111110011010010100
000000000001000100011001
000000000001111001100101
111111111110001001011011
111111111111100011101010
111111111101111111101111
111111111101101010100111
000000000100100110100010
000000000010000011100011
000000000001111101001111
111111110011110101010110
111111111111010100100001
000000001000000110011000
111111111111100100001101
111111111001101011010101
000000000000001011100111
111111111111110100110101
111111111101010000000010
000000000000110010000010
111111111110000010101110
000000000000110011101010
111111111100001111011000
111111111110000100010111
000000000001110001111001
000000000001110011010011
000000000011011001110111
000000000010100101010100
111111111010101011100010
000000000011110100100111
111111111110101000011111
000000000001101100011000
111111111100010110000100
111111111010001011110100
111111111111001010110010
000000000000111110110100
000000000010110100111111
111111111110111011110000
000000000000101101101111
000000000000111000101010
111111111011101010110101
111111111110100100111101
111111111001111011001111
111111111100101111110110
111111111111011100000010
111111111101001110111100
000000000010010000011000
111111111011100111111010
000000000010010000011110
000000000100100000010010
000000000100101010110111
111111111110010101011101
000000000010001111110110
000000000000111011110111
111111111110011100010000
111111111101001111001000
000000000111111101111111
111111111111111101101011
000000000000010101101010
000000000011111110010010
000000000011110101110110
000000000000010110111111
111111111110001001110010
111111111000100011110011
111111111100000100111001
000000000001000110101001
111111111110100000100100
111111111111100001001101
111111111011011110011001
