000000000000111110101101
000000000001011110110110
111111111110000111110001
111111111111100010010101
111111111011110010010001
000000000001010101100111
111111111100100101100100
111111111110001001110011
111111111101100000100100
000000000100011011110010
000000000010001110110010
000000000100111011110010
000000000100001010110011
111111111110111100001001
000000000010001100001110
111111111101100110000100
000000000010011101010110
111111111111001101001100
000000001000001100111010
000000001000100111100111
111111110001111001011110
000000000000100111000001
111111111101010110011010
111111111100100001011000
000000000001001000011101
000000000101011111010100
000000000100000110101110
111111111101110101010011
111111111011000111100111
111111111111001000010000
000000000111100111100110
000000000010010001010011
000000000011001010010111
111111111011110101100001
000000000110100100101100
000000000101110110001011
000000000011010000001101
111111110111011101111011
000000000110101110001110
000000000011101011000000
000000000011101001011000
111111111111111101110101
111111111011110100000011
000000000100000011110110
111111111101111110011101
111111111011111100000110
000000000010000010110110
111111111000111011110100
000000000001101010010011
111111111101110010010101
111111110111110010101101
111111111100011011111101
111111111111111111011110
111111111101000110111110
111111111111001100111010
111111111000111001101101
000000000011010100101111
111111111010111101001001
000000000000101100010110
111111111111101000011101
111111111100110010011011
111111111010101101010111
111111110000011111010011
111111111111011100011101
