11111111111111111010100111111010
00000000000000000101101011001000
11111111111111101000011111100101
11111111111111001101010100101110
11111111111010000001011000100011
11111111110111111100001001000011
11111111111001100001111101000011
11111111111101000011100100001010
00000000000100010000101111001111
00000000001001010101100100100010
00000000000010110001000111101100
00000000000000001101100001001111
11111111111110101101110101111110
00000000000011000011110100111111
00000000000001011000001110011100
00000000000000000101100010001001
11111111111110010000110100010010
00000000000001100000110101100100
11111111111111111010111000011001
11111111111110000011000110010010
11111111111111101101111001101001
00000000000001100001011100101100
00000000000010101100000100101011
00000000000110011100101110100110
00000000001000010100011011100100
00000000000100010001011110110011
11111111111111000100100010111001
11111111111011111100101000000010
11111111111101010010110001100010
11111111111101100111111101010011
11111111111101011110011000101101
00000000000001100101101111111101
11111111111110010000100011111001
00000000000000100110110111111000
00000000000001100101001100111010
11111111111110111001001000100111
00000000000001001100110001010111
00000000000010001111010001011011
00000000000000111011101001111111
11111111111111001101110100010101
11111111111010110111011101010011
11111111111001111011001100001100
11111111111110010001011110111111
00000000000001100001100111011010
00000000000001110011110010001101
11111111111110101011001101111010
11111111111110001111100100011001
11111111111111101110101100000101
00000000000000001011101101110001
11111111111110110111111110010000
11111111111110101001101000010101
00000000000001011000100100101010
11111111111110111011010110011011
11111111111010110111011100000001
11111111111101010111100010100110
11111111111110110011110110111111
00000000000010000100111011011101
00000000000010010100111101111100
11111111111100011101010000101001
11111111111110000011110101111001
11111111111101011010011110001000
00000000000000101100001101011100
00000000000011001000001111001010
00000000000101101011100101101111
00000000001000100011101110000000
11111111111101111011000101010001
11111111111000000100010010011000
11111111111011001100000100100000
11111111111110111110100011000000
00000000000110101010100100100110
00000000000011110000000101110011
11111111111111000100001111000111
11111111111101111101001001001111
00000000000001010011100110000110
00000000000101101111000001110001
00000000000011101111111100111000
00000000000011110001101110001011
00000000000011011101000101100100
11111111111001111011011110000011
11111111110100100001111001001000
11111111111001111010000100100100
11111111111111101001011111000111
00000000000010111101001100111110
00000000001001100101100111010011
00000000000101000110011111110101
00000000000001000010011111010111
00000000000001000010010001010011
00000000000001011000011111110001
00000000000010111010110010000010
11111111111100101111001011110000
00000000000100000011001010100001
11111111111111110101100001111110
11111111111100010111000011111110
11111111101100011100000001000101
11111111101011010000101011010011
11111111110100001100110110100101
00000000000000101011000001001011
00000000000011101101111111100111
00000000000000111010001111001010
11111111111111000010011100011111
11111111111111100010111100001111
11111111111111000000000101100111
11111111111011001100100111011011
11111111111011111011110101111010
00000000000110000111000001110000
00000000001011101010100010101000
00000000000100110111001101010011
11111111111100110000011011111100
11111111110110010110111111101000
11111111110110010111011011101111
11111111111110011100001001111101
00000000000000101011011101000110
00000000000000000001010010000011
11111111111101001011001000000011
11111111111111110010110011010010
11111111111011100100001101011110
11111111111101111010101100101000
11111111111100010111001110011111
00000000001000011010001000100010
00000000000101100010110100101011
00000000001001011101001100110010
00000000000100111011111010100011
11111111111111010110010100101001
11111111111010111011001000010111
11111111111111110110000001010110
11111111111110100001101111010000
11111111111110100101011011111011
11111111111111001011001000000100
11111111111101000111010100101001
11111111111110000100110011010100
11111111111010111100010001111010
00000000000000011100110111000001
00000000000001100011101111000111
00000000000010000111011100000100
00000000000001001000011011111000
00000000000000101001000101110100
00000000000000001010100001100100
11111111111111001100110000110110
11111111111110111000110001001010
11111111111110001101111110101010
11111111111100001001100100010011
00000000000000010001111100111011
11111111111110010001010110111001
11111111111101001101111011100111
11111111111100000100110111101110
11111111111011111000101001001100
11111111111111011111011010100100
11111111111110011110000000011100
00000000000010000111100001110011
00000000000001100000110100101110
00000000000000010110110010011011
00000000000000011010011100011100
11111111111001011011010001111110
11111111111101011011000000100101
00000000000100110010001010010101
11111111111110001010000010011110
00000000000001001010011000101101
00000000000111100110011011001001
11111111111010010101110010101001
11111111111011001101001100010111
11111111111101101110000110111111
11111111111101000011010100000000
11111111111011101101101001101011
00000000000000011111011000101101
00000000000001101001101011110000
11111111111101000001111110111011
00000000000101001001001010011111
00000000000100001100011100111010
00000000000000000010000011000110
