11111111111111101010111010101010
00000000000100000010001100110011
00000000000011111011010001100101
11111111111111001111101001000001
11111111111101100011001101101100
00000000000011010000100001000011
00000000000000101000110101011011
11111111111111010010000000011010
00000000000110011100100100111000
00000000010100001100111110101101
00000000001110001110110111011000
00000000000110001110101010000000
00000000000100100110000111000101
11111111110110011000001011101000
11111111110111010001000100110000
11111111111110011100011101011100
11111111111101001100000010001101
11111111111100111000111011001110
11111111111101011000110101100001
11111111111100011001011000010100
00000000000001011101100010101100
00000000000000110100001111011110
00000000000011011011110100011101
00000000000101000101110101100011
00000000001001100000000110010110
11111111111110110010011100111010
11111111111001001101001111011001
11111111111110001111101101100011
00000000000010000000011110011100
00000000000000000101001110000101
00000000000010111110101010111001
00000000000000011001100101111100
11111111111101110110001000110111
00000000000011110011101111001000
00000000001000011110100010110100
00000000000111110010011000010000
00000000000101011001110110000000
00000000001010010101011101010100
11111111111101100100001101001100
11111111111000000001111001110111
11111111111001110001000000010010
11111111111100100010001100001000
11111111111101010111011101010110
00000000000000000110110101110000
11111111111111111011101000111010
00000000000011010010110100101101
00000000000010111110101101100000
00000000000000101100110110011001
00000000000011100101111101100010
11111111111101100110101011110110
11111111110110111111111000111111
11111111111001001110011011101010
11111111111000101001010111011011
11111111111000111001100010100100
11111111111011010000000110011101
11111111111110011000011010111111
11111111111110101110011100101100
11111111111110001011000001100000
11111111110111101000111010010010
11111111110100110110101100010010
11111111101010000011001011100110
11111111100000011101101101000000
11111111011100011100010111100111
11111111101101101110101011001000
11111111111010010000110001110110
11111111111101011011001111000001
11111111111101010011011001101111
00000000000001110000011010000011
00000000000000110001100001010100
11111111111111101111000000011010
00000000000000000101110000010100
11111111111111110110001110000100
00000000000001011101110001000111
00000000000001111111110001001111
11111111111100010101000000110000
11111111111010000011101111001001
11111111111000011111111001100101
11111111111111100111110110111110
00000000000010101101110110100100
11111111111010001010110101100011
00000000000100101011001110100001
11111111111101101101101010000100
00000000000001110010100001010110
11111111111111001101010010110000
11111111111110001100110101111011
00000000000000011110110000000101
00000000000100101110100110010011
00000000000011001000010011011101
00000000000011010000110000000101
00000000000010011100101110100000
11111111111000010000011010110001
11111111111111010111011111001110
11111111111111011110101111110101
00000000000100110011010010010101
11111111111111100001011011010110
00000000000010001010000001011000
11111111111111111010011001011010
11111111111100111100111101100010
00000000000001001001101011100111
00000000000001000000101110110111
00000000000100010011000010011101
00000000000001110011010001111010
11111111111100100011001010011100
00000000000011001010010100100010
11111111111000101101001101101100
00000000000000010111010000100011
11111111111111111101000101100010
11111111111110100110100111010010
11111111111111000000101101011011
11111111111101100110010101000100
11111111111111001111001111010100
11111111111111110000101101111110
00000000000010000100111010111001
00000000000001000010001010001000
00000000000101000000011000100110
00000000000000010100011110010011
00000000000010011101000100000110
00000000000100011010001111011110
00000000000001111110010010010100
00000000000010110101010001001100
00000000000010100100001001110100
00000000000000011111111110011001
00000000000010011110000011010010
11111111111110111100101001011001
00000000000011011011000111101000
00000000000001011000100111101100
11111111111110100101010111011101
00000000000000011110101011010001
00000000000001011110101011110011
00000000000010111010111110100011
11111111111111010101000100111101
00000000000011101011101000111111
11111111111110001011000000101001
11111111111110100010000110001110
00000000000001100100100000010010
00000000000010100101111001101111
00000000000010111011100111001110
00000000000010111010111100110011
00000000000000010010111101100111
00000000000000101111011100111010
00000000000100011000011010101010
11111111111111111110100111111101
00000000000010100101111100010110
11111111111000011100100010000000
00000000001000111100110110010011
11111111111110101100110001101001
00000000000001000011110010011001
00000000000001010011011010101011
11111111111110110110000001001011
11111111111110101010011111001111
00000000000001010010111001110101
11111111111011001101010001100110
11111111111110010010110011000011
11111111111111000000101100010100
11111111111111000101100011111111
00000000000110101000101111010110
11111111111111101011110100000001
00000000001001010110010011011111
00000000001010011101011011101011
00000000000110101011011001011000
11111111111111011100100110011001
00000000000101101001100010000110
00000000000100011011100000000111
00000000000011111101001000000010
00000000000100100100001101111110
11111111111110111101100000101010
00000000000000011111011100001011
11111111111100010111100000001000
00000000000001100011000101111111
