00000000000000101001010101101000
00000000000000011010100010000011
00000000000000100001001100010100
11111111111000010111011100110001
11111111110111010110010000111100
11111111111110101011100000011101
11111111111100001101001010001010
00000000000100100001101011100000
00000000000100101011001110011011
00000000000101110100011001111000
11111111111110101001010001001001
00000000000000001000011100011110
11111111111110000011111000011101
11111111111101100110100010110111
11111111111001010011001100100110
11111111111100000110011010001111
11111111110110111110111101001000
11111111111000110110101111010111
11111111111110110001110001111111
11111111111111010001011101101011
00000000000001110101110001001010
11111111111100110101001000111111
00000000000000010101100011110010
00000000000001011010100100110101
11111111111101101110001010001110
00000000000010010011001101011100
00000000000001010110001110001111
11111111110101101110101011011101
11111111101111101101010010110110
00000000000001010011000010110001
00000000000010101100100010101101
11111111111111100110001011010000
11111111111111000001010011111000
11111111111110111011001101110101
11111111111111110011100011001111
00000000000001011011111101110000
11111111111111011011000110110011
11111111111111100010101001001011
00000000001001000111011110100111
00000000000110101111000010011011
11111111101111010100001011011110
11111111111011011000101000000001
11111111111111111111100001100101
11111111111111000101110100100010
11111111111111011001111100001000
11111111111111001110001000001000
00000000000000100010100000101111
00000000000010010011011100111010
00000000001001100010000101001100
00000000001001000011100110100010
00000000001001000101010100101000
00000000000111100011001011011000
11111111110111100101000001010011
11111111111000011101111010010110
00000000000000101001011011100111
11111111111111011111101000011010
11111111111110110101101010000110
00000000000000110101001011001101
11111111111111000110110110111101
11111111111100010110011100101011
11111111111101111110011111000000
11111111111111110011110101010101
00000000000100001111101101101101
00000000001000100011000011000100
00000000001001011001010110100001
11111111111111100000001000101010
11111111111010101101010000111001
11111111111010000010011110001101
11111111111111100010110100000000
00000000000010111001001100110001
00000000000001011010011101110101
11111111111111011010001110000100
11111111110111110010001001011011
11111111101111110010111001111110
11111111101011110011111101010110
11111111101101111110101100010110
11111111101010110110101011110111
00000000000001101000100110111010
00000000000000110011101001100111
11111111110111000101111111111101
00000000000010010011111011111111
00000000000010101001110001100110
00000000000001010000111101111000
11111111111110111111110101001100
11111111111111001101101001000110
00000000000000100000010000011011
11111111111110110001010011101111
11111111111100100011000100100100
11111111101001101101001011101011
11111111101010110000101101000110
11111111111101011001100011101101
00000000000000001101001110000011
11111111111011000110010000011111
11111111111101111010101001100111
00000000000000010111111000010001
11111111111101111111100000110101
11111111111111110001001101111011
11111111111110111000111010100111
11111111111111101011000001111010
11111111111101101011101101011100
00000000000000010100101000111010
11111111111111000010111110101100
11111111110101100100101001101001
11111111110110110001101001001110
11111111111101011001101010010011
11111111111111100100100000001101
00000000000001011010010111010100
11111111111110101011001010001010
11111111111111000001001110010100
11111111111101001110001011111010
00000000000001110011111000111011
00000000000100000000101111010010
00000000000001001001101100011011
00000000000001100100010010100100
00000000000001101000001110001000
11111111110111100100110111001010
11111111101101011010100011111000
00000000000011101010010111110100
11111111111110000000010000000110
00000000000000011000100110010110
00000000000010101000100001010110
00000000000001111100111110011101
00000000000000001101110100010001
00000000000001110100011000110110
00000000000011001100100101010011
00000000000001011000110110000011
00000000000010110111100001000110
11111111111110100111000101101111
00000000000001001101000111000001
11111111111011111000001001110110
11111111111011101110011100001000
00000000000000111001100011010110
11111111111110100000001111110011
00000000000010011111110011001010
00000000000100010110000101001100
00000000000100010001001100010111
00000000000011111100100111001011
00000000000010100010111100111011
00000000000011000100111001111100
00000000000001001000000001110001
00000000000011100001100000001110
00000000000001111001000110111001
11111111111111000100000010000100
11111111111000101011001000100111
00000000001001001111010001010101
11111111111111001100101010111101
11111111111101110101101011000011
00000000000000110101010100001010
11111111111111110001110000010000
00000000000000000001111010011001
00000000000001100111100001001010
00000000000000010010000101010110
11111111111101011000011001101111
11111111111011101000110100100111
11111111111010011110010100110001
00000000000011001110000110100001
11111111111110111011001001011001
00000000000011011100111001100011
11111111111111100001001110110100
00000000000100100111000000000111
00000000000011100111100110100100
00000000000011011011100001011111
00000000000010100101110000111101
11111111111100110101111001100011
11111111111101111101100010000111
11111111110110101110000000101010
11111111111001001010000011001000
11111111111000010101100100110111
11111111111101110110110000011011
