11111111111111110001111011000011
00000000000000000001111110000101
11111111111111110000011010001110
11111111111111011011100100000000
11111111111101001011101000111001
11111111111101001101110111010101
00000000000011011000110000101100
11111111111101111010010011000010
00000000000100000011000000011000
00000000000100010110010001011001
11111111110111111110011100111110
11111111111101100110000010111011
00000000000001011010000011100000
00000000000010000010011111100001
11111111111010100001001111001101
11111111111110010110111011101101
11111111111101100001010001111111
00000000000000100011100100100001
00000000000001000100001111000000
11111111110110110001100010111001
11111111111100001100111100000000
11111111111011111100110111100010
11111111110101101110110010000010
11111111110100010001011110010110
11111111111100111110100011000101
00000000001000010101111101110011
11111111111110111000100000101110
11111111111100111000000001010011
11111111111011011011111011001100
00000000000000100000000111001011
11111111111101000000011000101000
11111111111001001101000010101110
11111111111001000011011000010111
11111111111010001011110101010100
11111111111111010001111100000111
00000000000010001000010010001010
11111111111101101111000001000100
00000000000010111101010100001000
00000000000111000100001001010100
11111111111111100111100110111000
11111111111001001001100111101110
00000000000011011101100111111110
11111111111111010000100001000110
00000000000000110100010001011010
00000000000010111100000000011000
00000000001010011110111011111100
00000000001110010100111010001101
00000000001010110100110000101100
00000000000110100000000111101110
00000000000100101001101110011010
00000000000011000101010111100101
00000000000010000000111100010111
11111111111101011000001010000101
11111111111000101001110001011100
00000000000001111010010101111101
00000000000100011101101000101000
00000000000001100110110010100001
00000000000010111011101100100110
00000000000011100111011001111011
11111111111110001101110011001011
11111111111101110010010011111101
00000000000000111000111110001110
11111111111101010111100011111000
00000000000010110110110100101110
00000000000100000100111100001100
00000000000011001101010001110011
00000000000010011001111111010100
00000000000000001110010111001010
11111111111110101011011101101010
11111111111100100011111011111101
11111111111100010001010101001100
11111111111000001110110101101000
11111111111000111101101111100101
11111111111101111101000111111110
00000000000001110011111100010001
00000000000001001101111010001001
00000000000010000011101011101100
00000000001001010010011010101010
00000000000000010100010100011011
11111111110111011111010111111100
11111111111010101010001000000100
11111111111101010100111011110000
11111111111110111000011111011110
00000000000000011100001010110010
00000000000011100101010110001001
00000000000011101100100010011111
00000000000000101011110111100100
00000000000000110011100101001100
00000000000000010001110100010100
11111111111011100111001001101011
00000000000000011011110101000011
11111111110111001110011110011001
11111111111100010111111111001010
00000000000000011000000100000100
11111111111101010101000001000100
00000000000000000000101011001000
11111111111111011001101111010000
11111111111101111111110000010010
11111111111101000111110001000110
00000000000000101011000010100110
11111111111101101001110000010000
11111111111111100111000100100000
11111111111001000111011101101010
11111111111011011011001110111010
11111111111010001011010111110111
11111111111111101001100110001010
00000000000010111010100001010011
00000000000000000010011010000111
11111111111111000001011000001101
00000000000000001011111011101111
11111111111101101000001100110000
11111111111100110100000100011101
11111111111110111011011001000001
11111111111011100001100111100100
11111111111101110100010110011010
11111111111110010100011101011111
00000000000010010110000100110011
11111111111101000001000000010111
11111111111011001100000000111000
00000000000000110101010111001000
00000000000001000110101001100101
11111111111101010100000110110010
11111111111110111110001111110000
00000000000001110101101110001101
00000000000001000000010010000010
11111111111111001111111011010111
00000000000100010011010001101010
00000000000010101000001111011000
00000000000000101001001000010010
00000000000110001100111001000100
11111111111010011001010101001010
11111111111001110110011100000010
11111111111110010010111111100110
00000000000000111010000101000101
00000000000001001110010011100110
00000000000000011101011101101010
00000000000000101111111000111000
11111111111111111000101001001001
11111111111111010001011010011010
00000000000011100010111010000011
00000000000000110000101001101010
00000000000100100111110001001010
00000000000101100110000101011111
11111111111010010010001001110100
11111111111111011100011100001000
00000000000000000001100000000110
11111111111100100111100110111010
11111111111110100100111111101110
11111111111111100100100000011111
11111111111101100100010010100110
00000000000000000000101010101010
11111111111111011010001001101011
11111111111100100001000111000001
00000000000001110101011010111110
00000000000101111110000110100110
00000000000011010110101010011111
00000000000010011010111111111101
11111111111100011001110001010011
11111111111101001010100101100011
00000000000010100010010100100110
11111111111100101100000011111011
00000000000010000110101001011111
11111111111110001111100011010110
00000000000000001010110101111011
00000000000010010111010110101000
11111111111110000100111101100101
00000000000000100100010110010111
00000000000011111001001001100010
00000000000000110110000101110100
