11111111111111010000000100000111
00000000000001001001111111000101
11111111111111101010010011010101
00000000000111001111010111110110
00000000000111100010110000000100
00000000000110111011011100000100
00000000001000001001001000111011
00000000000110001011111000001100
11111111111111010101101100110000
11111111111101100011011001010100
00000000001111000100011010001010
00000000000101000110001100010000
00000000000001100011011110100101
00000000000000000100010010000101
11111111111101011001011110011011
11111111111100010101000000111100
00000000000001000000101100111011
00000000000100100110000010000010
00000000000000111010011111110001
11111111111111010000110000000010
11111111111111100001100000110101
00000000000101000101111001011100
00000000000001111000001101110010
00000000000111001111111011001100
11111111111101011100100111111000
11111111110111101100001000100010
00000000000010011100000000001101
11111111110101110000011101100010
11111111111010001101100001010110
11111111111011000001101101011010
11111111111111011001100001111011
00000000000000000110001000110101
00000000000000010101011110100101
11111111111111011011001110111001
11111111111111010110001011110001
11111111111110001000001100010001
11111111111100010100000000010111
11111111111101010001011010010100
11111111111110110110101000111010
11111111111110110010101101011111
11111111111010000101001000111101
11111111111011100100010001001011
11111111111000101110111001000010
00000000000001011101101000100111
00000000000000101010101100110010
11111111111111001001111111110111
00000000000010001000100011010110
00000000000100010111011111011110
11111111111111100000001010001111
11111111111101000110011000100011
00000000000001011111100100100000
11111111111111101101111001111000
00000000000000011100110010101001
00000000000000010100111000111100
11111111111101000011010110100011
11111111111110010011101010101011
00000000000011000001011000010111
00000000000011000100010001100001
11111111111110100001110011101101
11111111111100011001001111000011
11111111111101000111100000111101
00000000000001010010000111101100
00000000000000100010100011101110
11111111111110010011101100111110
11111111111111100100100110111110
00000000000010000011110010100010
11111111111101001100111101101101
11111111111110000101110001100110
00000000000101001101101001010100
00000000000011011010101011111111
11111111111101101100111001001000
00000000000010111110000101111101
11111111111110001011010000101100
11111111111011101001000110100010
11111111111110011101010010000111
00000000000101011101010110011100
00000000000000111001111001000011
11111111111101111111010001010110
00000000000000011010011100110000
11111111111001001011011011100001
11111111111101010111101001010010
11111111111101110011101101000001
11111111111111001000100010101011
00000000000001100010011011101110
00000000000000000100111010000011
00000000000000100101110000010010
11111111111111010011001110101111
11111111111100100110000111011001
11111111111110101110101000000001
11111111111101010100101101101100
11111111111111101111000101110001
11111111111101101000011001111000
11111111111111010111010111000001
11111111111101110010010111010001
00000000000000101110100001111010
00000000000011000000100011101000
00000000000101010000010011010010
11111111111101101101011110111001
11111111111011000100011111101000
11111111111011111001110101011100
11111111111011011110011110111000
11111111111111101110000111010001
00000000000010010010101100000101
11111111111100101110001100100110
11111111111010000101000111101001
11111111111001011000101100101100
11111111111011111010101011111010
00000000000100001111001010111101
00000000001100011110100001110101
00000000000000001101000110010101
11111111110101011011001100010110
11111111111011101100101001110010
11111111111101100001000101011001
11111111111101011001111011100001
11111111111111101111000010100110
11111111111111110010000001101101
00000000000011100001101011010010
11111111111001100110011011100010
11111111110111010110101101000010
00000000000000000101101110001100
00000000000101101101110001110000
00000000001010001100110001000101
11111111111000110110110100100011
11111111111001011110100110110010
11111111111100111101011100101001
11111111111100110011100101100101
11111111111111110110101110100011
00000000000101001011011010101010
00000000000110100001100000101010
00000000001000111000110000111100
11111111111101000111011001011011
00000000000100100100001111111110
00000000000011111111101001110010
00000000000011010100001011101001
00000000000110110000110010000000
00000000000010011110010001111100
11111111111111011011011110000010
11111111111110111100100111011011
11111111111011001010001011110000
00000000000000111111000100110111
00000000000011000101111110000001
11111111110111101011010111110111
11111111111100010010100011110010
00000000000000111111101110100000
11111111111101100001110101000010
11111111111110011001011011011000
00000000000010110101011000101101
00000000000011011010000001111111
00000000000001001011011000110110
00000000000010000011010011001100
11111111111100100011101010110110
11111111111100111111111001001001
11111111111100010000010100111001
11111111111011111010010111001000
11111111110111100011010110110101
11111111111100000010110001001011
11111111111101111110001111010000
11111111111011001011000110110110
11111111111001000100001101010000
11111111111001110010111001000111
00000000000001011110001010111111
00000000000011101000000001001111
00000000000000000100000000101000
00000000000000111101011110001110
11111111111111010010011000111111
11111111111101010111111001101010
11111111110010001100000011100111
00000000000011001011110001001111
00000000000001010001100111010110
