00000000000000101110100011010001
00000000000000011010101111011001
00000000000000010011000001111110
00000000000100011011001001101101
00000000000110010010011110100000
11111111111100010101001100111111
00000000000011100111110111111110
00000000000110001001110110111000
11111111111110101010111111011011
11111111111101111011000111100100
11111111111101001010011000101100
11111111111111011000001110000110
11111111111111101111010100111111
00000000000000000111111011100010
11111111111111011101011111000101
00000000000000010101001000100110
11111111111111111000010100100001
11111111111111101001111000010011
11111111111111111011001100011010
00000000000001101101010101011010
00000000000100010000001000110100
00000000000101000100101011001000
00000000000000110101101100011010
00000000000000000110011100100001
00000000000000010100000111010010
11111111111110111000100100101000
11111111111111001111011111000101
11111111110110010001000111100000
11111111111110001100000010101001
11111111111100111111111011101010
00000000000000011110101011000111
00000000000010000000100110111000
00000000000011010100110000111111
00000000000001010100100110110001
00000000000000110001100010101000
00000000000001010000001110000000
00000000000000101100010111111100
11111111111110110001011010100011
11111111111100100100110111100010
11111111110100101100001100101100
11111111111010111100110100001101
00000000000001011101011110000100
11111111111101100000110110001110
00000000000000010001110111100010
00000000000000000111001010101111
00000000000011100000101011010001
00000000000010000101010111000001
11111111111111010010101100111101
00000000000000111111100110101001
11111111111110001011011111100010
11111111111101101000010011111010
00000000000000110001100110000000
11111111111001000100010110100011
11111111111111011111010110010001
00000000000000110000001000011011
11111111111111000110000000000011
00000000000000010101100111010101
11111111111100110001100110101101
11111111111101011100101110010101
11111111111111000011000001010001
00000000000010010010010001001100
11111111111111110000011001101001
00000000000010011011100000010101
11111111111011101001011010001001
11111111111101110001100000101101
11111111111110011010100010010011
00000000000000111011111000010000
00000000000001101100001010101011
11111111111100111000000101000111
11111111111111001101011111100011
11111111111001011100100100100011
11111111111000100011000000100100
11111111111101011000001111111001
11111111111110000000110001011000
11111111111111100101001000001100
00000000000010001010010110010001
11111111111110000111101000100110
11111111111001101000100101101010
00000000001001011101100101000000
00000000000100010101111010100001
11111111111110111000110111000011
11111111111100000101101000101101
11111111111101110010111100100100
11111111111001001001100101011110
11111111111110100100110111110100
11111111111101110000101010001000
11111111111011011011111100010110
11111111111110111110110010111110
00000000000100110011001011011100
00000000000000110101001001110001
11111111111001101111111111011100
00000000000011101000110101000001
00000000000000010011101011000100
11111111111100001100011110001101
11111111110110011101111010000000
11111111110111000110001100000011
11111111111000010010100100001010
11111111111111110111001110011011
11111111111010100110001011000011
11111111111011000100001111010110
00000000000010011111111001011001
00000000000010000011100011110010
11111111111100111111111000101000
11111111111101100010001010000000
00000000000000011111101000001010
11111111111110011010100101001101
11111111111111101000010101111111
00000000000000110010111110000001
11111111111100110101111101100111
11111111110111011100011100100010
11111111110011111011111111111110
11111111111000001010110100100110
00000000000001100010100010110010
00000000000011101110111101110011
11111111111111000101011001011110
11111111111101010011010000100110
00000000000100000000110001100100
00000000000000010101101011011101
11111111111111100100011010101110
00000000000110011110110100110000
00000000000101101100110000010000
00000000000100001000101100010111
00000000000100110010010111101110
00000000000001000101111000110010
11111111111111101101101101101010
00000000000010111110111111000010
11111111111110101100010000111010
11111111111101001010111111010001
11111111111100001000110001000001
11111111111100100111010001101010
00000000000110010000010111100110
11111111111101111111111001001010
11111111111110110100011000110110
00000000000100100111001000010111
00000000000011010011110011101101
00000000000100110010000000111001
00000000000100011111101010110110
00000000000111000100110001010111
00000000000001100100000100010010
11111111111101111000000001001000
11111111111100110010101110111000
11111111111111110000110111001111
00000000000110111111100001001110
11111111111011001101110101000100
11111111111100110101011011001001
00000000000000001011000110000001
00000000000000100101001000101110
00000000000110011001010010010000
00000000000100000001000110110100
00000000000100000000001100001010
00000000000100000100111111111000
00000000000011101001100101000011
00000000000111110111000010010110
00000000000110011101100101010000
00000000000100011101001011000110
00000000000100001110011110100110
11111111111110001101110111000110
11111111111000101111001011011110
11111111111111001011001100001110
11111111111111100111010011111101
11111111111110000010001000101000
11111111111110101000111101111011
00000000000000101101010100010001
00000000000011110101110011100100
00000000000011000110000010010111
00000000000000001100111100000011
00000000000010010110011011001111
11111111111111010101011010110001
00000000000000101111111111100110
