00000000000000000001100110100110
00000000000000011100101000001011
11111111111111101101101110110101
11111111111110101001101010001111
00000000000100001000000101111101
00000000000001000100101101101011
11111111111010001001000001001111
11111111111010110001110111110110
11111111111101111101111100001011
11111111111110111111101010011110
11111111111110100011001110000110
00000000000000010011011001110000
11111111111111011001010101100100
00000000000000010110000001000111
11111111111111111000011101010010
11111111111100100001001110000101
11111111111111000000111010111011
11111111111010001100000110111110
11111111111101000010111111111001
11111111110110000111000011001011
11111111110100110100110101010110
11111111110111010000100001000000
00000000000000001111001000111101
11111111111011111000000101000011
00000000000100101111111111110011
00000000000011000010001111010100
00000000000000010000101000001000
00000000000011111001100111100110
00000000000110000000000010110001
00000000001001101101011001111110
11111111111110011101111010100110
00000000000010110000101001110110
00000000000011011101111001111110
11111111111111100001010010110110
11111111111111111100100111111001
11111111111011111010011100101000
11111111111110100001000001000101
11111111111011101000111100000011
11111111111000000100010010100010
00000000000000010000011111101000
11111111110110011100111101010000
11111111111011101000110001110000
00000000000011101010010001100010
11111111111111101110000101011001
00000000000101011001100110011011
11111111111111110010110000011001
11111111111010101110010101100001
00000000000000100100110110100001
11111111111111100010101101110101
11111111111111010101010000110000
00000000000001011100111111011011
11111111111100011010001001011000
00000000000011100111011001000100
11111111111001111110111001011110
00000000000000000000111111100000
11111111111010100010101101000111
11111111111110111001100011000001
00000000000001101000011011111001
00000000000000011000110010010011
00000000000000011111001110011101
00000000000010011011001111000110
00000000000011100001101000100111
11111111111111110011111000111101
11111111111110100111011001001011
00000000000001001001111010100000
11111111111100101011010111100001
11111111111100111010111001010100
11111111110110011000111101000010
00000000000100011101001100100011
00000000000010011011110111011100
00000000000100000100011100110110
11111111111111100011011111101100
00000000000010011000110000000010
00000000000011111100111001011001
00000000000010100010110010000010
00000000000001111001010100000111
00000000000010100101011001110100
00000000000010001100101100111100
00000000000000101000011110010100
11111111110110110011111010110101
11111111110101101100111001101000
00000000000010101111100111101011
00000000000010111100101001111110
11111111111110011100110001001110
11111111111111111100101101101001
00000000000011111001110011100100
00000000000000101100110100110110
00000000000001001010100100000010
00000000000100010001011000011011
11111111111011011000011010001111
11111111111111001100100011111010
11111111111100111010000101011011
11111111111100100110110111110001
11111111111111011110100000100010
11111111111101101010001111100101
11111111111100111100101000100011
11111111111101111110110110011111
00000000000001110001011110011100
00000000000011001101100100101110
00000000000001100011110001010101
00000000000001101001001101000011
11111111111110000000010111111000
11111111111110010011010000101110
11111111111001000111011000101010
11111111111010011011000100101100
11111111111111100011011011111001
00000000000000101111101110101001
11111111111010001101001010001110
11111111111110001001011100100110
11111111111101100001100010000000
00000000000010110001111001010001
11111111111111000010101000110110
11111111111011100011001111000010
00000000000010100011011111111010
11111111110111101000111101110000
11111111111100101000110111110000
00000000000000100100001000010010
00000000000001110100111110010000
11111111111111111100110101001100
11111111110100011011010111111000
11111111111001011111101011100111
11111111111001101101101000010100
00000000000110001111110100111110
11111111111010100100110011011101
11111111111001011101110110110000
11111111111110000101011110110011
11111111111100010001010101101111
11111111111000101111000010000111
11111111111000111010110111101011
00000000001010101101011011110000
11111111111101100010100100111010
11111111111101111001010110110101
11111111111101011001001010001010
11111111111110100000111011110011
00000000000101101101101110010010
00000000000011110111001001111111
11111111110100101001111000000100
11111111101110001111101110011100
11111111110110110101101011011010
11111111111110111111101010000100
11111111111111110110111101001100
11111111111011100001110000101010
00000000000100000100111000001100
11111111111000001001101010111100
00000000000001000110110110001110
00000000000101100011010001100011
00000000000011100110100000110101
00000000000010100110111101110010
00000000000001010001011101110110
11111111110010000010010111111111
11111111110100100100000110010000
11111111101101100110100110110000
11111111111110100001111101111101
00000000000010011100000100110101
11111111111111001111010000001111
00000000000001010111010001001100
00000000000001110011101101010011
00000000000101111110001101101111
00000000000010011111000010111110
00000000001000110011110000100000
00000000000100001100110100100100
00000000000000110100110101101010
11111111111001000010100011010101
11111111111000111000100111111011
11111111110111010100110100011000
11111111111101001001010110000000
00000000000100000011011010001001
11111111111110000101110100010001
11111111111111010101101010100010
