11111111111111111100111010101110
00000000000001010110010100100111
11111111111110010010011101101101
00000000000100001111011011000011
00000000000011010111010011010000
00000000001000101010000110010001
00000000001001100011110110011011
00000000000100110110010111111111
00000000000111100001000001101100
00000000000010101000101000101110
00000000001101001010010101101110
00000000000101100111011001010111
00000000000000010101010000000001
11111111110110101100010111010010
00000000000001100101100011001110
00000000000000011111100011001011
11111111111110111111100010011010
00000000000011100101100011000101
00000000000011010101111011001010
00000000000001101111000101110111
11111111111110101110001010110101
00000000000000010101111011100001
00000000000000001100110001010100
00000000000010101100101011001101
00000000000000101010000000111101
00000000000000000001111101001110
11111111110100111110011111111100
11111111111011111010110111110010
11111111111100011000001111110010
00000000000001010001101111000111
00000000000000010101111001101111
11111111111111101110011001000010
11111111111111000000111101100011
11111111111101111001101101011111
00000000000000111000000000111011
00000000000010010001000101010010
00000000000001000000101100010110
00000000000100100011110000110110
00000000000010001100011100110101
11111111111100110010100101001101
11111111111010101110010011110001
11111111111001000111110000111110
11111111111110101010001000011100
11111111111101000110001010100010
11111111111101101001101110110110
11111111111101010000001011101010
11111111111110101100000010111110
00000000000000110010000010110111
00000000000010010100011000011011
00000000000011111001101000111010
00000000000011001110110111001001
00000000000000111011011001100100
00000000000000100001111011111111
11111111111010110111001011111100
11111111111101111111010111100000
11111111111011110011010000101111
00000000000000011111111010100010
00000000000001110010011111001011
11111111111101000111110010001111
11111111111010110100000001011111
11111111111100110000100111011100
11111111111110110011100100111110
11111111111111011111000000110110
11111111111100111001011110000110
11111111111111111111010100110100
11111111111011100011011101101001
11111111111111010011001000101001
00000000000000000111101011111011
00000000000001110011011011100010
00000000000011111110010110010110
11111111111111001001101110010110
11111111111010001111010001111010
11111111111001110000110011000001
11111111111010110111000110001011
11111111111111010101011101110010
11111111111101111111001000110010
00000000000010100110010010111101
11111111110111110111101100011110
11111111111111110011101111011110
00000000000001000111011111101101
11111111111111101011101010010100
00000000000000111101001010110111
00000000000001110001100001011111
00000000000011000111000000101110
00000000000100100100001101001101
00000000000100111011100101000111
00000000000001110011110011011101
00000000000101110010110001001110
00000000000111000001110001000111
11111111111100111010011110000001
00000000000000001101001101001000
11111111111111101010001111000010
11111111111001010001011000101100
11111111111110111101111100010111
00000000000000100010100010001000
00000000000000111111000110000011
00000000000100101111011000110000
00000000000110100100010010000000
00000000000011000111011001000001
00000000000000011010111110011011
00000000000010011101111110001011
00000000000000001111111100001011
11111111111100000001000101011000
00000000000010001001011010010101
11111111111111100001000101011010
11111111111011100000001101101010
11111111111101001001001110100111
00000000000100000001100001001011
00000000000011001100010001110000
00000000000110001000100101001110
00000000000011000110111011011101
00000000000001101011001110011100
11111111111110100000110110000010
11111111111011100010100111000101
11111111111000010001101010100010
11111111111010111001010010101100
11111111111100010001000110110101
11111111111010011010001111001010
11111111110111001010010111011010
11111111111010001110000011111011
11111111111011010110010101100001
00000000000011101000110010010101
00000000000100001101010000011100
00000000000001100111111111110000
00000000000000010100101010001101
11111111111101101001000010100101
11111111111101110010110111110100
11111111111001011000111110101001
11111111111101101000010100000010
11111111111100011101001110000000
11111111111001100011101000110011
11111111110100101000011001010110
11111111111100101111111110111101
11111111111111111100101111010000
11111111111110100101101101000101
11111111111111100000100011000100
11111111111111111111011101100000
00000000000011000111011100000111
00000000000100001001110101100100
11111111111100110101111100111001
11111111111101111011000101001100
00000000000010001110010001000111
11111111111111010000100100110010
11111111111101110011001010010101
11111111111010111100111101011000
11111111111011110111001110000011
11111111111100101110010101000000
11111111111001111110101011010111
11111111111110101100010000001110
00000000000001001110100000000100
00000000000010100000111010010001
00000000000001101010101011100000
00000000000000111011101111111000
00000000000100001011010001110010
00000000000001001110101011110100
11111111111110000110010001001101
11111111111111000110010110011010
11111111111110101000011001101110
00000000000010001111000010110110
11111111111101010011110100000011
11111111111111101101110110101110
00000000000001010100010011011100
00000000000000011100000011000100
11111111111011110011100100110001
11111111111111001111001011100000
00000000000001110100000000011000
00000000000000100100110111011011
00000000000011011001100000110001
11111111111101101011110011100101
