00000000000000001011100101001110
11111111111111111111110100111100
00000000000000100101000111111011
00000000000000000100000001111001
11111111111111100000111111000110
00000000000011000100000011110011
00000000000000011001011001001000
11111111111111010000001101110100
00000000000111011110110100011000
00000000001100100111011001101100
00000000000001010000000101101011
00000000000000000010011101001110
11111111111111111000101100110110
00000000000000000111001010000010
00000000000100111110011111010110
00000000000100111100100111000100
00000000000000101000000011110000
00000000000000011010110011100100
00000000000100011000100101010010
00000000000010100001000111110101
11111111111101100000101010011100
00000000000010010111000010011001
00000000000000111110110011000100
11111111111111010010111011001111
00000000000011011100100010001100
11111111111111001110000101010010
11111111111011000101001010011110
11111111111100011010010100000001
00000000000000111111010100010101
00000000000001001001101010101101
00000000000100001111001001100100
00000000000010111110111001111101
00000000000001100111011100001010
11111111111111010101110011101100
00000000000001011100110110010001
11111111111111001101101010000011
00000000000000001010000011011100
11111111111110000000111100000100
11111111110110110000000011111001
11111111111011100101011100111100
11111111111100000001101001010000
11111111111101110011011101010100
11111111111110100011011100101000
11111111111101111101010011110100
00000000000001001111101111001010
00000000000001100001011101011111
00000000000001010101110001100101
00000000000010101001010000010111
00000000000011111101010101001110
00000000000011000000100010010010
11111111111111011110010000011100
00000000000010110110011111100000
00000000000010100111110111110110
00000000000011010110110101111000
00000000000011001010110100100001
11111111111111100101000011101111
00000000000001010001011110010011
00000000000000011011111110000101
00000000000000101111011011010101
11111111111100011001100110011111
11111111111110000011001000000101
11111111111101111000100001100111
00000000000000111101010011010111
00000000000001000111001001010000
00000000001001100100110100100000
11111111111101011000010011100010
11111111111111011111111101101100
00000000000011001011010100011010
00000000000010010101110110011111
11111111111101000110100111010110
11111111111110001010010011011000
11111111111110101001011001111101
00000000000001000110001011010011
00000000000001000100111001010100
00000000000001000101010111001111
00000000000001011101111100000000
00000000000101001001001101000110
00000000001100111101000111011100
11111111111011101111000000011001
00000000000000011010111101011100
00000000000010100010011111101011
00000000000010011100100001001000
11111111111110100001011101111011
00000000000011101001101100000010
00000000001001100011111110001010
00000000000010110001110011110000
00000000000011101101011111011011
00000000000000000010010011001101
11111111111100110000010011111011
11111111111100011011011101010010
11111111111111001011110000100001
00000000000011001011011000100000
11111111110110100101111000001110
11111111111010111000011101010001
00000000000100011000010110000010
00000000000101110010111100101100
00000000001000011001100110011000
00000000000010111110011111001001
00000000000000000000010010111110
00000000000010011111000000010001
11111111111111101111111000101100
11111111111111011111011111101101
11111111111110000001000110011001
11111111111010001111000110010010
00000000000100011100111011010110
11111111110110110010011010101000
11111111100101110100010101000100
11111111101000000111111101001100
11111111110011101011010001110111
11111111111001110101000111111001
11111111111000001111011011110110
11111111111101101111010000011101
11111111111110110011101011010100
11111111111100100001011101001011
00000000000011001101011000100100
11111111111000100111011110110100
11111111110110110010101010110001
00000000000110110010000111100110
00000000000010110011110111000010
11111111111010110011010000101110
11111111110110101100010110011010
11111111110100001010100011100010
11111111110111010101001101000010
11111111111100011111001001101000
00000000000000111010000010010011
11111111111110001011100011110100
00000000000000010001101011010001
11111111111111010111101100000100
11111111110011000010001001011100
00000000000011111000101001110101
00000000000100001010001111001010
00000000000110001001010101000011
00000000000010111101011000011001
00000000000101011000100000110111
00000000000110011000000100010011
00000000000011001101111111101011
11111111111101110010110001110001
11111111111101010001001100111110
11111111111100100010011001000110
11111111111010110111000110101111
11111111111001001000010101000000
00000000000000000011111010111000
00000000000101001011001111100000
00000000000010111110001001011100
00000000000110001101000110110011
00000000000010100010011110101011
00000000000010010000010110110100
00000000000001100000001001001011
00000000000001000010110011001000
11111111111100010110100110110011
11111111111100010111011111110110
11111111111101001100010110000001
11111111111011101011100010110100
00000000000010011011011000110110
00000000000011111011110011000111
11111111111111101001110110000101
00000000000001100010001011110001
00000000000110110111100011100001
11111111111101111110111001010010
11111111111011011100101100001110
11111111111110000010100101111111
11111111111011110010010101010000
00000000000010000000111010110011
11111111111011100110000011010011
11111111111100111100110010011000
00000000000000010001100111011000
00000000000100000100101000011100
00000000000000000001010001001010
00000000000000001101010010001110
