00000000000000100011011110010000
11111111111111110110000110011011
00000000000001001001101110011100
11111111111100000110001111010110
00000000000000000000101100000101
11111111111011100110001010101110
11111111111001110100101010000110
00000000000000110010100111101001
00000000000001100111101100011100
00000000000001010111001100001010
11111111111101101111101100010110
00000000000000101100111100110101
00000000000000011111000110001111
11111111111111000010111100010100
11111111111101001010001001010101
11111111111111000001010100010011
11111111111010111000101110000010
11111111111101100111101111111000
11111111111011001001010101010000
11111111111010110000111000100000
11111111110111011111110111101010
11111111110111001111010100010111
11111111111011111100110001010110
11111111111100000001101011110011
00000000000010010111000100101010
00000000000010000110000000011101
00000000000011110010000001111011
00000000000000111100101110001001
11111111111011100101001011111010
11111111111111101000110100110010
11111111111110101010111100000101
11111111111001111101111101100100
11111111111111001000110101001011
00000000000011100011110111001111
00000000000000011010110110011000
11111111111101100001011111000101
11111111111111100111111010011101
00000000000000101011100100110101
11111111111001100110010110011001
11111111110110111101000111110100
11111111111111110111001010111000
11111111111100101011100010100110
11111111111100111000010011011110
11111111111011101100000110011000
11111111111110000101111111100110
11111111111101010011111000010110
11111111111110111100000110001100
11111111111111111111011000010100
00000000000001111110111011010011
11111111111111100000010011101011
11111111111100111100001111010011
11111111101110001101110101101000
11111111111110010011001010101011
00000000000001111100110010010100
00000000000100010101110010010001
00000000000100100100010110110110
00000000000110101010011111101100
00000000001000001010010000001000
00000000000100001010101111010011
00000000000001011011101110001100
00000000000011010101001110010010
11111111111111110110010111100100
00000000000001010111110101010110
00000000000011111000010011100000
11111111101101000010101001001010
11111111111101101011010110111101
00000000000010001110111101010100
00000000000111101110110000100100
00000000001010011000111011110010
00000000000100101001001101001100
11111111111010100000011101011111
11111111111100011111100010010111
00000000000000101101000001010010
00000000000001001010101001110001
00000000000001011010010010101001
11111111111110111101001000001010
11111111111000111010101110010110
11111111111110111000010010111111
11111111110101011001011100100110
11111111101110001011001110011010
11111111110011100000010010111010
11111111110100100011100111001000
11111111110010000010000110011110
11111111110100100011001101101000
11111111111101011101011110000110
11111111111111000001010101111011
11111111111110011011110001111100
11111111111101000000010001111111
11111111111100100011011010110101
11111111111110100110000110000000
00000000001000000010101010011110
11111111111111110011100011010111
11111111101111100111100101010010
11111111110010100010110010101010
11111111111010001001000111100000
11111111111011011101110101011011
00000000000011011000101100111100
00000000000001001011011111110100
00000000000000111000010110100101
00000000000100001111101011000110
00000000000100111110100001111000
00000000000100110101000111110001
00000000000000010000100111011100
11111111111101110011111000000011
00000000001010011011011000100000
00000000000010111100001100000011
11111111111111011110100110111100
00000000000001110101110110111100
11111111111111000000010011110101
00000000000001000100111000011110
00000000000001101000101010011101
00000000000000101011000001111101
00000000000100001111111110111011
00000000000010000110101001100100
00000000000000100011110101001010
11111111111110010010011000111001
11111111111111110100001100110000
11111111111110001111111010111001
00000000001011001010100001010000
00000000000101100111101010010010
00000000000011101111100010000011
11111111111110111001110101110101
11111111111101000101001101110101
11111111111111101100010001011101
00000000000010100100110111100100
00000000000010011111110011100000
00000000000001101110000000101111
11111111111101100011000000101101
00000000000001001111011101011001
11111111111111001000010000011011
00000000000110001010101101011101
11111111111111111111100110001000
00000000000010000101000011010000
00000000000001101010101011110000
00000000000001001001010010001010
11111111111110001101110011001000
00000000000001000000110010010101
00000000000001000110000001110001
00000000000001110011000011110000
00000000000000010010000010111110
11111111111001001101000101001101
00000000000010001010100010101000
11111111111111011011000110001111
00000000000011111000000100001000
00000000000001101011110000100010
00000000000100001010110000100100
11111111111101110011010110011101
11111111111100110100010011101101
11111111111101110001111100111111
11111111111101111111001100101011
00000000000001101100001110101010
11111111111101111000000000011101
11111111111111110111111011011010
11111111111101001100000111010110
00000000000001101110110001010001
00000000000000000010000101100010
00000000000001100001111000100101
00000000000011000001010010100011
00000000000001011011000100011010
00000000000010111101101001001011
11111111111111000000000111001011
11111111111110001001000010111100
00000000000000101100000110100100
00000000000100011101101111110111
11111111111111111000000011011100
00000000000001000101000101010001
00000000000000010111101111100110
11111111111010001010111011110101
00000000000001010010001111111000
