11111111111111111001110101110010
00000000000000001100101110110001
00000000000000011110011101110111
00000000000000001010011111000101
00000000000000000100100101100111
11111111111111010111110110000110
11111111111111001010111000001101
00000000000000011000101111101011
11111111111111100100111011111011
11111111111111111110011101101111
11111111111111111100010111001000
11111111111111011111001100010000
00000000000000010110011010000001
11111111111111011010111011111000
11111111111111110000110111001100
11111111111111110111111000110111
11111111111111110110011011111100
00000000000000000101111010010011
11111111111111110011010000001101
11111111111111110010101101101101
00000000000000001100110111010011
11111111111111111010101000000101
00000000000000000100100101100101
11111111111111111000100010110111
00000000000000010110100001110100
00000000000000001100100010101101
11111111111111111101001001001110
00000000000000011010011010110000
00000000000000001110010000110011
00000000000000000111101001101010
11111111111111101111111011100110
11111111111111110110111110110100
11111111111111010100101011110000
11111111111111111100011000010010
11111111111111110000011100100010
00000000000000001001110101001010
00000000000000000110100101001110
00000000000000000100100000011000
00000000000000001101010111110101
11111111111111011100010011000001
11111111111111111100100011011101
00000000000000010111010010001101
11111111111111110110010010100110
11111111111111010100010001000010
11111111111111011110000100000100
11111111111111100100011011111111
00000000000000001000101110110001
00000000000000010001001100111110
11111111111111011011010001001110
00000000000000010110001010010000
11111111111111010100000111000001
11111111111111101110110111100100
00000000000000010111001111000001
11111111111111010111010001111001
11111111111111101111011000111110
11111111111111011101011100001111
11111111111111100000001010011100
11111111111111110101110010001100
00000000000000010001111100110110
11111111111111001000110100101010
11111111111111010111001000110100
00000000000000010111001111110001
11111111111111111110010010111010
00000000000000010100100101101000
11111111111111101011100000001100
11111111111111011011110110000000
00000000000000000100011101000100
11111111111111101101111110100110
11111111111111110000001010010011
11111111111111001111000010110000
11111111111111111011101000110011
11111111111111111100000111001100
11111111111111101100000000111000
00000000000000001011100110111111
00000000000000000100110100110110
11111111111111100011010010100110
11111111111111010001100101101111
11111111111111110101100001000000
00000000000000010110000110001010
11111111111111010011110100111100
00000000000000010111111111101111
11111111111111100110111000001000
00000000000000010010110001110100
11111111111111010010000011101101
00000000000000011000100011110001
11111111111111111100101111101001
11111111111111110010010010100100
11111111111111010100111111111111
11111111111111101110111110110000
11111111111111110000011111000100
00000000000000011010110011000100
00000000000000011010000100001001
00000000000000001111100010101111
11111111111111100011010000111111
00000000000000010010000010100001
11111111111111111110010110010111
00000000000000101000010001111110
11111111111111011011001011000010
11111111111111111011010011100010
00000000000000011001101101110001
11111111111111010100101010100000
00000000000000011100101010101100
11111111111111010111101010101000
00000000000000010010001011001111
11111111111111111101111101100101
00000000000000100110000001000110
00000000000000010001000011100001
11111111111111011010110110011111
11111111111111111000010110011110
11111111111111110000110001011100
11111111111111001101001011001011
11111111111111010010111101000110
11111111111111010000101011000000
00000000000000001000101100100100
00000000000000001110011011111001
00000000000000011011111010010111
11111111111111011001101001100110
00000000000000010011010100100111
11111111111111010101001010101101
11111111111111110111001101001011
11111111111111101001110001110100
11111111111111110100011011100101
11111111111111111100010111000011
00000000000000010100011011100000
11111111111111101011000000011000
00000000000000000010010100111001
11111111111111001100010101001010
11111111111111110010110010101111
11111111111111011011100001100101
11111111111111011010111110111010
11111111111111011011000110010010
11111111111111110110110110100010
11111111111111100100101011001100
11111111111111001100010110011110
11111111111111111000000001100111
11111111111111010010010100000010
00000000000000010100010111011000
11111111111111111100010000101000
11111111111111111100000011101110
11111111111111011101100111010011
11111111111111111010001110001001
11111111111111110000001010110100
11111111111111010111100111110100
11111111111111101010111000110110
11111111111111010111100110000011
11111111111111100101001111101110
11111111111111011101011011111111
00000000000000010000100111101000
11111111111111001110001011000011
00000000000000001010000100111010
00000000000000011011101100010111
11111111111111100111001010010110
00000000000000011011011100101001
11111111111111110101010101010100
00000000000000011101000110010000
00000000000000101000110001001100
00000000000000000010111000100100
00000000000000010101101110101110
00000000000000010100101000111010
11111111111111100111111110001100
00000000000000010100001010111110
11111111111111100000111101110110
11111111111111111111010100010010
11111111111111111100011101111010
00000000000000001101101011110111
11111111111111110010101101001100
00000000000000001001011101100001
00000000000000000101110010000101
00000000000000010100101001100100
