00000000000000010100100110101010
11111111111111001011110101100011
11111111111101101110010001011110
00000000000000001000101111010100
11111111111001111000000001011110
00000000000000000011100110011011
00000000000100101010111000000111
11111111111101101010110100110000
11111111111011010110111001011101
11111111111111010100111100111000
00000000000010011001011101100001
00000000000011011100100110010001
11111111111100111000000000110010
00000000000011101110000001000000
11111111111111100001110011101111
00000000000000100100110011101011
11111111111111100010110110111011
11111111111110101011000000000001
00000000000011000001111011011101
11111111110101111010100101010011
00000000000000011011100011101011
11111111110111010111001011100000
00000000000010101001101111010000
00000000000000001010000010001010
11111111111111100111111101011100
00000000000001111011000000110000
00000000000000100001000110100100
00000000000010101000111001001011
11111111111010100100100010000110
11111111111110101001110101010001
11111111111111111010111001101101
11111111111010100100000010101000
11111111111110011111010010110101
00000000000010110000110101100000
00000000000011000010001000111001
00000000000000010101100010011100
11111111111101110100000101100001
11111111111001101010100101000000
11111111111110100011101011001011
00000000000010101100001010010110
11111111111111101110101000000010
00000000000010001111101100000011
11111111111101001100000111001010
00000000000100110110110011010111
00000000000011001100000110011110
11111111111011100001101000011010
11111111111100011010110111111010
11111111111101101111010011011001
00000000000000010000010110011001
11111111111111011101010001000000
00000000000000010001111010000111
00000000000000011010100011111010
00000000000000101001101101011100
11111111111010111110010111111001
00000000000010010101000011101100
00000000000011101001010011001010
00000000000100100100001110111011
00000000000010110010001111010111
11111111111011111111100110011000
00000000000100010101001001101000
11111111110101000001100101010000
11111111111111011000111010011000
00000000000111001111100010010011
11111111111011011011101111000000
