11111111111111110101010110101001
11111111111110110101100111000111
11111111111101100001110010100011
00000000000000000011101010100111
11111111111000001100101111000011
11111111111111111000111100000100
00000000000000101010001110101100
11111111111010000001101000000100
11111111111011000000001001000110
00000000000000010011010010010000
11111111111111110000001101000011
11111111111100111111101100101111
00000000000011010000111010110001
00000000000010110001101101101110
11111111111100010000010101001111
00000000000000101010101000110100
00000000000001110000011011010010
00000000000010001101010111110000
00000000000010010011011111110011
11111111111110111111001100001101
00000000000000000001101111111100
11111111111010011000101100010010
11111111111110111010001100010001
00000000000001110101011001100101
11111111111111100011100011100001
00000000000010010101010100011101
00000000000011000110100110010001
00000000000001011000101011001100
00000000000000001011101100001111
00000000000000100001000001001000
00000000000000000111001000111100
11111111111100111011000000011101
00000000000011101010011111100000
11111111111111001001101110101000
11111111111110100111110100111100
00000000000000001001001100111000
00000000000000011100010110010100
11111111111010011100001000110011
11111111111001001111000110010101
00000000000001001001001100000011
00000000000001100011010011100011
11111111111010100101000000101101
11111111111010111100010111110010
00000000000110101110111110010010
00000000000010000110101001000110
11111111111100011101110001110011
00000000000100000011111010001001
11111111110110101110000001110000
00000000000000001101100010110000
11111111111111110111010101110110
00000000000001000111100111010010
00000000000000001011101011011111
00000000000000011000100001000011
11111111111111101011010101010111
11111111111111110011110110010101
11111111111011111011101110011101
00000000000000101111001000010101
00000000000011010110110001011011
11111111111100011010110000100111
11111111111001000100010010111100
00000000000001001111111101010011
00000000000000000110000110010000
00000000000010100000000011111100
11111111111100011100011010100000
