00000000000000010000101010011000
00000000000000000101101100011110
11111111110111110001111011101101
00000000000000101111110110011000
00000000000000111000000111011000
11111111111111010101000101001011
11111111111111001100110101100011
11111111111111011001101011000110
11111111111100110101101111110111
00000000000000001101001110011010
00000000000011000101010101001011
11111111111111000101011000111011
00000000000001010101110010010011
00000000000011111100111101101101
11111111111111101010111001011110
00000000000001001110001010111011
11111111111111100101111011010111
00000000000010100010100100101011
11111111111111101111100000010111
00000000000000011111110100000011
00000000000000011001010011110000
00000000000010001000001000001000
11111111111010111011111111010010
00000000000001011000101011001101
00000000000000110100101000010010
00000000000001101000000010100110
00000000000011101001010011010110
11111111111010110001101001010011
11111111111110000010000001100110
11111111111101111001001101101000
00000000000000011101101001000100
00000000000000000111101111110001
00000000000100111111011110011000
11111111111011110111010100101101
11111111111010001000100011101100
11111111111101100101101110111111
11111111111010001001010011101100
00000000000001110010001000010000
11111111110111000000100011001000
11111111111111011110000010110111
11111111111100111110111101110111
11111111111100010000001101110101
11111111111110001001111000101111
11111111110110001010110001011110
11111111111011110001001111111000
11111111111110001111010111100000
11111111111000101000011110001010
11111111111011011000011010110110
11111111111111100011001010000100
11111111111111111100000100001011
11111111111010100101000100100110
00000000000010101111011011011010
11111111111111110001110100111111
00000000000100011011111010010000
11111111111011110111111111111011
00000000000010000101110000000110
11111111111110111000110011011101
11111111111101110100001110100110
11111111111100011001110010001110
11111111111110001000111100010001
00000000000000110010010000011100
11111111111111111110111001111110
11111111111110000100100011111110
11111111111101010000111100111100
