11111111111111001000001010000100
00000000000000101111100100111101
00000000000000110110000000100001
11111111111110100100001011110100
11111111111111110000011111100010
11111111111110000000000001010001
11111111111111000011111001110000
11111111111111110111001010010100
11111111111101010100010111000010
11111111111110111110111111011101
11111111111100011010011100011100
11111111111110100001110100110011
00000000000000111011000011111001
11111111111111100101011110111011
00000000000001110000110101011000
00000000000000000101000101101111
11111111111111011101001100011001
11111111111011101000100001111010
00000000000001100000100101000111
11111111111110011000011000101110
00000000000001111010010010010010
11111111111100010101010111110000
11111111111110001010111010001111
11111111111011110100000110100010
11111111110101011101110010001101
00000000000000111011000001101011
11111111111110111011001101011000
00000000000010000000011100000010
00000000000001100111010001001101
11111111111110011000010000010101
11111111111111100101100100011010
00000000000001010101101111111010
