11111111111110011001111100111110
11111111111111010110101111010001
00000000000001011010111101011110
00000000000010101001001000101001
11111111111110110101111101110010
11111111111100101100000001100010
11111111111111100100110011000100
11111111111101010101111010000100
11111111111011000111010110110111
11111111111110101001101011100010
00000000000000000111000111110010
00000000000000000100110110100010
11111111111110001010011010010110
00000000000010110110011101110110
11111111111110010000010011001111
11111111111111110000101001001010
00000000000001110000100110010010
11111111111110001101100011101110
11111111111101111001001010110110
11111111111110110010100100111111
11111111111011111001100010110011
11111111111100000100100110110110
00000000000001110111100001101111
11111111111010010010100001011100
11111111111010110011100100010100
00000000000001010010001101010110
00000000000000011101011001011001
11111111111111100010100011111101
00000000000001111100000100010111
00000000000000011010101001101010
11111111111101111011000011011010
00000000000000111000001010011110
